{
  "version": "1.0",
  "truncation": {
    "direction": "Right",
    "max_length": 128,
    "strategy": "LongestFirst",
    "stride": 0
  },
  "padding": null,
  "added_tokens": [
    {
      "id": 0,
      "content": "<PAD>",
      "single_word": false,
      "lstrip": false,
      "rstrip": false,
      "normalized": false,
      "special": true
    },
    {
      "id": 1,
      "content": "<UNK>",
      "single_word": false,
      "lstrip": false,
      "rstrip": false,
      "normalized": false,
      "special": true
    },
    {
      "id": 2,
      "content": "<BOS>",
      "single_word": false,
      "lstrip": false,
      "rstrip": false,
      "normalized": false,
      "special": true
    },
    {
      "id": 3,
      "content": "<EOS>",
      "single_word": false,
      "lstrip": false,
      "rstrip": false,
      "normalized": false,
      "special": true
    }
  ],
  "normalizer": null,
  "pre_tokenizer": {
    "type": "Whitespace"
  },
  "post_processor": null,
  "decoder": {
    "type": "ByteLevel",
    "add_prefix_space": true,
    "trim_offsets": true,
    "use_regex": true
  },
  "model": {
    "type": "BPE",
    "dropout": null,
    "unk_token": "<UNK>",
    "continuing_subword_prefix": null,
    "end_of_word_suffix": null,
    "fuse_unk": false,
    "byte_fallback": false,
    "ignore_merges": false,
    "vocab": {
      "<PAD>": 0,
      "<UNK>": 1,
      "<BOS>": 2,
      "<EOS>": 3,
      "a": 4,
      "b": 5,
      "c": 6,
      "d": 7,
      "e": 8,
      "f": 9,
      "g": 10,
      "h": 11,
      "i": 12,
      "j": 13,
      "k": 14,
      "l": 15,
      "m": 16,
      "n": 17,
      "o": 18,
      "p": 19,
      "q": 20,
      "r": 21,
      "s": 22,
      "t": 23,
      "u": 24,
      "v": 25,
      "w": 26,
      "x": 27,
      "y": 28,
      "z": 29,
      "in": 30,
      "er": 31,
      "on": 32,
      "es": 33,
      "ti": 34,
      "en": 35,
      "ed": 36,
      "ing": 37,
      "al": 38,
      "an": 39,
      "ar": 40,
      "re": 41,
      "at": 42,
      "or": 43,
      "tion": 44,
      "tr": 45,
      "le": 46,
      "ic": 47,
      "co": 48,
      "is": 49,
      "it": 50,
      "ac": 51,
      "ent": 52,
      "ro": 53,
      "de": 54,
      "as": 55,
      "ly": 56,
      "ation": 57,
      "un": 58,
      "con": 59,
      "st": 60,
      "ab": 61,
      "ch": 62,
      "mp": 63,
      "se": 64,
      "su": 65,
      "si": 66,
      "lo": 67,
      "ter": 68,
      "th": 69,
      "ad": 70,
      "ts": 71,
      "ap": 72,
      "ex": 73,
      "ul": 74,
      "ve": 75,
      "il": 76,
      "ol": 77,
      "ur": 78,
      "ec": 79,
      "id": 80,
      "me": 81,
      "ver": 82,
      "ce": 83,
      "di": 84,
      "li": 85,
      "qu": 86,
      "ag": 87,
      "po": 88,
      "us": 89,
      "pro": 90,
      "te": 91,
      "res": 92,
      "mo": 93,
      "pl": 94,
      "ate": 95,
      "ity": 96,
      "per": 97,
      "ig": 98,
      "ir": 99,
      "to": 100,
      "tic": 101,
      "am": 102,
      "ted": 103,
      "ain": 104,
      "ment": 105,
      "el": 106,
      "iz": 107,
      "ting": 108,
      "par": 109,
      "ho": 110,
      "ers": 111,
      "comp": 112,
      "ay": 113,
      "sp": 114,
      "ds": 115,
      "ri": 116,
      "cl": 117,
      "min": 118,
      "bo": 119,
      "sub": 120,
      "ff": 121,
      "ally": 122,
      "ang": 123,
      "dis": 124,
      "uc": 125,
      "str": 126,
      "um": 127,
      "do": 128,
      "gr": 129,
      "im": 130,
      "ke": 131,
      "tor": 132,
      "ess": 133,
      "tive": 134,
      "be": 135,
      "ut": 136,
      "ine": 137,
      "and": 138,
      "for": 139,
      "ated": 140,
      "ks": 141,
      "rec": 142,
      "ne": 143,
      "ations": 144,
      "em": 145,
      "ip": 146,
      "ons": 147,
      "end": 148,
      "tions": 149,
      "able": 150,
      "ge": 151,
      "ating": 152,
      "der": 153,
      "ib": 154,
      "est": 155,
      "ans": 156,
      "sh": 157,
      "up": 158,
      "inter": 159,
      "mb": 160,
      "vi": 161,
      "op": 162,
      "ta": 163,
      "als": 164,
      "ates": 165,
      "her": 166,
      "om": 167,
      "pe": 168,
      "ant": 169,
      "igh": 170,
      "oc": 171,
      "pr": 172,
      "ies": 173,
      "ma": 174,
      "car": 175,
      "gen": 176,
      "av": 177,
      "gh": 178,
      "les": 179,
      "mis": 180,
      "ph": 181,
      "sc": 182,
      "enc": 183,
      "all": 184,
      "mon": 185,
      "no": 186,
      "he": 187,
      "mat": 188,
      "lec": 189,
      "pre": 190,
      "war": 191,
      "ill": 192,
      "inc": 193,
      "ence": 194,
      "ack": 195,
      "exp": 196,
      "br": 197,
      "des": 198,
      "val": 199,
      "enti": 200,
      "tric": 201,
      "coun": 202,
      "ll": 203,
      "over": 204,
      "low": 205,
      "sy": 206,
      "ser": 207,
      "tu": 208,
      "ves": 209,
      "und": 210,
      "fe": 211,
      "anc": 212,
      "sion": 213,
      "ty": 214,
      "ind": 215,
      "ass": 216,
      "ak": 217,
      "mul": 218,
      "od": 219,
      "red": 220,
      "ance": 221,
      "trans": 222,
      "dec": 223,
      "if": 224,
      "imp": 225,
      "mar": 226,
      "we": 227,
      "aliz": 228,
      "ors": 229,
      "au": 230,
      "pres": 231,
      "ical": 232,
      "its": 233,
      "ents": 234,
      "ame": 235,
      "cor": 236,
      "iti": 237,
      "os": 238,
      "tur": 239,
      "tain": 240,
      "ens": 241,
      "app": 242,
      "fr": 243,
      "fer": 244,
      "hy": 245,
      "jec": 246,
      "ms": 247,
      "man": 248,
      "wor": 249,
      "ach": 250,
      "row": 251,
      "loc": 252,
      "ments": 253,
      "ati": 254,
      "fin": 255,
      "vis": 256,
      "ings": 257,
      "tri": 258,
      "com": 259,
      "age": 260,
      "cur": 261,
      "fl": 262,
      "ob": 263,
      "tra": 264,
      "col": 265,
      "ters": 266,
      "dr": 267,
      "fac": 268,
      "gn": 269,
      "ok": 270,
      "so": 271,
      "ary": 272,
      "ist": 273,
      "clu": 274,
      "bc": 275,
      "ding": 276,
      "ev": 277,
      "equ": 278,
      "med": 279,
      "ous": 280,
      "log": 281,
      "ther": 282,
      "ative": 283,
      "ble": 284,
      "fi": 285,
      "por": 286,
      "sol": 287,
      "ari": 288,
      "vers": 289,
      "aw": 290,
      "sho": 291,
      "ase": 292,
      "cont": 293,
      "contr": 294,
      "ext": 295,
      "air": 296,
      "bi": 297,
      "cu": 298,
      "gu": 299,
      "hed": 300,
      "king": 301,
      "one": 302,
      "eng": 303,
      "ants": 304,
      "rel": 305,
      "ator": 306,
      "ite": 307,
      "ace": 308,
      "unc": 309,
      "conc": 310,
      "bl": 311,
      "cir": 312,
      "den": 313,
      "ju": 314,
      "line": 315,
      "ry": 316,
      "sing": 317,
      "ice": 318,
      "sur": 319,
      "ular": 320,
      "ility": 321,
      "ays": 322,
      "spec": 323,
      "cal": 324,
      "ded": 325,
      "ep": 326,
      "et": 327,
      "ial": 328,
      "nec": 329,
      "ure": 330,
      "vity": 331,
      "plic": 332,
      "form": 333,
      "ight": 334,
      "gener": 335,
      "amp": 336,
      "cle": 337,
      "ef": 338,
      "ong": 339,
      "ish": 340,
      "ash": 341,
      "adi": 342,
      "pos": 343,
      "mod": 344,
      "multi": 345,
      "ba": 346,
      "ca": 347,
      "duc": 348,
      "fo": 349,
      "ls": 350,
      "mi": 351,
      "ps": 352,
      "ten": 353,
      "ved": 354,
      "ving": 355,
      "inv": 356,
      "ick": 357,
      "act": 358,
      "sec": 359,
      "sign": 360,
      "diff": 361,
      "bu": 362,
      "cd": 363,
      "cy": 364,
      "ide": 365,
      "jo": 366,
      "ot": 367,
      "out": 368,
      "pol": 369,
      "rang": 370,
      "xim": 371,
      "tim": 372,
      "reg": 373,
      "let": 374,
      "acc": 375,
      "def": 376,
      "constr": 377,
      "set": 378,
      "termin": 379,
      "the": 380,
      "cep": 381,
      "que": 382,
      "plan": 383,
      "ail": 384,
      "cap": 385,
      "cul": 386,
      "dy": 387,
      "led": 388,
      "ning": 389,
      "nor": 390,
      "pri": 391,
      "sw": 392,
      "ses": 393,
      "ute": 394,
      "ugh": 395,
      "wn": 396,
      "anti": 397,
      "ard": 398,
      "ars": 399,
      "ise": 400,
      "ith": 401,
      "ect": 402,
      "poly": 403,
      "here": 404,
      "ities": 405,
      "hedr": 406,
      "bre": 407,
      "eff": 408,
      "ia": 409,
      "ion": 410,
      "lic": 411,
      "pp": 412,
      "pend": 413,
      "sin": 414,
      "ins": 415,
      "tro": 416,
      "ically": 417,
      "iter": 418,
      "ast": 419,
      "conf": 420,
      "sions": 421,
      "peri": 422,
      "tors": 423,
      "ax": 424,
      "atic": 425,
      "cent": 426,
      "ft": 427,
      "gg": 428,
      "go": 429,
      "lin": 430,
      "mer": 431,
      "main": 432,
      "sk": 433,
      "ue": 434,
      "ven": 435,
      "wh": 436,
      "wr": 437,
      "inte": 438,
      "tivity": 439,
      "ands": 440,
      "tional": 441,
      "char": 442,
      "sum": 443,
      "tern": 444,
      "agon": 445,
      "ize": 446,
      "ization": 447,
      "grap": 448,
      "rect": 449,
      "ber": 450,
      "bor": 451,
      "cr": 452,
      "clo": 453,
      "cri": 454,
      "dc": 455,
      "dro": 456,
      "ear": 457,
      "ful": 458,
      "fol": 459,
      "hol": 460,
      "ient": 461,
      "ked": 462,
      "ling": 463,
      "mic": 464,
      "num": 465,
      "off": 466,
      "radi": 467,
      "tre": 468,
      "ution": 469,
      "wer": 470,
      "ya": 471,
      "ties": 472,
      "ats": 473,
      "att": 474,
      "ort": 475,
      "try": 476,
      "trac": 477,
      "conver": 478,
      "simp": 479,
      "aps": 480,
      "appro": 481,
      "ids": 482,
      "posi": 483,
      "resp": 484,
      "ward": 485,
      "ances": 486,
      "ave": 487,
      "cc": 488,
      "cre": 489,
      "du": 490,
      "ele": 491,
      "nam": 492,
      "ness": 493,
      "ome": 494,
      "oper": 495,
      "pi": 496,
      "sl": 497,
      "vari": 498,
      "int": 499,
      "ality": 500,
      "ane": 501,
      "requ": 502,
      "ord": 503,
      "order": 504,
      "trib": 505,
      "ites": 506,
      "ases": 507,
      "under": 508,
      "ches": 509,
      "sive": 510,
      "quad": 511,
      "ages": 512,
      "uses": 513,
      "comple": 514,
      "ket": 515,
      "ency": 516,
      "ences": 517,
      "calcul": 518,
      "graph": 519,
      "af": 520,
      "cum": 521,
      "fy": 522,
      "flo": 523,
      "ger": 524,
      "ian": 525,
      "la": 526,
      "men": 527,
      "mid": 528,
      "ni": 529,
      "ner": 530,
      "pain": 531,
      "ss": 532,
      "sch": 533,
      "ys": 534,
      "inde": 535,
      "are": 536,
      "arrang": 537,
      "read": 538,
      "ater": 539,
      "cos": 540,
      "comb": 541,
      "ited": 542,
      "ational": 543,
      "uni": 544,
      "connec": 545,
      "ability": 546,
      "sequ": 547,
      "tho": 548,
      "pot": 549,
      "temp": 550,
      "partic": 551,
      "parame": 552,
      "minim": 553,
      "gram": 554,
      "pred": 555,
      "ght": 556,
      "counter": 557,
      "hyper": 558,
      "comm": 559,
      "factor": 560,
      "differ": 561,
      "construc": 562,
      "bd": 563,
      "bal": 564,
      "bit": 565,
      "ee": 566,
      "elec": 567,
      "ha": 568,
      "mn": 569,
      "mag": 570,
      "ns": 571,
      "ned": 572,
      "ore": 573,
      "pat": 574,
      "pass": 575,
      "sor": 576,
      "tes": 577,
      "vid": 578,
      "ze": 579,
      "entr": 580,
      "aly": 581,
      "ref": 582,
      "atur": 583,
      "cons": 584,
      "stre": 585,
      "super": 586,
      "addi": 587,
      "memb": 588,
      "lim": 589,
      "quar": 590,
      "produc": 591,
      "tical": 592,
      "els": 593,
      "ized": 594,
      "neg": 595,
      "ible": 596,
      "math": 597,
      "incre": 598,
      "valu": 599,
      "present": 600,
      "contin": 601,
      "integr": 602,
      "aa": 603,
      "bb": 604,
      "bed": 605,
      "bur": 606,
      "back": 607,
      "cat": 608,
      "day": 609,
      "gs": 610,
      "gre": 611,
      "ive": 612,
      "ker": 613,
      "mor": 614,
      "mil": 615,
      "na": 616,
      "oid": 617,
      "pq": 618,
      "pu": 619,
      "py": 620,
      "pho": 621,
      "ram": 622,
      "ub": 623,
      "use": 624,
      "uth": 625,
      "vo": 626,
      "van": 627,
      "inf": 628,
      "alle": 629,
      "alph": 630,
      "altern": 631,
      "arrow": 632,
      "tran": 633,
      "ics": 634,
      "ication": 635,
      "isec": 636,
      "iting": 637,
      "ently": 638,
      "determin": 639,
      "ste": 640,
      "chec": 641,
      "chang": 642,
      "separ": 643,
      "selec": 644,
      "identi": 645,
      "proc": 646,
      "projec": 647,
      "izing": 648,
      "parti": 649,
      "compo": 650,
      "domin": 651,
      "new": 652,
      "ending": 653,
      "maxim": 654,
      "count": 655,
      "ture": 656,
      "curr": 657,
      "draw": 658,
      "port": 659,
      "circum": 660,
      "ah": 661,
      "bon": 662,
      "ban": 663,
      "bar": 664,
      "bas": 665,
      "cro": 666,
      "eli": 667,
      "gon": 668,
      "ges": 669,
      "gro": 670,
      "hes": 671,
      "hal": 672,
      "ily": 673,
      "ko": 674,
      "lf": 675,
      "ler": 676,
      "lab": 677,
      "mas": 678,
      "ox": 679,
      "ping": 680,
      "pur": 681,
      "ran": 682,
      "rup": 683,
      "sa": 684,
      "sti": 685,
      "sed": 686,
      "tw": 687,
      "tan": 688,
      "tec": 689,
      "xes": 690,
      "ines": 691,
      "ints": 692,
      "inver": 693,
      "ends": 694,
      "ators": 695,
      "ored": 696,
      "lex": 697,
      "cover": 698,
      "coll": 699,
      "aces": 700,
      "acter": 701,
      "defin": 702,
      "stu": 703,
      "stand": 704,
      "stem": 705,
      "abil": 706,
      "ching": 707,
      "seg": 708,
      "sup": 709,
      "adic": 710,
      "direc": 711,
      "divis": 712,
      "play": 713,
      "tour": 714,
      "tically": 715,
      "ell": 716,
      "homo": 717,
      "compar": 718,
      "down": 719,
      "utes": 720,
      "ips": 721,
      "scal": 722,
      "head": 723,
      "sym": 724,
      "transl": 725,
      "decre": 726,
      "alize": 727,
      "medi": 728,
      "cycl": 729,
      "respon": 730,
      "continu": 731,
      "aq": 732,
      "by": 733,
      "bin": 734,
      "ben": 735,
      "bro": 736,
      "cb": 737,
      "ces": 738,
      "cup": 739,
      "case": 740,
      "emp": 741,
      "fil": 742,
      "gl": 743,
      "hs": 744,
      "hor": 745,
      "hel": 746,
      "ik": 747,
      "ier": 748,
      "ky": 749,
      "ken": 750,
      "kno": 751,
      "ming": 752,
      "mal": 753,
      "nu": 754,
      "non": 755,
      "of": 756,
      "ped": 757,
      "pul": 758,
      "pair": 759,
      "ric": 760,
      "ration": 761,
      "rid": 762,
      "stic": 763,
      "ton": 764,
      "tal": 765,
      "tab": 766,
      "tang": 767,
      "vol": 768,
      "way": 769,
      "wise": 770,
      "with": 771,
      "where": 772,
      "xy": 773,
      "initi": 774,
      "arc": 775,
      "remo": 776,
      "refer": 777,
      "represent": 778,
      "oring": 779,
      "code": 780,
      "iso": 781,
      "rot": 782,
      "del": 783,
      "asy": 784,
      "ased": 785,
      "asing": 786,
      "sts": 787,
      "abc": 788,
      "cho": 789,
      "ched": 790,
      "suff": 791,
      "succ": 792,
      "sible": 793,
      "adv": 794,
      "ape": 795,
      "appe": 796,
      "exclu": 797,
      "divid": 798,
      "most": 799,
      "place": 800,
      "ateg": 801,
      "ately": 802,
      "pers": 803,
      "amin": 804,
      "ains": 805,
      "paralle": 806,
      "recur": 807,
      "interpre": 808,
      "wards": 809,
      "incid": 810,
      "expon": 811,
      "valid": 812,
      "weigh": 813,
      "alized": 814,
      "lock": 815,
      "obser": 816,
      "collec": 817,
      "logy": 818,
      "logical": 819,
      "specif": 820,
      "numer": 821,
      "quadr": 822,
      "combin": 823,
      "ade": 824,
      "aff": 825,
      "bf": 826,
      "bul": 827,
      "bol": 828,
      "bir": 829,
      "cli": 830,
      "dri": 831,
      "ets": 832,
      "fa": 833,
      "fli": 834,
      "flow": 835,
      "hh": 836,
      "hen": 837,
      "hand": 838,
      "hib": 839,
      "iv": 840,
      "ire": 841,
      "iel": 842,
      "ions": 843,
      "kl": 844,
      "kes": 845,
      "lat": 846,
      "lis": 847,
      "less": 848,
      "mes": 849,
      "mut": 850,
      "oes": 851,
      "oth": 852,
      "pa": 853,
      "pes": 854,
      "pen": 855,
      "ption": 856,
      "pig": 857,
      "prec": 858,
      "pack": 859,
      "qr": 860,
      "ra": 861,
      "ring": 862,
      "right": 863,
      "sli": 864,
      "soc": 865,
      "text": 866,
      "uted": 867,
      "vic": 868,
      "vir": 869,
      "win": 870,
      "wed": 871,
      "yo": 872,
      "intr": 873,
      "infl": 874,
      "ering": 875,
      "allow": 876,
      "any": 877,
      "art": 878,
      "ree": 879,
      "reac": 880,
      "repe": 881,
      "reach": 882,
      "ather": 883,
      "ature": 884,
      "lement": 885,
      "ict": 886,
      "icient": 887,
      "itu": 888,
      "acti": 889,
      "depar": 890,
      "depend": 891,
      "asure": 892,
      "assign": 893,
      "lying": 894,
      "consi": 895,
      "contain": 896,
      "chem": 897,
      "simul": 898,
      "lot": 899,
      "ths": 900,
      "add": 901,
      "expl": 902,
      "ulation": 903,
      "ulate": 904,
      "ils": 905,
      "ols": 906,
      "metric": 907,
      "ceed": 908,
      "dig": 909,
      "ush": 910,
      "tech": 911,
      "restric": 912,
      "ples": 913,
      "tou": 914,
      "compe": 915,
      "compos": 916,
      "boo": 917,
      "bound": 918,
      "dist": 919,
      "distrib": 920,
      "strip": 921,
      "kets": 922,
      "tively": 923,
      "inear": 924,
      "vie": 925,
      "optim": 926,
      "expres": 927,
      "ential": 928,
      "system": 929,
      "indic": 930,
      "akes": 931,
      "reduc": 932,
      "alizing": 933,
      "auto": 934,
      "frac": 935,
      "triang": 936,
      "some": 937,
      "contrib": 938,
      "deno": 939,
      "necess": 940,
      "multip": 941,
      "multiplic": 942,
      "norm": 943,
      "hedron": 944,
      "break": 945,
      "approxim": 946,
      "particip": 947,
      "consist": 948,
      "process": 949,
      "group": 950,
      "aim": 951,
      "bes": 952,
      "bing": 953,
      "bel": 954,
      "cance": 955,
      "da": 956,
      "ever": 957,
      "evalu": 958,
      "far": 959,
      "fri": 960,
      "fill": 961,
      "fail": 962,
      "ga": 963,
      "gy": 964,
      "gin": 965,
      "gal": 966,
      "hex": 967,
      "happ": 968,
      "ie": 969,
      "ials": 970,
      "kn": 971,
      "kill": 972,
      "ny": 973,
      "oh": 974,
      "pc": 975,
      "pt": 976,
      "pan": 977,
      "pic": 978,
      "put": 979,
      "ris": 980,
      "run": 981,
      "sen": 982,
      "sis": 983,
      "swe": 984,
      "sati": 985,
      "tt": 986,
      "tar": 987,
      "tas": 988,
      "ues": 989,
      "ual": 990,
      "utr": 991,
      "uting": 992,
      "utions": 993,
      "var": 994,
      "wal": 995,
      "wid": 996,
      "xx": 997,
      "ying": 998,
      "ink": 999,
      "inst": 1000,
      "inser": 1001,
      "inclu": 1002,
      "entric": 1003,
      "analy": 1004,
      "arch": 1005,
      "arri": 1006,
      "rele": 1007,
      "rece": 1008,
      "remain": 1009,
      "rearrang": 1010,
      "aten": 1011,
      "ory": 1012,
      "lear": 1013,
      "ism": 1014,
      "istic": 1015,
      "itting": 1016,
      "dele": 1017,
      "detec": 1018,
      "conduc": 1019,
      "sto": 1020,
      "stabil": 1021,
      "che": 1022,
      "chan": 1023,
      "sets": 1024,
      "sure": 1025,
      "sil": 1026,
      "look": 1027,
      "thes": 1028,
      "thing": 1029,
      "adju": 1030,
      "uld": 1031,
      "ult": 1032,
      "vec": 1033,
      "velo": 1034,
      "ild": 1035,
      "celer": 1036,
      "lif": 1037,
      "lies": 1038,
      "prob": 1039,
      "prop": 1040,
      "modi": 1041,
      "plac": 1042,
      "elli": 1043,
      "complic": 1044,
      "spe": 1045,
      "sphere": 1046,
      "rix": 1047,
      "cles": 1048,
      "class": 1049,
      "board": 1050,
      "substi": 1051,
      "struc": 1052,
      "neutr": 1053,
      "ended": 1054,
      "intersec": 1055,
      "viol": 1056,
      "take": 1057,
      "ights": 1058,
      "oci": 1059,
      "aves": 1060,
      "phr": 1061,
      "explo": 1062,
      "descri": 1063,
      "syn": 1064,
      "anced": 1065,
      "impro": 1066,
      "alization": 1067,
      "apped": 1068,
      "finite": 1069,
      "trave": 1070,
      "evol": 1071,
      "ously": 1072,
      "atively": 1073,
      "fied": 1074,
      "contradic": 1075,
      "extre": 1076,
      "bio": 1077,
      "jug": 1078,
      "linear": 1079,
      "survi": 1080,
      "posed": 1081,
      "mix": 1082,
      "invol": 1083,
      "pping": 1084,
      "character": 1085,
      "follow": 1086,
      "position": 1087,
      "ordin": 1088,
      "reflec": 1089,
      "transi": 1090,
      "elimin": 1091,
      "appear": 1092,
      "consider": 1093,
      "substitu": 1094,
      "aver": 1095,
      "bs": 1096,
      "bat": 1097,
      "bic": 1098,
      "bil": 1099,
      "big": 1100,
      "but": 1101,
      "band": 1102,
      "bility": 1103,
      "bisec": 1104,
      "ck": 1105,
      "can": 1106,
      "cand": 1107,
      "df": 1108,
      "dan": 1109,
      "days": 1110,
      "ek": 1111,
      "ey": 1112,
      "fro": 1113,
      "fig": 1114,
      "fall": 1115,
      "func": 1116,
      "gi": 1117,
      "hc": 1118,
      "har": 1119,
      "hab": 1120,
      "ied": 1121,
      "ja": 1122,
      "ki": 1123,
      "lc": 1124,
      "lap": 1125,
      "luc": 1126,
      "land": 1127,
      "long": 1128,
      "mm": 1129,
      "my": 1130,
      "mus": 1131,
      "mir": 1132,
      "mess": 1133,
      "nes": 1134,
      "name": 1135,
      "osc": 1136,
      "pb": 1137,
      "ple": 1138,
      "pay": 1139,
      "pill": 1140,
      "ru": 1141,
      "rus": 1142,
      "rain": 1143,
      "sm": 1144,
      "sal": 1145,
      "sent": 1146,
      "squ": 1147,
      "spl": 1148,
      "slow": 1149,
      "tin": 1150,
      "tle": 1151,
      "tent": 1152,
      "uce": 1153,
      "ually": 1154,
      "vent": 1155,
      "vation": 1156,
      "wa": 1157,
      "wo": 1158,
      "ws": 1159,
      "wat": 1160,
      "water": 1161,
      "zy": 1162,
      "zer": 1163,
      "ered": 1164,
      "ertain": 1165,
      "ests": 1166,
      "estim": 1167,
      "time": 1168,
      "ene": 1169,
      "aling": 1170,
      "alig": 1171,
      "ano": 1172,
      "arr": 1173,
      "reas": 1174,
      "revers": 1175,
      "rememb": 1176,
      "attain": 1177,
      "orth": 1178,
      "ortho": 1179,
      "trig": 1180,
      "track": 1181,
      "trunc": 1182,
      "truth": 1183,
      "trisec": 1184,
      "lead": 1185,
      "ici": 1186,
      "icity": 1187,
      "cou": 1188,
      "come": 1189,
      "cogn": 1190,
      "coincid": 1191,
      "ists": 1192,
      "acy": 1193,
      "acks": 1194,
      "accep": 1195,
      "acceler": 1196,
      "roll": 1197,
      "round": 1198,
      "deli": 1199,
      "unds": 1200,
      "conclu": 1201,
      "conven": 1202,
      "conjug": 1203,
      "star": 1204,
      "chall": 1205,
      "mpto": 1206,
      "self": 1207,
      "simil": 1208,
      "thy": 1209,
      "adj": 1210,
      "adap": 1211,
      "experi": 1212,
      "old": 1213,
      "oll": 1214,
      "ects": 1215,
      "ected": 1216,
      "ides": 1217,
      "meter": 1218,
      "meters": 1219,
      "verse": 1220,
      "dir": 1221,
      "dies": 1222,
      "diagon": 1223,
      "lied": 1224,
      "like": 1225,
      "quer": 1226,
      "ques": 1227,
      "aging": 1228,
      "agram": 1229,
      "point": 1230,
      "points": 1231,
      "used": 1232,
      "using": 1233,
      "proble": 1234,
      "propor": 1235,
      "tell": 1236,
      "resol": 1237,
      "resid": 1238,
      "perm": 1239,
      "pertur": 1240,
      "ired": 1241,
      "ained": 1242,
      "hop": 1243,
      "comput": 1244,
      "substr": 1245,
      "subtrac": 1246,
      "disrup": 1247,
      "stra": 1248,
      "grad": 1249,
      "key": 1250,
      "tory": 1251,
      "formul": 1252,
      "net": 1253,
      "need": 1254,
      "neigh": 1255,
      "ematic": 1256,
      "get": 1257,
      "shif": 1258,
      "ops": 1259,
      "tax": 1260,
      "omial": 1261,
      "occup": 1262,
      "pris": 1263,
      "card": 1264,
      "gene": 1265,
      "miscalcul": 1266,
      "matrix": 1267,
      "prefer": 1268,
      "desig": 1269,
      "counted": 1270,
      "induc": 1271,
      "associ": 1272,
      "preser": 1273,
      "correc": 1274,
      "correspon": 1275,
      "tures": 1276,
      "fru": 1277,
      "hypo": 1278,
      "hydro": 1279,
      "jective": 1280,
      "manip": 1281,
      "word": 1282,
      "work": 1283,
      "rows": 1284,
      "ativity": 1285,
      "travers": 1286,
      "even": 1287,
      "equi": 1288,
      "fix": 1289,
      "guar": 1290,
      "engine": 1291,
      "concer": 1292,
      "clean": 1293,
      "polar": 1294,
      "accum": 1295,
      "theore": 1296,
      "hedral": 1297,
      "confir": 1298,
      "lines": 1299,
      "rectang": 1300,
      "duplic": 1301,
      "ometric": 1302,
      "parameter": 1303,
      "differenti": 1304,
      "atures": 1305,
      "mathematic": 1306,
      "increment": 1307,
      "alphab": 1308,
      "check": 1309,
      "label": 1310,
      "segment": 1311,
      "withdraw": 1312,
      "success": 1313,
      "interpret": 1314,
      "exponenti": 1315,
      "competi": 1316,
      "satis": 1317,
      "adjust": 1318,
      "propag": 1319,
      "oscill": 1320,
      "ake": 1321,
      "bx": 1322,
      "bis": 1323,
      "bus": 1324,
      "ball": 1325,
      "bits": 1326,
      "bloc": 1327,
      "cn": 1328,
      "cq": 1329,
      "cab": 1330,
      "call": 1331,
      "categ": 1332,
      "don": 1333,
      "dat": 1334,
      "dur": 1335,
      "ders": 1336,
      "eu": 1337,
      "eve": 1338,
      "eig": 1339,
      "eks": 1340,
      "fun": 1341,
      "fam": 1342,
      "fib": 1343,
      "foc": 1344,
      "fav": 1345,
      "find": 1346,
      "frequ": 1347,
      "fication": 1348,
      "gc": 1349,
      "ged": 1350,
      "ging": 1351,
      "gar": 1352,
      "gent": 1353,
      "gres": 1354,
      "gir": 1355,
      "gers": 1356,
      "his": 1357,
      "hip": 1358,
      "high": 1359,
      "hill": 1360,
      "hund": 1361,
      "hash": 1362,
      "hands": 1363,
      "ii": 1364,
      "ior": 1365,
      "ition": 1366,
      "ially": 1367,
      "ium": 1368,
      "itive": 1369,
      "ka": 1370,
      "lad": 1371,
      "lay": 1372,
      "lang": 1373,
      "leng": 1374,
      "lish": 1375,
      "liter": 1376,
      "mr": 1377,
      "mu": 1378,
      "may": 1379,
      "nel": 1380,
      "ners": 1381,
      "narrow": 1382,
      "ods": 1383,
      "ough": 1384,
      "pm": 1385,
      "pon": 1386,
      "pent": 1387,
      "pip": 1388,
      "panc": 1389,
      "rad": 1390,
      "rho": 1391,
      "sn": 1392,
      "son": 1393,
      "sco": 1394,
      "sand": 1395,
      "satur": 1396,
      "squar": 1397,
      "tg": 1398,
      "tun": 1399,
      "tons": 1400,
      "table": 1401,
      "tall": 1402,
      "ug": 1403,
      "ule": 1404,
      "uter": 1405,
      "uff": 1406,
      "vals": 1407,
      "who": 1408,
      "wers": 1409,
      "west": 1410,
      "whe": 1411,
      "ye": 1412,
      "zo": 1413,
      "intu": 1414,
      "inhib": 1415,
      "err": 1416,
      "ono": 1417,
      "ones": 1418,
      "ese": 1419,
      "til": 1420,
      "enh": 1421,
      "ali": 1422,
      "alter": 1423,
      "ante": 1424,
      "aro": 1425,
      "aries": 1426,
      "argu": 1427,
      "arith": 1428,
      "rep": 1429,
      "reve": 1430,
      "retur": 1431,
      "revis": 1432,
      "reconstruc": 1433,
      "recogn": 1434,
      "ath": 1435,
      "atten": 1436,
      "attemp": 1437,
      "org": 1438,
      "ores": 1439,
      "ories": 1440,
      "orient": 1441,
      "tron": 1442,
      "truc": 1443,
      "trip": 1444,
      "trop": 1445,
      "tries": 1446,
      "trape": 1447,
      "lef": 1448,
      "leav": 1449,
      "left": 1450,
      "ich": 1451,
      "iction": 1452,
      "icular": 1453,
      "cour": 1454,
      "cook": 1455,
      "coeff": 1456,
      "coordin": 1457,
      "ital": 1458,
      "itor": 1459,
      "itted": 1460,
      "action": 1461,
      "acts": 1462,
      "accur": 1463,
      "enter": 1464,
      "room": 1465,
      "rough": 1466,
      "dep": 1467,
      "decl": 1468,
      "devi": 1469,
      "demon": 1470,
      "develo": 1471,
      "asc": 1472,
      "assu": 1473,
      "aster": 1474,
      "asur": 1475,
      "astic": 1476,
      "une": 1477,
      "congr": 1478,
      "state": 1479,
      "aba": 1480,
      "absor": 1481,
      "mps": 1482,
      "sem": 1483,
      "sely": 1484,
      "sell": 1485,
      "sust": 1486,
      "supp": 1487,
      "sugg": 1488,
      "side": 1489,
      "load": 1490,
      "logram": 1491,
      "thor": 1492,
      "ads": 1493,
      "applic": 1494,
      "exc": 1495,
      "exec": 1496,
      "examp": 1497,
      "excep": 1498,
      "exchang": 1499,
      "exceed": 1500,
      "ules": 1501,
      "ili": 1502,
      "iling": 1503,
      "urs": 1504,
      "mean": 1505,
      "mechan": 1506,
      "measur": 1507,
      "verif": 1508,
      "cell": 1509,
      "diver": 1510,
      "direct": 1511,
      "dimen": 1512,
      "ligh": 1513,
      "agree": 1514,
      "pop": 1515,
      "post": 1516,
      "prof": 1517,
      "promo": 1518,
      "proper": 1519,
      "program": 1520,
      "progres": 1521,
      "tetra": 1522,
      "more": 1523,
      "mode": 1524,
      "moun": 1525,
      "perpend": 1526,
      "top": 1527,
      "tox": 1528,
      "togg": 1529,
      "ams": 1530,
      "amer": 1531,
      "aint": 1532,
      "izes": 1533,
      "part": 1534,
      "parent": 1535,
      "compens": 1536,
      "span": 1537,
      "space": 1538,
      "claim": 1539,
      "ange": 1540,
      "disc": 1541,
      "strong": 1542,
      "strateg": 1543,
      "umer": 1544,
      "dot": 1545,
      "dots": 1546,
      "grand": 1547,
      "bet": 1548,
      "forc": 1549,
      "format": 1550,
      "forms": 1551,
      "forces": 1552,
      "near": 1553,
      "emis": 1554,
      "deriv": 1555,
      "ibility": 1556,
      "estab": 1557,
      "answer": 1558,
      "shar": 1559,
      "shad": 1560,
      "shuff": 1561,
      "upd": 1562,
      "mbol": 1563,
      "tail": 1564,
      "taken": 1565,
      "omials": 1566,
      "princ": 1567,
      "matic": 1568,
      "carri": 1569,
      "carry": 1570,
      "avoid": 1571,
      "mission": 1572,
      "phen": 1573,
      "sci": 1574,
      "scri": 1575,
      "encing": 1576,
      "enclo": 1577,
      "encies": 1578,
      "monot": 1579,
      "heap": 1580,
      "match": 1581,
      "precomp": 1582,
      "incor": 1583,
      "bra": 1584,
      "bran": 1585,
      "desc": 1586,
      "counts": 1587,
      "ancing": 1588,
      "transform": 1589,
      "impos": 1590,
      "implic": 1591,
      "import": 1592,
      "implement": 1593,
      "aug": 1594,
      "apping": 1595,
      "words": 1596,
      "atives": 1597,
      "face": 1598,
      "clust": 1599,
      "control": 1600,
      "guess": 1601,
      "enger": 1602,
      "relations": 1603,
      "concaten": 1604,
      "clear": 1605,
      "asha": 1606,
      "access": 1607,
      "dynam": 1608,
      "prior": 1609,
      "swit": 1610,
      "swim": 1611,
      "ught": 1612,
      "tromin": 1613,
      "period": 1614,
      "maintain": 1615,
      "radii": 1616,
      "radius": 1617,
      "tree": 1618,
      "attack": 1619,
      "approach": 1620,
      "ometry": 1621,
      "fying": 1622,
      "sched": 1623,
      "index": 1624,
      "connected": 1625,
      "sequence": 1626,
      "parametr": 1627,
      "commun": 1628,
      "electric": 1629,
      "photo": 1630,
      "alpha": 1631,
      "transp": 1632,
      "partition": 1633,
      "composi": 1634,
      "cross": 1635,
      "purch": 1636,
      "safe": 1637,
      "symmetric": 1638,
      "xyz": 1639,
      "asympto": 1640,
      "pige": 1641,
      "introd": 1642,
      "influ": 1643,
      "activ": 1644,
      "addres": 1645,
      "denomin": 1646,
      "every": 1647,
      "recei": 1648,
      "placed": 1649,
      "speak": 1650,
      "mirr": 1651,
      "deliver": 1652,
      "similar": 1653,
      "adjac": 1654,
      "perturb": 1655,
      "neighbor": 1656,
      "equival": 1657,
      "guarante": 1658,
      "eigen": 1659,
      "hundred": 1660,
      "demonstr": 1661,
      "congru": 1662,
      "perpendicular": 1663,
      "ae": 1664,
      "ai": 1665,
      "ao": 1666,
      "aks": 1667,
      "ahedron": 1668,
      "bk": 1669,
      "bm": 1670,
      "bn": 1671,
      "bq": 1672,
      "bt": 1673,
      "bun": 1674,
      "blo": 1675,
      "bec": 1676,
      "bid": 1677,
      "bacter": 1678,
      "cut": 1679,
      "cau": 1680,
      "came": 1681,
      "cry": 1682,
      "cash": 1683,
      "cases": 1684,
      "clock": 1685,
      "centric": 1686,
      "din": 1687,
      "dam": 1688,
      "dest": 1689,
      "dwar": 1690,
      "doll": 1691,
      "eco": 1692,
      "eas": 1693,
      "fd": 1694,
      "fre": 1695,
      "fic": 1696,
      "fis": 1697,
      "fur": 1698,
      "figh": 1699,
      "fies": 1700,
      "fast": 1701,
      "gor": 1702,
      "gam": 1703,
      "gend": 1704,
      "gest": 1705,
      "gall": 1706,
      "grow": 1707,
      "greg": 1708,
      "gather": 1709,
      "hon": 1710,
      "hat": 1711,
      "ham": 1712,
      "hack": 1713,
      "hips": 1714,
      "hmm": 1715,
      "ij": 1716,
      "ile": 1717,
      "iev": 1718,
      "je": 1719,
      "jan": 1720,
      "jor": 1721,
      "jus": 1722,
      "jok": 1723,
      "kit": 1724,
      "kad": 1725,
      "kop": 1726,
      "ld": 1727,
      "ln": 1728,
      "len": 1729,
      "lar": 1730,
      "lor": 1731,
      "lit": 1732,
      "las": 1733,
      "list": 1734,
      "law": 1735,
      "lands": 1736,
      "mation": 1737,
      "mol": 1738,
      "mers": 1739,
      "mand": 1740,
      "mass": 1741,
      "nuc": 1742,
      "ov": 1743,
      "oy": 1744,
      "ose": 1745,
      "our": 1746,
      "other": 1747,
      "ograph": 1748,
      "pd": 1749,
      "pal": 1750,
      "pac": 1751,
      "pas": 1752,
      "pad": 1753,
      "pus": 1754,
      "pies": 1755,
      "plot": 1756,
      "rm": 1757,
      "rab": 1758,
      "rap": 1759,
      "rig": 1760,
      "rice": 1761,
      "rational": 1762,
      "rub": 1763,
      "sr": 1764,
      "sun": 1765,
      "slo": 1766,
      "smo": 1767,
      "spar": 1768,
      "ske": 1769,
      "sav": 1770,
      "sens": 1771,
      "samp": 1772,
      "sses": 1773,
      "tx": 1774,
      "tex": 1775,
      "test": 1776,
      "tals": 1777,
      "tens": 1778,
      "tect": 1779,
      "ux": 1780,
      "usu": 1781,
      "umin": 1782,
      "usion": 1783,
      "uish": 1784,
      "ugg": 1785,
      "va": 1786,
      "vw": 1787,
      "vin": 1788,
      "vac": 1789,
      "vas": 1790,
      "vable": 1791,
      "vice": 1792,
      "vacc": 1793,
      "wi": 1794,
      "ww": 1795,
      "was": 1796,
      "wol": 1797,
      "ways": 1798,
      "wide": 1799,
      "xia": 1800,
      "yar": 1801,
      "ycl": 1802,
      "yiel": 1803,
      "zz": 1804,
      "zen": 1805,
      "zed": 1806,
      "ina": 1807,
      "inity": 1808,
      "infer": 1809,
      "individ": 1810,
      "inconsist": 1811,
      "ested": 1812,
      "tice": 1813,
      "titu": 1814,
      "tives": 1815,
      "tible": 1816,
      "ening": 1817,
      "enco": 1818,
      "encounter": 1819,
      "envir": 1820,
      "enumer": 1821,
      "eds": 1822,
      "eding": 1823,
      "alex": 1824,
      "alge": 1825,
      "alloc": 1826,
      "ana": 1827,
      "ann": 1828,
      "anal": 1829,
      "arti": 1830,
      "rever": 1831,
      "retain": 1832,
      "react": 1833,
      "rewr": 1834,
      "reorder": 1835,
      "repain": 1836,
      "replace": 1837,
      "rehen": 1838,
      "atom": 1839,
      "oration": 1840,
      "orig": 1841,
      "orbit": 1842,
      "train": 1843,
      "trim": 1844,
      "tract": 1845,
      "ley": 1846,
      "lever": 1847,
      "leep": 1848,
      "ices": 1849,
      "icograph": 1850,
      "coup": 1851,
      "coher": 1852,
      "copri": 1853,
      "copy": 1854,
      "isol": 1855,
      "isms": 1856,
      "ision": 1857,
      "istrib": 1858,
      "itation": 1859,
      "acqu": 1860,
      "actic": 1861,
      "acting": 1862,
      "active": 1863,
      "actions": 1864,
      "enters": 1865,
      "roo": 1866,
      "defe": 1867,
      "degener": 1868,
      "depos": 1869,
      "deque": 1870,
      "decompos": 1871,
      "asse": 1872,
      "assi": 1873,
      "lya": 1874,
      "unfol": 1875,
      "cond": 1876,
      "conv": 1877,
      "consu": 1878,
      "condi": 1879,
      "confl": 1880,
      "stay": 1881,
      "stop": 1882,
      "stom": 1883,
      "stack": 1884,
      "stati": 1885,
      "stair": 1886,
      "step": 1887,
      "abo": 1888,
      "abs": 1889,
      "ably": 1890,
      "abab": 1891,
      "ables": 1892,
      "chr": 1893,
      "chick": 1894,
      "see": 1895,
      "sel": 1896,
      "seem": 1897,
      "secu": 1898,
      "semi": 1899,
      "semic": 1900,
      "sus": 1901,
      "suit": 1902,
      "sig": 1903,
      "six": 1904,
      "sian": 1905,
      "sitive": 1906,
      "sight": 1907,
      "loy": 1908,
      "thin": 1909,
      "thir": 1910,
      "throw": 1911,
      "thous": 1912,
      "ades": 1913,
      "aper": 1914,
      "apart": 1915,
      "exist": 1916,
      "extrac": 1917,
      "uler": 1918,
      "ulated": 1919,
      "ulations": 1920,
      "ilater": 1921,
      "ury": 1922,
      "ecting": 1923,
      "ective": 1924,
      "iden": 1925,
      "ident": 1926,
      "mel": 1927,
      "memo": 1928,
      "metab": 1929,
      "measure": 1930,
      "ceil": 1931,
      "diame": 1932,
      "lig": 1933,
      "lion": 1934,
      "lide": 1935,
      "life": 1936,
      "light": 1937,
      "quo": 1938,
      "quick": 1939,
      "quanti": 1940,
      "ags": 1941,
      "aged": 1942,
      "agons": 1943,
      "pose": 1944,
      "pour": 1945,
      "power": 1946,
      "provid": 1947,
      "protec": 1948,
      "proceed": 1949,
      "tele": 1950,
      "teles": 1951,
      "teach": 1952,
      "rest": 1953,
      "resul": 1954,
      "move": 1955,
      "motor": 1956,
      "molec": 1957,
      "plat": 1958,
      "plus": 1959,
      "perform": 1960,
      "percent": 1961,
      "ignor": 1962,
      "tok": 1963,
      "tools": 1964,
      "amine": 1965,
      "mental": 1966,
      "elf": 1967,
      "izon": 1968,
      "tings": 1969,
      "tinguish": 1970,
      "paras": 1971,
      "hole": 1972,
      "compres": 1973,
      "compati": 1974,
      "comprehen": 1975,
      "spel": 1976,
      "spher": 1977,
      "spread": 1978,
      "spaces": 1979,
      "clin": 1980,
      "clar": 1981,
      "minis": 1982,
      "boc": 1983,
      "bot": 1984,
      "bow": 1985,
      "box": 1986,
      "book": 1987,
      "body": 1988,
      "bott": 1989,
      "subt": 1990,
      "discar": 1991,
      "discre": 1992,
      "distinguish": 1993,
      "doc": 1994,
      "dom": 1995,
      "dou": 1996,
      "domain": 1997,
      "doub": 1998,
      "grass": 1999,
      "imm": 2000,
      "imal": 2001,
      "keep": 2002,
      "beh": 2003,
      "beat": 2004,
      "beha": 2005,
      "begin": 2006,
      "andre": 2007,
      "formed": 2008,
      "forward": 2009,
      "reci": 2010,
      "recor": 2011,
      "emer": 2012,
      "ipher": 2013,
      "gets": 2014,
      "geometric": 2015,
      "geeks": 2016,
      "she": 2017,
      "short": 2018,
      "ups": 2019,
      "upper": 2020,
      "intern": 2021,
      "intercep": 2022,
      "interleav": 2023,
      "mber": 2024,
      "vide": 2025,
      "takes": 2026,
      "omen": 2027,
      "oct": 2028,
      "octa": 2029,
      "occur": 2030,
      "occurr": 2031,
      "prin": 2032,
      "max": 2033,
      "major": 2034,
      "gence": 2035,
      "aven": 2036,
      "avail": 2037,
      "phys": 2038,
      "phism": 2039,
      "monic": 2040,
      "not": 2041,
      "note": 2042,
      "hear": 2043,
      "matched": 2044,
      "prepar": 2045,
      "ware": 2046,
      "inct": 2047,
      "expand": 2048,
      "expect": 2049,
      "brac": 2050,
      "brun": 2051,
      "brid": 2052,
      "value": 2053,
      "entially": 2054,
      "counting": 2055,
      "overl": 2056,
      "lower": 2057,
      "symbol": 2058,
      "feas": 2059,
      "typ": 2060,
      "indent": 2061,
      "indro": 2062,
      "transfer": 2063,
      "decry": 2064,
      "ify": 2065,
      "ific": 2066,
      "ification": 2067,
      "mark": 2068,
      "mary": 2069,
      "aux": 2070,
      "correct": 2071,
      "tured": 2072,
      "tural": 2073,
      "frid": 2074,
      "frag": 2075,
      "frame": 2076,
      "ference": 2077,
      "ject": 2078,
      "mands": 2079,
      "manage": 2080,
      "works": 2081,
      "achiev": 2082,
      "finish": 2083,
      "trivi": 2084,
      "comes": 2085,
      "coming": 2086,
      "curv": 2087,
      "obtain": 2088,
      "color": 2089,
      "istant": 2090,
      "equal": 2091,
      "logarith": 2092,
      "ports": 2093,
      "solute": 2094,
      "arily": 2095,
      "versity": 2096,
      "shoo": 2097,
      "contest": 2098,
      "contamin": 2099,
      "exten": 2100,
      "cube": 2101,
      "custom": 2102,
      "related": 2103,
      "uncertain": 2104,
      "concentr": 2105,
      "circle": 2106,
      "circles": 2107,
      "jump": 2108,
      "singular": 2109,
      "spectr": 2110,
      "deduc": 2111,
      "possi": 2112,
      "four": 2113,
      "invari": 2114,
      "signific": 2115,
      "diffic": 2116,
      "buil": 2117,
      "join": 2118,
      "otes": 2119,
      "poll": 2120,
      "regular": 2121,
      "letes": 2122,
      "plane": 2123,
      "capac": 2124,
      "polyn": 2125,
      "hedrons": 2126,
      "pped": 2127,
      "config": 2128,
      "center": 2129,
      "centers": 2130,
      "skin": 2131,
      "skip": 2132,
      "skill": 2133,
      "whites": 2134,
      "borrow": 2135,
      "clou": 2136,
      "crimin": 2137,
      "fully": 2138,
      "number": 2139,
      "offic": 2140,
      "treat": 2141,
      "attach": 2142,
      "simpli": 2143,
      "simplif": 2144,
      "positions": 2145,
      "elev": 2146,
      "piec": 2147,
      "slant": 2148,
      "aneous": 2149,
      "require": 2150,
      "understand": 2151,
      "complete": 2152,
      "graphs": 2153,
      "floor": 2154,
      "laur": 2155,
      "independ": 2156,
      "arrange": 2157,
      "uniform": 2158,
      "sequences": 2159,
      "though": 2160,
      "predic": 2161,
      "hyperbol": 2162,
      "bitmas": 2163,
      "electro": 2164,
      "magn": 2165,
      "magne": 2166,
      "path": 2167,
      "patho": 2168,
      "entral": 2169,
      "stret": 2170,
      "stream": 2171,
      "superconduc": 2172,
      "additive": 2173,
      "additivity": 2174,
      "members": 2175,
      "limit": 2176,
      "cataly": 2177,
      "puts": 2178,
      "pyth": 2179,
      "vanish": 2180,
      "determined": 2181,
      "stein": 2182,
      "partite": 2183,
      "gonal": 2184,
      "oxid": 2185,
      "lexicograph": 2186,
      "covered": 2187,
      "collap": 2188,
      "segments": 2189,
      "played": 2190,
      "tournam": 2191,
      "homothe": 2192,
      "homogene": 2193,
      "decrement": 2194,
      "benef": 2195,
      "filter": 2196,
      "hormon": 2197,
      "horizon": 2198,
      "know": 2199,
      "known": 2200,
      "rich": 2201,
      "tangent": 2202,
      "sufficient": 2203,
      "quadratic": 2204,
      "combinator": 2205,
      "birth": 2206,
      "climb": 2207,
      "qrt": 2208,
      "rais": 2209,
      "rightarrow": 2210,
      "victor": 2211,
      "youn": 2212,
      "itude": 2213,
      "techno": 2214,
      "touch": 2215,
      "books": 2216,
      "bounded": 2217,
      "distinct": 2218,
      "necessit": 2219,
      "belong": 2220,
      "friends": 2221,
      "width": 2222,
      "rearrange": 2223,
      "thesis": 2224,
      "uldn": 2225,
      "vector": 2226,
      "ellip": 2227,
      "finitely": 2228,
      "habit": 2229,
      "lucky": 2230,
      "small": 2231,
      "split": 2232,
      "zero": 2233,
      "reason": 2234,
      "orthoc": 2235,
      "iciency": 2236,
      "coupl": 2237,
      "challeng": 2238,
      "adapt": 2239,
      "problems": 2240,
      "computation": 2241,
      "straight": 2242,
      "fruit": 2243,
      "alphabe": 2244,
      "euro": 2245,
      "favor": 2246,
      "sandw": 2247,
      "organ": 2248,
      "trapez": 2249,
      "sustain": 2250,
      "thorough": 2251,
      "dimension": 2252,
      "establish": 2253,
      "scienti": 2254,
      "monoton": 2255,
      "augment": 2256,
      "pigeon": 2257,
      "introduc": 2258,
      "cryst": 2259,
      "justi": 2260,
      "palindro": 2261,
      "smooth": 2262,
      "environ": 2263,
      "algebra": 2264,
      "origin": 2265,
      "assemb": 2266,
      "semicir": 2267,
      "metabol": 2268,
      "telesco": 2269,
      "behavi": 2270,
      "az": 2271,
      "aco": 2272,
      "aab": 2273,
      "aqu": 2274,
      "avi": 2275,
      "aque": 2276,
      "ault": 2277,
      "amoun": 2278,
      "bly": 2279,
      "bab": 2280,
      "bam": 2281,
      "bers": 2282,
      "bri": 2283,
      "buc": 2284,
      "bles": 2285,
      "bill": 2286,
      "bind": 2287,
      "bak": 2288,
      "bble": 2289,
      "bins": 2290,
      "batt": 2291,
      "bell": 2292,
      "cm": 2293,
      "cs": 2294,
      "cx": 2295,
      "cer": 2296,
      "cen": 2297,
      "cas": 2298,
      "cred": 2299,
      "citi": 2300,
      "crow": 2301,
      "cular": 2302,
      "cast": 2303,
      "cket": 2304,
      "cakes": 2305,
      "certain": 2306,
      "cipher": 2307,
      "dm": 2308,
      "dal": 2309,
      "dre": 2310,
      "dor": 2311,
      "dle": 2312,
      "dil": 2313,
      "did": 2314,
      "dres": 2315,
      "date": 2316,
      "dang": 2317,
      "dum": 2318,
      "dau": 2319,
      "dash": 2320,
      "dict": 2321,
      "diction": 2322,
      "ees": 2323,
      "eis": 2324,
      "eth": 2325,
      "eper": 2326,
      "egg": 2327,
      "euler": 2328,
      "fs": 2329,
      "fen": 2330,
      "fed": 2331,
      "fing": 2332,
      "fat": 2333,
      "fle": 2334,
      "fly": 2335,
      "fres": 2336,
      "fir": 2337,
      "fers": 2338,
      "fem": 2339,
      "fif": 2340,
      "fair": 2341,
      "fish": 2342,
      "fect": 2343,
      "fare": 2344,
      "flex": 2345,
      "free": 2346,
      "father": 2347,
      "glo": 2348,
      "gap": 2349,
      "gol": 2350,
      "gate": 2351,
      "gain": 2352,
      "gho": 2353,
      "gri": 2354,
      "gang": 2355,
      "gem": 2356,
      "gons": 2357,
      "gates": 2358,
      "gover": 2359,
      "gif": 2360,
      "got": 2361,
      "gold": 2362,
      "hn": 2363,
      "ht": 2364,
      "hz": 2365,
      "hing": 2366,
      "hic": 2367,
      "has": 2368,
      "hun": 2369,
      "had": 2370,
      "hul": 2371,
      "hil": 2372,
      "hig": 2373,
      "hang": 2374,
      "hum": 2375,
      "him": 2376,
      "hall": 2377,
      "hub": 2378,
      "hier": 2379,
      "hemis": 2380,
      "io": 2381,
      "ix": 2382,
      "iation": 2383,
      "ius": 2384,
      "ike": 2385,
      "ivan": 2386,
      "ji": 2387,
      "jk": 2388,
      "jam": 2389,
      "jim": 2390,
      "job": 2391,
      "junc": 2392,
      "jia": 2393,
      "jury": 2394,
      "kx": 2395,
      "kin": 2396,
      "kar": 2397,
      "kat": 2398,
      "kol": 2399,
      "kel": 2400,
      "kang": 2401,
      "kine": 2402,
      "kings": 2403,
      "kah": 2404,
      "krus": 2405,
      "lac": 2406,
      "lli": 2407,
      "lag": 2408,
      "late": 2409,
      "lam": 2410,
      "lind": 2411,
      "lens": 2412,
      "lone": 2413,
      "lamp": 2414,
      "later": 2415,
      "ml": 2416,
      "mac": 2417,
      "map": 2418,
      "mum": 2419,
      "mim": 2420,
      "miti": 2421,
      "mach": 2422,
      "mality": 2423,
      "mitted": 2424,
      "nd": 2425,
      "nr": 2426,
      "nac": 2427,
      "nment": 2428,
      "none": 2429,
      "nice": 2430,
      "night": 2431,
      "nick": 2432,
      "nail": 2433,
      "natur": 2434,
      "nels": 2435,
      "og": 2436,
      "oq": 2437,
      "ow": 2438,
      "oz": 2439,
      "ole": 2440,
      "ode": 2441,
      "own": 2442,
      "outer": 2443,
      "pin": 2444,
      "plo": 2445,
      "pir": 2446,
      "pted": 2447,
      "piz": 2448,
      "ptions": 2449,
      "penc": 2450,
      "pati": 2451,
      "paw": 2452,
      "pure": 2453,
      "pick": 2454,
      "push": 2455,
      "qt": 2456,
      "qslant": 2457,
      "rs": 2458,
      "rat": 2459,
      "rating": 2460,
      "rati": 2461,
      "rings": 2462,
      "rail": 2463,
      "san": 2464,
      "ssu": 2465,
      "spo": 2466,
      "say": 2467,
      "sons": 2468,
      "send": 2469,
      "sund": 2470,
      "sod": 2471,
      "smar": 2472,
      "song": 2473,
      "slic": 2474,
      "spot": 2475,
      "situ": 2476,
      "sleep": 2477,
      "sqrt": 2478,
      "tol": 2479,
      "tment": 2480,
      "tally": 2481,
      "uti": 2482,
      "ued": 2483,
      "uan": 2484,
      "uters": 2485,
      "uary": 2486,
      "vor": 2487,
      "vap": 2488,
      "vib": 2489,
      "vant": 2490,
      "vill": 2491,
      "vents": 2492,
      "vary": 2493,
      "vlad": 2494,
      "wy": 2495,
      "won": 2496,
      "wit": 2497,
      "wall": 2498,
      "will": 2499,
      "wind": 2500,
      "wish": 2501,
      "wash": 2502,
      "wick": 2503,
      "wave": 2504,
      "wels": 2505,
      "wik": 2506,
      "wild": 2507,
      "yd": 2508,
      "yr": 2509,
      "yes": 2510,
      "yor": 2511,
      "yel": 2512,
      "ynam": 2513,
      "za": 2514,
      "zing": 2515,
      "zag": 2516,
      "zig": 2517,
      "inth": 2518,
      "instr": 2519,
      "iness": 2520,
      "inher": 2521,
      "injec": 2522,
      "inform": 2523,
      "inten": 2524,
      "insec": 2525,
      "inner": 2526,
      "invalid": 2527,
      "instruc": 2528,
      "indirect": 2529,
      "inscri": 2530,
      "inclin": 2531,
      "era": 2532,
      "erc": 2533,
      "erry": 2534,
      "ond": 2535,
      "esting": 2536,
      "escap": 2537,
      "essive": 2538,
      "tied": 2539,
      "tian": 2540,
      "tile": 2541,
      "tient": 2542,
      "tight": 2543,
      "tissu": 2544,
      "ener": 2545,
      "ened": 2546,
      "enor": 2547,
      "ench": 2548,
      "ense": 2549,
      "ensu": 2550,
      "enem": 2551,
      "enari": 2552,
      "envelo": 2553,
      "enzy": 2554,
      "educ": 2555,
      "edge": 2556,
      "edges": 2557,
      "ingred": 2558,
      "alt": 2559,
      "ales": 2560,
      "alan": 2561,
      "alar": 2562,
      "alco": 2563,
      "alth": 2564,
      "alone": 2565,
      "algor": 2566,
      "altitu": 2567,
      "ank": 2568,
      "anted": 2569,
      "anno": 2570,
      "anagram": 2571,
      "aren": 2572,
      "aris": 2573,
      "ards": 2574,
      "arding": 2575,
      "arbi": 2576,
      "rein": 2577,
      "rees": 2578,
      "retion": 2579,
      "rely": 2580,
      "rete": 2581,
      "recomp": 2582,
      "replic": 2583,
      "recep": 2584,
      "reproduc": 2585,
      "recover": 2586,
      "revol": 2587,
      "rephr": 2588,
      "ato": 2589,
      "atter": 2590,
      "atmo": 2591,
      "attrib": 2592,
      "orts": 2593,
      "tionally": 2594,
      "tru": 2595,
      "trin": 2596,
      "tration": 2597,
      "trace": 2598,
      "lem": 2599,
      "lean": 2600,
      "lets": 2601,
      "leve": 2602,
      "lemon": 2603,
      "leave": 2604,
      "lepip": 2605,
      "ican": 2606,
      "icks": 2607,
      "ician": 2608,
      "iches": 2609,
      "cob": 2610,
      "cop": 2611,
      "cot": 2612,
      "cow": 2613,
      "core": 2614,
      "cocon": 2615,
      "cost": 2616,
      "cool": 2617,
      "coding": 2618,
      "ison": 2619,
      "issu": 2620,
      "isting": 2621,
      "isom": 2622,
      "isions": 2623,
      "itly": 2624,
      "itte": 2625,
      "item": 2626,
      "ither": 2627,
      "itors": 2628,
      "itten": 2629,
      "acid": 2630,
      "actu": 2631,
      "accor": 2632,
      "accom": 2633,
      "actical": 2634,
      "ental": 2635,
      "entang": 2636,
      "enthal": 2637,
      "rots": 2638,
      "romatic": 2639,
      "deb": 2640,
      "dead": 2641,
      "deep": 2642,
      "degre": 2643,
      "detail": 2644,
      "decomposi": 2645,
      "detect": 2646,
      "ask": 2647,
      "asp": 2648,
      "ason": 2649,
      "asser": 2650,
      "assum": 2651,
      "astron": 2652,
      "lysis": 2653,
      "unk": 2654,
      "unit": 2655,
      "unce": 2656,
      "unity": 2657,
      "units": 2658,
      "unlike": 2659,
      "unknown": 2660,
      "const": 2661,
      "conser": 2662,
      "conjec": 2663,
      "concep": 2664,
      "consum": 2665,
      "concurr": 2666,
      "convol": 2667,
      "consecu": 2668,
      "ster": 2669,
      "stat": 2670,
      "stac": 2671,
      "station": 2672,
      "sters": 2673,
      "stated": 2674,
      "stable": 2675,
      "stoc": 2676,
      "stamp": 2677,
      "static": 2678,
      "abac": 2679,
      "abol": 2680,
      "abund": 2681,
      "absolute": 2682,
      "chap": 2683,
      "chil": 2684,
      "chain": 2685,
      "chess": 2686,
      "chame": 2687,
      "chair": 2688,
      "chef": 2689,
      "chains": 2690,
      "chlor": 2691,
      "chromatic": 2692,
      "mption": 2693,
      "sex": 2694,
      "sear": 2695,
      "sever": 2696,
      "second": 2697,
      "sulf": 2698,
      "sibl": 2699,
      "size": 2700,
      "los": 2701,
      "loid": 2702,
      "loop": 2703,
      "tery": 2704,
      "thres": 2705,
      "them": 2706,
      "thest": 2707,
      "thick": 2708,
      "think": 2709,
      "through": 2710,
      "adsor": 2711,
      "apr": 2712,
      "apex": 2713,
      "apers": 2714,
      "exper": 2715,
      "explic": 2716,
      "exact": 2717,
      "explan": 2718,
      "extern": 2719,
      "examin": 2720,
      "exhib": 2721,
      "uled": 2722,
      "ulus": 2723,
      "ulating": 2724,
      "ulty": 2725,
      "uldr": 2726,
      "ulative": 2727,
      "ultim": 2728,
      "veloc": 2729,
      "vehic": 2730,
      "ilinear": 2731,
      "urn": 2732,
      "ures": 2733,
      "ural": 2734,
      "eck": 2735,
      "ecess": 2736,
      "ectively": 2737,
      "eccentric": 2738,
      "ider": 2739,
      "idence": 2740,
      "mee": 2741,
      "meth": 2742,
      "metry": 2743,
      "cevi": 2744,
      "celes": 2745,
      "died": 2746,
      "dial": 2747,
      "diam": 2748,
      "diagram": 2749,
      "diversity": 2750,
      "lie": 2751,
      "lip": 2752,
      "lier": 2753,
      "liqu": 2754,
      "libr": 2755,
      "liance": 2756,
      "liked": 2757,
      "qual": 2758,
      "quality": 2759,
      "agent": 2760,
      "again": 2761,
      "ague": 2762,
      "agric": 2763,
      "aggreg": 2764,
      "poin": 2765,
      "pole": 2766,
      "pointer": 2767,
      "posing": 2768,
      "popul": 2769,
      "uss": 2770,
      "user": 2771,
      "usage": 2772,
      "prote": 2773,
      "produ": 2774,
      "proof": 2775,
      "tel": 2776,
      "teen": 2777,
      "tetromin": 2778,
      "reser": 2779,
      "resis": 2780,
      "resem": 2781,
      "resta": 2782,
      "resear": 2783,
      "result": 2784,
      "resour": 2785,
      "mous": 2786,
      "moment": 2787,
      "moder": 2788,
      "mother": 2789,
      "mouse": 2790,
      "mosqu": 2791,
      "plate": 2792,
      "plain": 2793,
      "plays": 2794,
      "pluses": 2795,
      "places": 2796,
      "plastic": 2797,
      "plugg": 2798,
      "perp": 2799,
      "permut": 2800,
      "perfect": 2801,
      "iral": 2802,
      "irrel": 2803,
      "tom": 2804,
      "topo": 2805,
      "toff": 2806,
      "toge": 2807,
      "town": 2808,
      "total": 2809,
      "tooth": 2810,
      "tics": 2811,
      "ambig": 2812,
      "mentation": 2813,
      "mentary": 2814,
      "else": 2815,
      "elves": 2816,
      "izer": 2817,
      "izations": 2818,
      "parts": 2819,
      "parabol": 2820,
      "how": 2821,
      "home": 2822,
      "hout": 2823,
      "hood": 2824,
      "hops": 2825,
      "house": 2826,
      "compon": 2827,
      "spin": 2828,
      "spac": 2829,
      "spring": 2830,
      "ries": 2831,
      "clamp": 2832,
      "classi": 2833,
      "minor": 2834,
      "minus": 2835,
      "bou": 2836,
      "bomb": 2837,
      "bounc": 2838,
      "bodies": 2839,
      "subst": 2840,
      "subgr": 2841,
      "subinter": 2842,
      "subdivis": 2843,
      "subcase": 2844,
      "subgroup": 2845,
      "subtas": 2846,
      "subarr": 2847,
      "subrectang": 2848,
      "angular": 2849,
      "dise": 2850,
      "distric": 2851,
      "dissol": 2852,
      "disconnec": 2853,
      "discontinu": 2854,
      "displace": 2855,
      "discrimin": 2856,
      "uck": 2857,
      "streng": 2858,
      "strict": 2859,
      "ums": 2860,
      "umbre": 2861,
      "dop": 2862,
      "does": 2863,
      "dodec": 2864,
      "grav": 2865,
      "gradi": 2866,
      "grade": 2867,
      "imag": 2868,
      "imals": 2869,
      "image": 2870,
      "immedi": 2871,
      "keys": 2872,
      "bea": 2873,
      "beac": 2874,
      "beli": 2875,
      "beta": 2876,
      "beet": 2877,
      "uty": 2878,
      "inement": 2879,
      "ander": 2880,
      "ford": 2881,
      "force": 2882,
      "recip": 2883,
      "recall": 2884,
      "neat": 2885,
      "eman": 2886,
      "email": 2887,
      "embed": 2888,
      "ipri": 2889,
      "deri": 2890,
      "derange": 2891,
      "sha": 2892,
      "shor": 2893,
      "shap": 2894,
      "shir": 2895,
      "shiel": 2896,
      "interpol": 2897,
      "intermedi": 2898,
      "via": 2899,
      "vious": 2900,
      "viously": 2901,
      "oph": 2902,
      "oppos": 2903,
      "oppon": 2904,
      "tau": 2905,
      "taking": 2906,
      "tails": 2907,
      "omic": 2908,
      "pet": 2909,
      "petr": 2910,
      "peach": 2911,
      "peters": 2912,
      "antly": 2913,
      "prun": 2914,
      "mak": 2915,
      "matically": 2916,
      "caref": 2917,
      "cartes": 2918,
      "carbon": 2919,
      "gens": 2920,
      "avy": 2921,
      "ghter": 2922,
      "ghts": 2923,
      "missi": 2924,
      "mistransl": 2925,
      "misinterpret": 2926,
      "mistaken": 2927,
      "phi": 2928,
      "phus": 2929,
      "phone": 2930,
      "scan": 2931,
      "scre": 2932,
      "scenari": 2933,
      "scatter": 2934,
      "enced": 2935,
      "encry": 2936,
      "month": 2937,
      "now": 2938,
      "noon": 2939,
      "nove": 2940,
      "notic": 2941,
      "heavi": 2942,
      "mater": 2943,
      "matches": 2944,
      "matric": 2945,
      "preprocess": 2946,
      "prevent": 2947,
      "warz": 2948,
      "warri": 2949,
      "incir": 2950,
      "expan": 2951,
      "expel": 2952,
      "expected": 2953,
      "bring": 2954,
      "destro": 2955,
      "trick": 2956,
      "trically": 2957,
      "counters": 2958,
      "overwr": 2959,
      "overflow": 2960,
      "syll": 2961,
      "serge": 2962,
      "unders": 2963,
      "feed": 2964,
      "feel": 2965,
      "typed": 2966,
      "indus": 2967,
      "odd": 2968,
      "redund": 2969,
      "redistrib": 2970,
      "transvers": 2971,
      "decay": 2972,
      "decimal": 2973,
      "marri": 2974,
      "marked": 2975,
      "market": 2976,
      "margin": 2977,
      "wear": 2978,
      "weap": 2979,
      "weak": 2980,
      "week": 2981,
      "alizes": 2982,
      "ause": 2983,
      "press": 2984,
      "pression": 2985,
      "presents": 2986,
      "prescri": 2987,
      "cores": 2988,
      "corrid": 2989,
      "turing": 2990,
      "turbul": 2991,
      "enses": 2992,
      "ensity": 2993,
      "applied": 2994,
      "fermi": 2995,
      "jects": 2996,
      "worth": 2997,
      "worry": 2998,
      "achie": 2999,
      "locks": 3000,
      "locked": 3001,
      "fined": 3002,
      "visu": 3003,
      "visited": 3004,
      "visible": 3005,
      "trial": 3006,
      "tripl": 3007,
      "common": 3008,
      "flor": 3009,
      "flav": 3010,
      "flaw": 3011,
      "flatten": 3012,
      "obstac": 3013,
      "trajec": 3014,
      "cols": 3015,
      "colum": 3016,
      "colored": 3017,
      "colinear": 3018,
      "drin": 3019,
      "dren": 3020,
      "fact": 3021,
      "faces": 3022,
      "sou": 3023,
      "sole": 3024,
      "sour": 3025,
      "soft": 3026,
      "south": 3027,
      "dingly": 3028,
      "event": 3029,
      "equid": 3030,
      "equator": 3031,
      "medic": 3032,
      "median": 3033,
      "there": 3034,
      "thern": 3035,
      "therap": 3036,
      "thermod": 3037,
      "thermal": 3038,
      "file": 3039,
      "fiel": 3040,
      "fixes": 3041,
      "ported": 3042,
      "soldi": 3043,
      "away": 3044,
      "show": 3045,
      "shoot": 3046,
      "bijec": 3047,
      "cubo": 3048,
      "cuits": 3049,
      "gue": 3050,
      "relation": 3051,
      "relax": 3052,
      "atory": 3053,
      "unced": 3054,
      "concycl": 3055,
      "concrete": 3056,
      "blon": 3057,
      "black": 3058,
      "circul": 3059,
      "jud": 3060,
      "singlet": 3061,
      "suring": 3062,
      "surround": 3063,
      "surpris": 3064,
      "spect": 3065,
      "episo": 3066,
      "epsil": 3067,
      "neckl": 3068,
      "formal": 3069,
      "clever": 3070,
      "posal": 3071,
      "cauldr": 3072,
      "fore": 3073,
      "foot": 3074,
      "mile": 3075,
      "tends": 3076,
      "section": 3077,
      "signed": 3078,
      "buy": 3079,
      "bugs": 3080,
      "build": 3081,
      "cycle": 3082,
      "cylind": 3083,
      "joy": 3084,
      "joint": 3085,
      "outward": 3086,
      "output": 3087,
      "polic": 3088,
      "range": 3089,
      "times": 3090,
      "regard": 3091,
      "defic": 3092,
      "default": 3093,
      "constrain": 3094,
      "constrained": 3095,
      "terminate": 3096,
      "theast": 3097,
      "queue": 3098,
      "planes": 3099,
      "planar": 3100,
      "capit": 3101,
      "north": 3102,
      "primor": 3103,
      "swallow": 3104,
      "antibio": 3105,
      "polycar": 3106,
      "polymer": 3107,
      "hedra": 3108,
      "breed": 3109,
      "bread": 3110,
      "efficient": 3111,
      "sines": 3112,
      "perimeter": 3113,
      "perimeters": 3114,
      "axy": 3115,
      "axial": 3116,
      "goes": 3117,
      "going": 3118,
      "goal": 3119,
      "link": 3120,
      "lined": 3121,
      "merged": 3122,
      "when": 3123,
      "what": 3124,
      "while": 3125,
      "intelli": 3126,
      "charge": 3127,
      "summar": 3128,
      "agonal": 3129,
      "criter": 3130,
      "drop": 3131,
      "earn": 3132,
      "hold": 3133,
      "holes": 3134,
      "holid": 3135,
      "holds": 3136,
      "micro": 3137,
      "micha": 3138,
      "radio": 3139,
      "trees": 3140,
      "were": 3141,
      "tractor": 3142,
      "appropri": 3143,
      "eleph": 3144,
      "names": 3145,
      "operator": 3146,
      "pix": 3147,
      "variance": 3148,
      "orders": 3149,
      "ordered": 3150,
      "understo": 3151,
      "quads": 3152,
      "complex": 3153,
      "after": 3154,
      "flood": 3155,
      "gered": 3156,
      "mention": 3157,
      "nitro": 3158,
      "painted": 3159,
      "scho": 3160,
      "schwarz": 3161,
      "ready": 3162,
      "cosmo": 3163,
      "univers": 3164,
      "unique": 3165,
      "potential": 3166,
      "temper": 3167,
      "tempor": 3168,
      "particles": 3169,
      "particular": 3170,
      "predict": 3171,
      "predecess": 3172,
      "counterexamp": 3173,
      "commut": 3174,
      "committe": 3175,
      "bda": 3176,
      "ballo": 3177,
      "balance": 3178,
      "balanced": 3179,
      "electr": 3180,
      "electron": 3181,
      "pattern": 3182,
      "sorted": 3183,
      "conson": 3184,
      "limited": 3185,
      "quarte": 3186,
      "negative": 3187,
      "increasing": 3188,
      "values": 3189,
      "aaa": 3190,
      "burg": 3191,
      "burn": 3192,
      "backtrack": 3193,
      "catho": 3194,
      "greed": 3195,
      "great": 3196,
      "morphism": 3197,
      "naive": 3198,
      "oidal": 3199,
      "puzz": 3200,
      "pyram": 3201,
      "phosp": 3202,
      "infec": 3203,
      "infected": 3204,
      "stead": 3205,
      "checker": 3206,
      "change": 3207,
      "changed": 3208,
      "selected": 3209,
      "identifi": 3210,
      "compose": 3211,
      "compound": 3212,
      "newsp": 3213,
      "newton": 3214,
      "countable": 3215,
      "bonding": 3216,
      "barri": 3217,
      "barrel": 3218,
      "basket": 3219,
      "ground": 3220,
      "half": 3221,
      "oxide": 3222,
      "random": 3223,
      "collinear": 3224,
      "defined": 3225,
      "definite": 3226,
      "stud": 3227,
      "study": 3228,
      "abilities": 3229,
      "directed": 3230,
      "divisible": 3231,
      "homogen": 3232,
      "comparable": 3233,
      "medians": 3234,
      "cyclist": 3235,
      "binom": 3236,
      "broad": 3237,
      "empty": 3238,
      "employ": 3239,
      "files": 3240,
      "glass": 3241,
      "help": 3242,
      "nutri": 3243,
      "paired": 3244,
      "rationals": 3245,
      "stick": 3246,
      "sticks": 3247,
      "tables": 3248,
      "tangents": 3249,
      "delay": 3250,
      "asym": 3251,
      "abcdef": 3252,
      "choos": 3253,
      "chocol": 3254,
      "successive": 3255,
      "advant": 3256,
      "appears": 3257,
      "divided": 3258,
      "person": 3259,
      "persist": 3260,
      "parallel": 3261,
      "parallelogram": 3262,
      "parallelepip": 3263,
      "recurr": 3264,
      "recursion": 3265,
      "recursive": 3266,
      "interpreted": 3267,
      "observ": 3268,
      "quadrilater": 3269,
      "combination": 3270,
      "hhh": 3271,
      "klmn": 3272,
      "lattice": 3273,
      "penal": 3274,
      "preced": 3275,
      "precise": 3276,
      "slight": 3277,
      "vices": 3278,
      "windo": 3279,
      "wednes": 3280,
      "your": 3281,
      "inflam": 3282,
      "repeti": 3283,
      "repeated": 3284,
      "reachable": 3285,
      "dependent": 3286,
      "assigned": 3287,
      "chemical": 3288,
      "chemist": 3289,
      "simult": 3290,
      "digit": 3291,
      "digits": 3292,
      "digital": 3293,
      "techn": 3294,
      "techni": 3295,
      "touched": 3296,
      "view": 3297,
      "expression": 3298,
      "systems": 3299,
      "systematic": 3300,
      "reducible": 3301,
      "automat": 3302,
      "necessary": 3303,
      "processed": 3304,
      "cancell": 3305,
      "friend": 3306,
      "picks": 3307,
      "sweet": 3308,
      "targe": 3309,
      "instance": 3310,
      "relevant": 3311,
      "stoich": 3312,
      "cheap": 3313,
      "looked": 3314,
      "vectors": 3315,
      "placing": 3316,
      "complicating": 3317,
      "neutrin": 3318,
      "synthesis": 3319,
      "improve": 3320,
      "travel": 3321,
      "evolution": 3322,
      "extreme": 3323,
      "characteristic": 3324,
      "transition": 3325,
      "butter": 3326,
      "candid": 3327,
      "function": 3328,
      "kilo": 3329,
      "kilogram": 3330,
      "pillar": 3331,
      "russi": 3332,
      "squirrel": 3333,
      "venth": 3334,
      "wood": 3335,
      "watermel": 3336,
      "estimates": 3337,
      "remembering": 3338,
      "attainable": 3339,
      "orthogon": 3340,
      "trigon": 3341,
      "truthful": 3342,
      "rolled": 3343,
      "starts": 3344,
      "thyl": 3345,
      "diagonal": 3346,
      "proportional": 3347,
      "shift": 3348,
      "occupied": 3349,
      "prison": 3350,
      "design": 3351,
      "correspond": 3352,
      "hypoten": 3353,
      "labeled": 3354,
      "blocked": 3355,
      "categor": 3356,
      "datase": 3357,
      "family": 3358,
      "garden": 3359,
      "handsh": 3360,
      "langu": 3361,
      "length": 3362,
      "rhomb": 3363,
      "squares": 3364,
      "tunnel": 3365,
      "zomb": 3366,
      "intuitive": 3367,
      "error": 3368,
      "reveal": 3369,
      "lefto": 3370,
      "rooms": 3371,
      "develop": 3372,
      "asteris": 3373,
      "statement": 3374,
      "semipri": 3375,
      "supplement": 3376,
      "meaning": 3377,
      "profess": 3378,
      "mountain": 3379,
      "parenthes": 3380,
      "forced": 3381,
      "forcing": 3382,
      "derivative": 3383,
      "answered": 3384,
      "shaded": 3385,
      "princip": 3386,
      "carryover": 3387,
      "phenomen": 3388,
      "incorpor": 3389,
      "incorrect": 3390,
      "descend": 3391,
      "transpor": 3392,
      "transport": 3393,
      "guarantee": 3394,
      "bloom": 3395,
      "clockwise": 3396,
      "destin": 3397,
      "fications": 3398,
      "fisher": 3399,
      "further": 3400,
      "nucle": 3401,
      "rapid": 3402,
      "rigor": 3403,
      "usual": 3404,
      "vacu": 3405,
      "wolf": 3406,
      "coherence": 3407,
      "acquaint": 3408,
      "convex": 3409,
      "conflic": 3410,
      "statistic": 3411,
      "suscep": 3412,
      "thousand": 3413,
      "teleport": 3414,
      "compatible": 3415,
      "discrepanc": 3416,
      "distinguishable": 3417,
      "doubl": 3418,
      "grasshop": 3419,
      "immune": 3420,
      "reciproc": 3421,
      "available": 3422,
      "brunet": 3423,
      "feasible": 3424,
      "trivial": 3425,
      "configur": 3426,
      "whitesp": 3427,
      "piece": 3428,
      "understanding": 3429,
      "pythag": 3430,
      "tournament": 3431,
      "homogeneous": 3432,
      "technology": 3433,
      "straightforward": 3434,
      "behavior": 3435,
      "centro": 3436,
      "danger": 3437,
      "fenwick": 3438,
      "fresh": 3439,
      "grip": 3440,
      "hierarch": 3441,
      "hemisp": 3442,
      "kangaro": 3443,
      "mimic": 3444,
      "utili": 3445,
      "vapor": 3446,
      "yellow": 3447,
      "instru": 3448,
      "alcohol": 3449,
      "algorith": 3450,
      "arbitr": 3451,
      "isomor": 3452,
      "accommod": 3453,
      "children": 3454,
      "chamele": 3455,
      "agricul": 3456,
      "produce": 3457,
      "restaur": 3458,
      "mosquit": 3459,
      "together": 3460,
      "ambigu": 3461,
      "umbrell": 3462,
      "careful": 3463,
      "matrices": 3464,
      "destroy": 3465,
      "thermodynam": 3466,
      "surprising": 3467,
      "epsilon": 3468,
      "michael": 3469,
      "understood": 3470,
      "stoichi": 3471
    },
    "merges": [
      [
        "i",
        "n"
      ],
      [
        "e",
        "r"
      ],
      [
        "o",
        "n"
      ],
      [
        "e",
        "s"
      ],
      [
        "t",
        "i"
      ],
      [
        "e",
        "n"
      ],
      [
        "e",
        "d"
      ],
      [
        "in",
        "g"
      ],
      [
        "a",
        "l"
      ],
      [
        "a",
        "n"
      ],
      [
        "a",
        "r"
      ],
      [
        "r",
        "e"
      ],
      [
        "a",
        "t"
      ],
      [
        "o",
        "r"
      ],
      [
        "ti",
        "on"
      ],
      [
        "t",
        "r"
      ],
      [
        "l",
        "e"
      ],
      [
        "i",
        "c"
      ],
      [
        "c",
        "o"
      ],
      [
        "i",
        "s"
      ],
      [
        "i",
        "t"
      ],
      [
        "a",
        "c"
      ],
      [
        "en",
        "t"
      ],
      [
        "r",
        "o"
      ],
      [
        "d",
        "e"
      ],
      [
        "a",
        "s"
      ],
      [
        "l",
        "y"
      ],
      [
        "a",
        "tion"
      ],
      [
        "u",
        "n"
      ],
      [
        "c",
        "on"
      ],
      [
        "s",
        "t"
      ],
      [
        "a",
        "b"
      ],
      [
        "c",
        "h"
      ],
      [
        "m",
        "p"
      ],
      [
        "s",
        "e"
      ],
      [
        "s",
        "u"
      ],
      [
        "s",
        "i"
      ],
      [
        "l",
        "o"
      ],
      [
        "t",
        "er"
      ],
      [
        "t",
        "h"
      ],
      [
        "a",
        "d"
      ],
      [
        "t",
        "s"
      ],
      [
        "a",
        "p"
      ],
      [
        "e",
        "x"
      ],
      [
        "u",
        "l"
      ],
      [
        "v",
        "e"
      ],
      [
        "i",
        "l"
      ],
      [
        "o",
        "l"
      ],
      [
        "u",
        "r"
      ],
      [
        "e",
        "c"
      ],
      [
        "i",
        "d"
      ],
      [
        "m",
        "e"
      ],
      [
        "v",
        "er"
      ],
      [
        "c",
        "e"
      ],
      [
        "d",
        "i"
      ],
      [
        "l",
        "i"
      ],
      [
        "q",
        "u"
      ],
      [
        "a",
        "g"
      ],
      [
        "p",
        "o"
      ],
      [
        "u",
        "s"
      ],
      [
        "p",
        "ro"
      ],
      [
        "t",
        "e"
      ],
      [
        "r",
        "es"
      ],
      [
        "m",
        "o"
      ],
      [
        "p",
        "l"
      ],
      [
        "at",
        "e"
      ],
      [
        "it",
        "y"
      ],
      [
        "p",
        "er"
      ],
      [
        "i",
        "g"
      ],
      [
        "i",
        "r"
      ],
      [
        "t",
        "o"
      ],
      [
        "ti",
        "c"
      ],
      [
        "a",
        "m"
      ],
      [
        "t",
        "ed"
      ],
      [
        "a",
        "in"
      ],
      [
        "m",
        "ent"
      ],
      [
        "e",
        "l"
      ],
      [
        "i",
        "z"
      ],
      [
        "t",
        "ing"
      ],
      [
        "p",
        "ar"
      ],
      [
        "h",
        "o"
      ],
      [
        "er",
        "s"
      ],
      [
        "co",
        "mp"
      ],
      [
        "a",
        "y"
      ],
      [
        "s",
        "p"
      ],
      [
        "d",
        "s"
      ],
      [
        "r",
        "i"
      ],
      [
        "c",
        "l"
      ],
      [
        "m",
        "in"
      ],
      [
        "b",
        "o"
      ],
      [
        "su",
        "b"
      ],
      [
        "f",
        "f"
      ],
      [
        "al",
        "ly"
      ],
      [
        "an",
        "g"
      ],
      [
        "d",
        "is"
      ],
      [
        "u",
        "c"
      ],
      [
        "s",
        "tr"
      ],
      [
        "u",
        "m"
      ],
      [
        "d",
        "o"
      ],
      [
        "g",
        "r"
      ],
      [
        "i",
        "m"
      ],
      [
        "k",
        "e"
      ],
      [
        "t",
        "or"
      ],
      [
        "es",
        "s"
      ],
      [
        "ti",
        "ve"
      ],
      [
        "b",
        "e"
      ],
      [
        "u",
        "t"
      ],
      [
        "in",
        "e"
      ],
      [
        "an",
        "d"
      ],
      [
        "f",
        "or"
      ],
      [
        "at",
        "ed"
      ],
      [
        "k",
        "s"
      ],
      [
        "re",
        "c"
      ],
      [
        "n",
        "e"
      ],
      [
        "ation",
        "s"
      ],
      [
        "e",
        "m"
      ],
      [
        "i",
        "p"
      ],
      [
        "on",
        "s"
      ],
      [
        "en",
        "d"
      ],
      [
        "tion",
        "s"
      ],
      [
        "ab",
        "le"
      ],
      [
        "g",
        "e"
      ],
      [
        "at",
        "ing"
      ],
      [
        "d",
        "er"
      ],
      [
        "i",
        "b"
      ],
      [
        "es",
        "t"
      ],
      [
        "an",
        "s"
      ],
      [
        "s",
        "h"
      ],
      [
        "u",
        "p"
      ],
      [
        "in",
        "ter"
      ],
      [
        "m",
        "b"
      ],
      [
        "v",
        "i"
      ],
      [
        "o",
        "p"
      ],
      [
        "t",
        "a"
      ],
      [
        "al",
        "s"
      ],
      [
        "at",
        "es"
      ],
      [
        "h",
        "er"
      ],
      [
        "o",
        "m"
      ],
      [
        "p",
        "e"
      ],
      [
        "an",
        "t"
      ],
      [
        "ig",
        "h"
      ],
      [
        "o",
        "c"
      ],
      [
        "p",
        "r"
      ],
      [
        "i",
        "es"
      ],
      [
        "m",
        "a"
      ],
      [
        "c",
        "ar"
      ],
      [
        "g",
        "en"
      ],
      [
        "a",
        "v"
      ],
      [
        "g",
        "h"
      ],
      [
        "l",
        "es"
      ],
      [
        "m",
        "is"
      ],
      [
        "p",
        "h"
      ],
      [
        "s",
        "c"
      ],
      [
        "en",
        "c"
      ],
      [
        "al",
        "l"
      ],
      [
        "m",
        "on"
      ],
      [
        "n",
        "o"
      ],
      [
        "h",
        "e"
      ],
      [
        "m",
        "at"
      ],
      [
        "le",
        "c"
      ],
      [
        "p",
        "re"
      ],
      [
        "w",
        "ar"
      ],
      [
        "il",
        "l"
      ],
      [
        "in",
        "c"
      ],
      [
        "en",
        "ce"
      ],
      [
        "ac",
        "k"
      ],
      [
        "ex",
        "p"
      ],
      [
        "b",
        "r"
      ],
      [
        "d",
        "es"
      ],
      [
        "v",
        "al"
      ],
      [
        "en",
        "ti"
      ],
      [
        "tr",
        "ic"
      ],
      [
        "co",
        "un"
      ],
      [
        "l",
        "l"
      ],
      [
        "o",
        "ver"
      ],
      [
        "lo",
        "w"
      ],
      [
        "s",
        "y"
      ],
      [
        "s",
        "er"
      ],
      [
        "t",
        "u"
      ],
      [
        "v",
        "es"
      ],
      [
        "un",
        "d"
      ],
      [
        "f",
        "e"
      ],
      [
        "an",
        "c"
      ],
      [
        "si",
        "on"
      ],
      [
        "t",
        "y"
      ],
      [
        "in",
        "d"
      ],
      [
        "as",
        "s"
      ],
      [
        "a",
        "k"
      ],
      [
        "m",
        "ul"
      ],
      [
        "o",
        "d"
      ],
      [
        "r",
        "ed"
      ],
      [
        "an",
        "ce"
      ],
      [
        "tr",
        "ans"
      ],
      [
        "de",
        "c"
      ],
      [
        "i",
        "f"
      ],
      [
        "i",
        "mp"
      ],
      [
        "m",
        "ar"
      ],
      [
        "w",
        "e"
      ],
      [
        "al",
        "iz"
      ],
      [
        "or",
        "s"
      ],
      [
        "a",
        "u"
      ],
      [
        "p",
        "res"
      ],
      [
        "ic",
        "al"
      ],
      [
        "it",
        "s"
      ],
      [
        "ent",
        "s"
      ],
      [
        "a",
        "me"
      ],
      [
        "c",
        "or"
      ],
      [
        "i",
        "ti"
      ],
      [
        "o",
        "s"
      ],
      [
        "t",
        "ur"
      ],
      [
        "t",
        "ain"
      ],
      [
        "en",
        "s"
      ],
      [
        "ap",
        "p"
      ],
      [
        "f",
        "r"
      ],
      [
        "f",
        "er"
      ],
      [
        "h",
        "y"
      ],
      [
        "j",
        "ec"
      ],
      [
        "m",
        "s"
      ],
      [
        "m",
        "an"
      ],
      [
        "w",
        "or"
      ],
      [
        "ac",
        "h"
      ],
      [
        "ro",
        "w"
      ],
      [
        "lo",
        "c"
      ],
      [
        "ment",
        "s"
      ],
      [
        "a",
        "ti"
      ],
      [
        "f",
        "in"
      ],
      [
        "v",
        "is"
      ],
      [
        "ing",
        "s"
      ],
      [
        "tr",
        "i"
      ],
      [
        "co",
        "m"
      ],
      [
        "ag",
        "e"
      ],
      [
        "c",
        "ur"
      ],
      [
        "f",
        "l"
      ],
      [
        "o",
        "b"
      ],
      [
        "tr",
        "a"
      ],
      [
        "co",
        "l"
      ],
      [
        "ter",
        "s"
      ],
      [
        "d",
        "r"
      ],
      [
        "f",
        "ac"
      ],
      [
        "g",
        "n"
      ],
      [
        "o",
        "k"
      ],
      [
        "s",
        "o"
      ],
      [
        "ar",
        "y"
      ],
      [
        "is",
        "t"
      ],
      [
        "cl",
        "u"
      ],
      [
        "b",
        "c"
      ],
      [
        "d",
        "ing"
      ],
      [
        "e",
        "v"
      ],
      [
        "e",
        "qu"
      ],
      [
        "m",
        "ed"
      ],
      [
        "o",
        "us"
      ],
      [
        "lo",
        "g"
      ],
      [
        "th",
        "er"
      ],
      [
        "a",
        "tive"
      ],
      [
        "b",
        "le"
      ],
      [
        "f",
        "i"
      ],
      [
        "p",
        "or"
      ],
      [
        "s",
        "ol"
      ],
      [
        "ar",
        "i"
      ],
      [
        "ver",
        "s"
      ],
      [
        "a",
        "w"
      ],
      [
        "s",
        "ho"
      ],
      [
        "as",
        "e"
      ],
      [
        "con",
        "t"
      ],
      [
        "con",
        "tr"
      ],
      [
        "ex",
        "t"
      ],
      [
        "a",
        "ir"
      ],
      [
        "b",
        "i"
      ],
      [
        "c",
        "u"
      ],
      [
        "g",
        "u"
      ],
      [
        "h",
        "ed"
      ],
      [
        "k",
        "ing"
      ],
      [
        "on",
        "e"
      ],
      [
        "en",
        "g"
      ],
      [
        "an",
        "ts"
      ],
      [
        "re",
        "l"
      ],
      [
        "at",
        "or"
      ],
      [
        "it",
        "e"
      ],
      [
        "ac",
        "e"
      ],
      [
        "un",
        "c"
      ],
      [
        "con",
        "c"
      ],
      [
        "b",
        "l"
      ],
      [
        "c",
        "ir"
      ],
      [
        "d",
        "en"
      ],
      [
        "j",
        "u"
      ],
      [
        "l",
        "ine"
      ],
      [
        "r",
        "y"
      ],
      [
        "s",
        "ing"
      ],
      [
        "ic",
        "e"
      ],
      [
        "su",
        "r"
      ],
      [
        "ul",
        "ar"
      ],
      [
        "il",
        "ity"
      ],
      [
        "ay",
        "s"
      ],
      [
        "sp",
        "ec"
      ],
      [
        "c",
        "al"
      ],
      [
        "d",
        "ed"
      ],
      [
        "e",
        "p"
      ],
      [
        "e",
        "t"
      ],
      [
        "i",
        "al"
      ],
      [
        "n",
        "ec"
      ],
      [
        "u",
        "re"
      ],
      [
        "v",
        "ity"
      ],
      [
        "pl",
        "ic"
      ],
      [
        "for",
        "m"
      ],
      [
        "igh",
        "t"
      ],
      [
        "gen",
        "er"
      ],
      [
        "a",
        "mp"
      ],
      [
        "c",
        "le"
      ],
      [
        "e",
        "f"
      ],
      [
        "on",
        "g"
      ],
      [
        "is",
        "h"
      ],
      [
        "as",
        "h"
      ],
      [
        "ad",
        "i"
      ],
      [
        "po",
        "s"
      ],
      [
        "mo",
        "d"
      ],
      [
        "mul",
        "ti"
      ],
      [
        "b",
        "a"
      ],
      [
        "c",
        "a"
      ],
      [
        "d",
        "uc"
      ],
      [
        "f",
        "o"
      ],
      [
        "l",
        "s"
      ],
      [
        "m",
        "i"
      ],
      [
        "p",
        "s"
      ],
      [
        "t",
        "en"
      ],
      [
        "v",
        "ed"
      ],
      [
        "v",
        "ing"
      ],
      [
        "in",
        "v"
      ],
      [
        "ic",
        "k"
      ],
      [
        "ac",
        "t"
      ],
      [
        "se",
        "c"
      ],
      [
        "si",
        "gn"
      ],
      [
        "di",
        "ff"
      ],
      [
        "b",
        "u"
      ],
      [
        "c",
        "d"
      ],
      [
        "c",
        "y"
      ],
      [
        "i",
        "de"
      ],
      [
        "j",
        "o"
      ],
      [
        "o",
        "t"
      ],
      [
        "o",
        "ut"
      ],
      [
        "p",
        "ol"
      ],
      [
        "r",
        "ang"
      ],
      [
        "x",
        "im"
      ],
      [
        "ti",
        "m"
      ],
      [
        "re",
        "g"
      ],
      [
        "le",
        "t"
      ],
      [
        "ac",
        "c"
      ],
      [
        "de",
        "f"
      ],
      [
        "con",
        "str"
      ],
      [
        "se",
        "t"
      ],
      [
        "ter",
        "min"
      ],
      [
        "th",
        "e"
      ],
      [
        "ce",
        "p"
      ],
      [
        "qu",
        "e"
      ],
      [
        "pl",
        "an"
      ],
      [
        "a",
        "il"
      ],
      [
        "c",
        "ap"
      ],
      [
        "c",
        "ul"
      ],
      [
        "d",
        "y"
      ],
      [
        "l",
        "ed"
      ],
      [
        "n",
        "ing"
      ],
      [
        "n",
        "or"
      ],
      [
        "p",
        "ri"
      ],
      [
        "s",
        "w"
      ],
      [
        "s",
        "es"
      ],
      [
        "u",
        "te"
      ],
      [
        "u",
        "gh"
      ],
      [
        "w",
        "n"
      ],
      [
        "an",
        "ti"
      ],
      [
        "ar",
        "d"
      ],
      [
        "ar",
        "s"
      ],
      [
        "is",
        "e"
      ],
      [
        "it",
        "h"
      ],
      [
        "ec",
        "t"
      ],
      [
        "po",
        "ly"
      ],
      [
        "her",
        "e"
      ],
      [
        "iti",
        "es"
      ],
      [
        "hed",
        "r"
      ],
      [
        "b",
        "re"
      ],
      [
        "e",
        "ff"
      ],
      [
        "i",
        "a"
      ],
      [
        "i",
        "on"
      ],
      [
        "l",
        "ic"
      ],
      [
        "p",
        "p"
      ],
      [
        "p",
        "end"
      ],
      [
        "s",
        "in"
      ],
      [
        "in",
        "s"
      ],
      [
        "tr",
        "o"
      ],
      [
        "ic",
        "ally"
      ],
      [
        "it",
        "er"
      ],
      [
        "as",
        "t"
      ],
      [
        "con",
        "f"
      ],
      [
        "si",
        "ons"
      ],
      [
        "per",
        "i"
      ],
      [
        "tor",
        "s"
      ],
      [
        "a",
        "x"
      ],
      [
        "a",
        "tic"
      ],
      [
        "c",
        "ent"
      ],
      [
        "f",
        "t"
      ],
      [
        "g",
        "g"
      ],
      [
        "g",
        "o"
      ],
      [
        "l",
        "in"
      ],
      [
        "m",
        "er"
      ],
      [
        "m",
        "ain"
      ],
      [
        "s",
        "k"
      ],
      [
        "u",
        "e"
      ],
      [
        "v",
        "en"
      ],
      [
        "w",
        "h"
      ],
      [
        "w",
        "r"
      ],
      [
        "in",
        "te"
      ],
      [
        "ti",
        "vity"
      ],
      [
        "an",
        "ds"
      ],
      [
        "tion",
        "al"
      ],
      [
        "ch",
        "ar"
      ],
      [
        "su",
        "m"
      ],
      [
        "ter",
        "n"
      ],
      [
        "ag",
        "on"
      ],
      [
        "iz",
        "e"
      ],
      [
        "iz",
        "ation"
      ],
      [
        "gr",
        "ap"
      ],
      [
        "rec",
        "t"
      ],
      [
        "b",
        "er"
      ],
      [
        "b",
        "or"
      ],
      [
        "c",
        "r"
      ],
      [
        "c",
        "lo"
      ],
      [
        "c",
        "ri"
      ],
      [
        "d",
        "c"
      ],
      [
        "d",
        "ro"
      ],
      [
        "e",
        "ar"
      ],
      [
        "f",
        "ul"
      ],
      [
        "f",
        "ol"
      ],
      [
        "h",
        "ol"
      ],
      [
        "i",
        "ent"
      ],
      [
        "k",
        "ed"
      ],
      [
        "l",
        "ing"
      ],
      [
        "m",
        "ic"
      ],
      [
        "n",
        "um"
      ],
      [
        "o",
        "ff"
      ],
      [
        "r",
        "adi"
      ],
      [
        "t",
        "re"
      ],
      [
        "u",
        "tion"
      ],
      [
        "w",
        "er"
      ],
      [
        "y",
        "a"
      ],
      [
        "ti",
        "es"
      ],
      [
        "at",
        "s"
      ],
      [
        "at",
        "t"
      ],
      [
        "or",
        "t"
      ],
      [
        "tr",
        "y"
      ],
      [
        "tr",
        "ac"
      ],
      [
        "con",
        "ver"
      ],
      [
        "si",
        "mp"
      ],
      [
        "ap",
        "s"
      ],
      [
        "ap",
        "pro"
      ],
      [
        "id",
        "s"
      ],
      [
        "po",
        "si"
      ],
      [
        "res",
        "p"
      ],
      [
        "war",
        "d"
      ],
      [
        "anc",
        "es"
      ],
      [
        "a",
        "ve"
      ],
      [
        "c",
        "c"
      ],
      [
        "c",
        "re"
      ],
      [
        "d",
        "u"
      ],
      [
        "e",
        "le"
      ],
      [
        "n",
        "am"
      ],
      [
        "n",
        "ess"
      ],
      [
        "o",
        "me"
      ],
      [
        "o",
        "per"
      ],
      [
        "p",
        "i"
      ],
      [
        "s",
        "l"
      ],
      [
        "v",
        "ari"
      ],
      [
        "in",
        "t"
      ],
      [
        "al",
        "ity"
      ],
      [
        "an",
        "e"
      ],
      [
        "re",
        "qu"
      ],
      [
        "or",
        "d"
      ],
      [
        "or",
        "der"
      ],
      [
        "tr",
        "ib"
      ],
      [
        "it",
        "es"
      ],
      [
        "as",
        "es"
      ],
      [
        "un",
        "der"
      ],
      [
        "ch",
        "es"
      ],
      [
        "si",
        "ve"
      ],
      [
        "qu",
        "ad"
      ],
      [
        "ag",
        "es"
      ],
      [
        "us",
        "es"
      ],
      [
        "comp",
        "le"
      ],
      [
        "ke",
        "t"
      ],
      [
        "enc",
        "y"
      ],
      [
        "enc",
        "es"
      ],
      [
        "cal",
        "cul"
      ],
      [
        "grap",
        "h"
      ],
      [
        "a",
        "f"
      ],
      [
        "c",
        "um"
      ],
      [
        "f",
        "y"
      ],
      [
        "f",
        "lo"
      ],
      [
        "g",
        "er"
      ],
      [
        "i",
        "an"
      ],
      [
        "l",
        "a"
      ],
      [
        "m",
        "en"
      ],
      [
        "m",
        "id"
      ],
      [
        "n",
        "i"
      ],
      [
        "n",
        "er"
      ],
      [
        "p",
        "ain"
      ],
      [
        "s",
        "s"
      ],
      [
        "s",
        "ch"
      ],
      [
        "y",
        "s"
      ],
      [
        "in",
        "de"
      ],
      [
        "ar",
        "e"
      ],
      [
        "ar",
        "rang"
      ],
      [
        "re",
        "ad"
      ],
      [
        "at",
        "er"
      ],
      [
        "co",
        "s"
      ],
      [
        "co",
        "mb"
      ],
      [
        "it",
        "ed"
      ],
      [
        "ation",
        "al"
      ],
      [
        "un",
        "i"
      ],
      [
        "con",
        "nec"
      ],
      [
        "ab",
        "ility"
      ],
      [
        "se",
        "qu"
      ],
      [
        "th",
        "o"
      ],
      [
        "po",
        "t"
      ],
      [
        "te",
        "mp"
      ],
      [
        "par",
        "tic"
      ],
      [
        "par",
        "ame"
      ],
      [
        "min",
        "im"
      ],
      [
        "gr",
        "am"
      ],
      [
        "pr",
        "ed"
      ],
      [
        "gh",
        "t"
      ],
      [
        "coun",
        "ter"
      ],
      [
        "hy",
        "per"
      ],
      [
        "com",
        "m"
      ],
      [
        "fac",
        "tor"
      ],
      [
        "diff",
        "er"
      ],
      [
        "constr",
        "uc"
      ],
      [
        "b",
        "d"
      ],
      [
        "b",
        "al"
      ],
      [
        "b",
        "it"
      ],
      [
        "e",
        "e"
      ],
      [
        "e",
        "lec"
      ],
      [
        "h",
        "a"
      ],
      [
        "m",
        "n"
      ],
      [
        "m",
        "ag"
      ],
      [
        "n",
        "s"
      ],
      [
        "n",
        "ed"
      ],
      [
        "o",
        "re"
      ],
      [
        "p",
        "at"
      ],
      [
        "p",
        "ass"
      ],
      [
        "s",
        "or"
      ],
      [
        "t",
        "es"
      ],
      [
        "v",
        "id"
      ],
      [
        "z",
        "e"
      ],
      [
        "en",
        "tr"
      ],
      [
        "al",
        "y"
      ],
      [
        "re",
        "f"
      ],
      [
        "at",
        "ur"
      ],
      [
        "con",
        "s"
      ],
      [
        "st",
        "re"
      ],
      [
        "su",
        "per"
      ],
      [
        "ad",
        "di"
      ],
      [
        "me",
        "mb"
      ],
      [
        "li",
        "m"
      ],
      [
        "qu",
        "ar"
      ],
      [
        "pro",
        "duc"
      ],
      [
        "tic",
        "al"
      ],
      [
        "el",
        "s"
      ],
      [
        "iz",
        "ed"
      ],
      [
        "ne",
        "g"
      ],
      [
        "ib",
        "le"
      ],
      [
        "mat",
        "h"
      ],
      [
        "inc",
        "re"
      ],
      [
        "val",
        "u"
      ],
      [
        "pres",
        "ent"
      ],
      [
        "cont",
        "in"
      ],
      [
        "inte",
        "gr"
      ],
      [
        "a",
        "a"
      ],
      [
        "b",
        "b"
      ],
      [
        "b",
        "ed"
      ],
      [
        "b",
        "ur"
      ],
      [
        "b",
        "ack"
      ],
      [
        "c",
        "at"
      ],
      [
        "d",
        "ay"
      ],
      [
        "g",
        "s"
      ],
      [
        "g",
        "re"
      ],
      [
        "i",
        "ve"
      ],
      [
        "k",
        "er"
      ],
      [
        "m",
        "or"
      ],
      [
        "m",
        "il"
      ],
      [
        "n",
        "a"
      ],
      [
        "o",
        "id"
      ],
      [
        "p",
        "q"
      ],
      [
        "p",
        "u"
      ],
      [
        "p",
        "y"
      ],
      [
        "p",
        "ho"
      ],
      [
        "r",
        "am"
      ],
      [
        "u",
        "b"
      ],
      [
        "u",
        "se"
      ],
      [
        "u",
        "th"
      ],
      [
        "v",
        "o"
      ],
      [
        "v",
        "an"
      ],
      [
        "in",
        "f"
      ],
      [
        "al",
        "le"
      ],
      [
        "al",
        "ph"
      ],
      [
        "al",
        "tern"
      ],
      [
        "ar",
        "row"
      ],
      [
        "tr",
        "an"
      ],
      [
        "ic",
        "s"
      ],
      [
        "ic",
        "ation"
      ],
      [
        "is",
        "ec"
      ],
      [
        "it",
        "ing"
      ],
      [
        "ent",
        "ly"
      ],
      [
        "de",
        "termin"
      ],
      [
        "st",
        "e"
      ],
      [
        "ch",
        "ec"
      ],
      [
        "ch",
        "ang"
      ],
      [
        "se",
        "par"
      ],
      [
        "se",
        "lec"
      ],
      [
        "id",
        "enti"
      ],
      [
        "pro",
        "c"
      ],
      [
        "pro",
        "jec"
      ],
      [
        "iz",
        "ing"
      ],
      [
        "par",
        "ti"
      ],
      [
        "comp",
        "o"
      ],
      [
        "do",
        "min"
      ],
      [
        "ne",
        "w"
      ],
      [
        "end",
        "ing"
      ],
      [
        "ma",
        "xim"
      ],
      [
        "coun",
        "t"
      ],
      [
        "tu",
        "re"
      ],
      [
        "cur",
        "r"
      ],
      [
        "dr",
        "aw"
      ],
      [
        "por",
        "t"
      ],
      [
        "cir",
        "cum"
      ],
      [
        "a",
        "h"
      ],
      [
        "b",
        "on"
      ],
      [
        "b",
        "an"
      ],
      [
        "b",
        "ar"
      ],
      [
        "b",
        "as"
      ],
      [
        "c",
        "ro"
      ],
      [
        "e",
        "li"
      ],
      [
        "g",
        "on"
      ],
      [
        "g",
        "es"
      ],
      [
        "g",
        "ro"
      ],
      [
        "h",
        "es"
      ],
      [
        "h",
        "al"
      ],
      [
        "i",
        "ly"
      ],
      [
        "k",
        "o"
      ],
      [
        "l",
        "f"
      ],
      [
        "l",
        "er"
      ],
      [
        "l",
        "ab"
      ],
      [
        "m",
        "as"
      ],
      [
        "o",
        "x"
      ],
      [
        "p",
        "ing"
      ],
      [
        "p",
        "ur"
      ],
      [
        "r",
        "an"
      ],
      [
        "r",
        "up"
      ],
      [
        "s",
        "a"
      ],
      [
        "s",
        "ti"
      ],
      [
        "s",
        "ed"
      ],
      [
        "t",
        "w"
      ],
      [
        "t",
        "an"
      ],
      [
        "t",
        "ec"
      ],
      [
        "x",
        "es"
      ],
      [
        "in",
        "es"
      ],
      [
        "in",
        "ts"
      ],
      [
        "in",
        "ver"
      ],
      [
        "en",
        "ds"
      ],
      [
        "at",
        "ors"
      ],
      [
        "or",
        "ed"
      ],
      [
        "le",
        "x"
      ],
      [
        "co",
        "ver"
      ],
      [
        "co",
        "ll"
      ],
      [
        "ac",
        "es"
      ],
      [
        "ac",
        "ter"
      ],
      [
        "de",
        "fin"
      ],
      [
        "st",
        "u"
      ],
      [
        "st",
        "and"
      ],
      [
        "st",
        "em"
      ],
      [
        "ab",
        "il"
      ],
      [
        "ch",
        "ing"
      ],
      [
        "se",
        "g"
      ],
      [
        "su",
        "p"
      ],
      [
        "ad",
        "ic"
      ],
      [
        "di",
        "rec"
      ],
      [
        "di",
        "vis"
      ],
      [
        "pl",
        "ay"
      ],
      [
        "to",
        "ur"
      ],
      [
        "tic",
        "ally"
      ],
      [
        "el",
        "l"
      ],
      [
        "ho",
        "mo"
      ],
      [
        "comp",
        "ar"
      ],
      [
        "do",
        "wn"
      ],
      [
        "ut",
        "es"
      ],
      [
        "ip",
        "s"
      ],
      [
        "sc",
        "al"
      ],
      [
        "he",
        "ad"
      ],
      [
        "sy",
        "m"
      ],
      [
        "trans",
        "l"
      ],
      [
        "dec",
        "re"
      ],
      [
        "aliz",
        "e"
      ],
      [
        "med",
        "i"
      ],
      [
        "cy",
        "cl"
      ],
      [
        "resp",
        "on"
      ],
      [
        "contin",
        "u"
      ],
      [
        "a",
        "q"
      ],
      [
        "b",
        "y"
      ],
      [
        "b",
        "in"
      ],
      [
        "b",
        "en"
      ],
      [
        "b",
        "ro"
      ],
      [
        "c",
        "b"
      ],
      [
        "c",
        "es"
      ],
      [
        "c",
        "up"
      ],
      [
        "c",
        "ase"
      ],
      [
        "e",
        "mp"
      ],
      [
        "f",
        "il"
      ],
      [
        "g",
        "l"
      ],
      [
        "h",
        "s"
      ],
      [
        "h",
        "or"
      ],
      [
        "h",
        "el"
      ],
      [
        "i",
        "k"
      ],
      [
        "i",
        "er"
      ],
      [
        "k",
        "y"
      ],
      [
        "k",
        "en"
      ],
      [
        "k",
        "no"
      ],
      [
        "m",
        "ing"
      ],
      [
        "m",
        "al"
      ],
      [
        "n",
        "u"
      ],
      [
        "n",
        "on"
      ],
      [
        "o",
        "f"
      ],
      [
        "p",
        "ed"
      ],
      [
        "p",
        "ul"
      ],
      [
        "p",
        "air"
      ],
      [
        "r",
        "ic"
      ],
      [
        "r",
        "ation"
      ],
      [
        "r",
        "id"
      ],
      [
        "s",
        "tic"
      ],
      [
        "t",
        "on"
      ],
      [
        "t",
        "al"
      ],
      [
        "t",
        "ab"
      ],
      [
        "t",
        "ang"
      ],
      [
        "v",
        "ol"
      ],
      [
        "w",
        "ay"
      ],
      [
        "w",
        "ise"
      ],
      [
        "w",
        "ith"
      ],
      [
        "w",
        "here"
      ],
      [
        "x",
        "y"
      ],
      [
        "in",
        "iti"
      ],
      [
        "ar",
        "c"
      ],
      [
        "re",
        "mo"
      ],
      [
        "re",
        "fer"
      ],
      [
        "re",
        "present"
      ],
      [
        "or",
        "ing"
      ],
      [
        "co",
        "de"
      ],
      [
        "is",
        "o"
      ],
      [
        "ro",
        "t"
      ],
      [
        "de",
        "l"
      ],
      [
        "as",
        "y"
      ],
      [
        "as",
        "ed"
      ],
      [
        "as",
        "ing"
      ],
      [
        "st",
        "s"
      ],
      [
        "ab",
        "c"
      ],
      [
        "ch",
        "o"
      ],
      [
        "ch",
        "ed"
      ],
      [
        "su",
        "ff"
      ],
      [
        "su",
        "cc"
      ],
      [
        "si",
        "ble"
      ],
      [
        "ad",
        "v"
      ],
      [
        "ap",
        "e"
      ],
      [
        "ap",
        "pe"
      ],
      [
        "ex",
        "clu"
      ],
      [
        "di",
        "vid"
      ],
      [
        "mo",
        "st"
      ],
      [
        "pl",
        "ace"
      ],
      [
        "ate",
        "g"
      ],
      [
        "ate",
        "ly"
      ],
      [
        "per",
        "s"
      ],
      [
        "am",
        "in"
      ],
      [
        "ain",
        "s"
      ],
      [
        "par",
        "alle"
      ],
      [
        "rec",
        "ur"
      ],
      [
        "inter",
        "pre"
      ],
      [
        "war",
        "ds"
      ],
      [
        "inc",
        "id"
      ],
      [
        "exp",
        "on"
      ],
      [
        "val",
        "id"
      ],
      [
        "we",
        "igh"
      ],
      [
        "aliz",
        "ed"
      ],
      [
        "loc",
        "k"
      ],
      [
        "ob",
        "ser"
      ],
      [
        "col",
        "lec"
      ],
      [
        "log",
        "y"
      ],
      [
        "log",
        "ical"
      ],
      [
        "spec",
        "if"
      ],
      [
        "num",
        "er"
      ],
      [
        "quad",
        "r"
      ],
      [
        "comb",
        "in"
      ],
      [
        "a",
        "de"
      ],
      [
        "a",
        "ff"
      ],
      [
        "b",
        "f"
      ],
      [
        "b",
        "ul"
      ],
      [
        "b",
        "ol"
      ],
      [
        "b",
        "ir"
      ],
      [
        "c",
        "li"
      ],
      [
        "d",
        "ri"
      ],
      [
        "e",
        "ts"
      ],
      [
        "f",
        "a"
      ],
      [
        "f",
        "li"
      ],
      [
        "f",
        "low"
      ],
      [
        "h",
        "h"
      ],
      [
        "h",
        "en"
      ],
      [
        "h",
        "and"
      ],
      [
        "h",
        "ib"
      ],
      [
        "i",
        "v"
      ],
      [
        "i",
        "re"
      ],
      [
        "i",
        "el"
      ],
      [
        "i",
        "ons"
      ],
      [
        "k",
        "l"
      ],
      [
        "k",
        "es"
      ],
      [
        "l",
        "at"
      ],
      [
        "l",
        "is"
      ],
      [
        "l",
        "ess"
      ],
      [
        "m",
        "es"
      ],
      [
        "m",
        "ut"
      ],
      [
        "o",
        "es"
      ],
      [
        "o",
        "th"
      ],
      [
        "p",
        "a"
      ],
      [
        "p",
        "es"
      ],
      [
        "p",
        "en"
      ],
      [
        "p",
        "tion"
      ],
      [
        "p",
        "ig"
      ],
      [
        "p",
        "rec"
      ],
      [
        "p",
        "ack"
      ],
      [
        "q",
        "r"
      ],
      [
        "r",
        "a"
      ],
      [
        "r",
        "ing"
      ],
      [
        "r",
        "ight"
      ],
      [
        "s",
        "li"
      ],
      [
        "s",
        "oc"
      ],
      [
        "t",
        "ext"
      ],
      [
        "u",
        "ted"
      ],
      [
        "v",
        "ic"
      ],
      [
        "v",
        "ir"
      ],
      [
        "w",
        "in"
      ],
      [
        "w",
        "ed"
      ],
      [
        "y",
        "o"
      ],
      [
        "in",
        "tr"
      ],
      [
        "in",
        "fl"
      ],
      [
        "er",
        "ing"
      ],
      [
        "al",
        "low"
      ],
      [
        "an",
        "y"
      ],
      [
        "ar",
        "t"
      ],
      [
        "re",
        "e"
      ],
      [
        "re",
        "ac"
      ],
      [
        "re",
        "pe"
      ],
      [
        "re",
        "ach"
      ],
      [
        "at",
        "her"
      ],
      [
        "at",
        "ure"
      ],
      [
        "le",
        "ment"
      ],
      [
        "ic",
        "t"
      ],
      [
        "ic",
        "ient"
      ],
      [
        "it",
        "u"
      ],
      [
        "ac",
        "ti"
      ],
      [
        "de",
        "par"
      ],
      [
        "de",
        "pend"
      ],
      [
        "as",
        "ure"
      ],
      [
        "as",
        "sign"
      ],
      [
        "ly",
        "ing"
      ],
      [
        "con",
        "si"
      ],
      [
        "con",
        "tain"
      ],
      [
        "ch",
        "em"
      ],
      [
        "si",
        "mul"
      ],
      [
        "lo",
        "t"
      ],
      [
        "th",
        "s"
      ],
      [
        "ad",
        "d"
      ],
      [
        "ex",
        "pl"
      ],
      [
        "ul",
        "ation"
      ],
      [
        "ul",
        "ate"
      ],
      [
        "il",
        "s"
      ],
      [
        "ol",
        "s"
      ],
      [
        "me",
        "tric"
      ],
      [
        "ce",
        "ed"
      ],
      [
        "di",
        "g"
      ],
      [
        "us",
        "h"
      ],
      [
        "te",
        "ch"
      ],
      [
        "res",
        "tric"
      ],
      [
        "pl",
        "es"
      ],
      [
        "to",
        "u"
      ],
      [
        "comp",
        "e"
      ],
      [
        "comp",
        "os"
      ],
      [
        "bo",
        "o"
      ],
      [
        "bo",
        "und"
      ],
      [
        "dis",
        "t"
      ],
      [
        "dis",
        "trib"
      ],
      [
        "str",
        "ip"
      ],
      [
        "ke",
        "ts"
      ],
      [
        "tive",
        "ly"
      ],
      [
        "ine",
        "ar"
      ],
      [
        "vi",
        "e"
      ],
      [
        "op",
        "tim"
      ],
      [
        "exp",
        "res"
      ],
      [
        "enti",
        "al"
      ],
      [
        "sy",
        "stem"
      ],
      [
        "ind",
        "ic"
      ],
      [
        "ak",
        "es"
      ],
      [
        "red",
        "uc"
      ],
      [
        "aliz",
        "ing"
      ],
      [
        "au",
        "to"
      ],
      [
        "fr",
        "ac"
      ],
      [
        "tri",
        "ang"
      ],
      [
        "so",
        "me"
      ],
      [
        "contr",
        "ib"
      ],
      [
        "den",
        "o"
      ],
      [
        "nec",
        "ess"
      ],
      [
        "multi",
        "p"
      ],
      [
        "multi",
        "plic"
      ],
      [
        "nor",
        "m"
      ],
      [
        "hedr",
        "on"
      ],
      [
        "bre",
        "ak"
      ],
      [
        "appro",
        "xim"
      ],
      [
        "partic",
        "ip"
      ],
      [
        "cons",
        "ist"
      ],
      [
        "proc",
        "ess"
      ],
      [
        "gro",
        "up"
      ],
      [
        "a",
        "im"
      ],
      [
        "b",
        "es"
      ],
      [
        "b",
        "ing"
      ],
      [
        "b",
        "el"
      ],
      [
        "c",
        "ance"
      ],
      [
        "d",
        "a"
      ],
      [
        "e",
        "ver"
      ],
      [
        "e",
        "valu"
      ],
      [
        "f",
        "ar"
      ],
      [
        "f",
        "ri"
      ],
      [
        "f",
        "ill"
      ],
      [
        "f",
        "ail"
      ],
      [
        "g",
        "a"
      ],
      [
        "g",
        "y"
      ],
      [
        "g",
        "in"
      ],
      [
        "g",
        "al"
      ],
      [
        "h",
        "ex"
      ],
      [
        "h",
        "app"
      ],
      [
        "i",
        "e"
      ],
      [
        "i",
        "als"
      ],
      [
        "k",
        "n"
      ],
      [
        "k",
        "ill"
      ],
      [
        "n",
        "y"
      ],
      [
        "o",
        "h"
      ],
      [
        "p",
        "c"
      ],
      [
        "p",
        "t"
      ],
      [
        "p",
        "an"
      ],
      [
        "p",
        "ic"
      ],
      [
        "p",
        "ut"
      ],
      [
        "r",
        "is"
      ],
      [
        "r",
        "un"
      ],
      [
        "s",
        "en"
      ],
      [
        "s",
        "is"
      ],
      [
        "s",
        "we"
      ],
      [
        "s",
        "ati"
      ],
      [
        "t",
        "t"
      ],
      [
        "t",
        "ar"
      ],
      [
        "t",
        "as"
      ],
      [
        "u",
        "es"
      ],
      [
        "u",
        "al"
      ],
      [
        "u",
        "tr"
      ],
      [
        "u",
        "ting"
      ],
      [
        "u",
        "tions"
      ],
      [
        "v",
        "ar"
      ],
      [
        "w",
        "al"
      ],
      [
        "w",
        "id"
      ],
      [
        "x",
        "x"
      ],
      [
        "y",
        "ing"
      ],
      [
        "in",
        "k"
      ],
      [
        "in",
        "st"
      ],
      [
        "in",
        "ser"
      ],
      [
        "in",
        "clu"
      ],
      [
        "en",
        "tric"
      ],
      [
        "an",
        "aly"
      ],
      [
        "ar",
        "ch"
      ],
      [
        "ar",
        "ri"
      ],
      [
        "re",
        "le"
      ],
      [
        "re",
        "ce"
      ],
      [
        "re",
        "main"
      ],
      [
        "re",
        "arrang"
      ],
      [
        "at",
        "en"
      ],
      [
        "or",
        "y"
      ],
      [
        "le",
        "ar"
      ],
      [
        "is",
        "m"
      ],
      [
        "is",
        "tic"
      ],
      [
        "it",
        "ting"
      ],
      [
        "de",
        "le"
      ],
      [
        "de",
        "tec"
      ],
      [
        "con",
        "duc"
      ],
      [
        "st",
        "o"
      ],
      [
        "st",
        "abil"
      ],
      [
        "ch",
        "e"
      ],
      [
        "ch",
        "an"
      ],
      [
        "se",
        "ts"
      ],
      [
        "su",
        "re"
      ],
      [
        "si",
        "l"
      ],
      [
        "lo",
        "ok"
      ],
      [
        "th",
        "es"
      ],
      [
        "th",
        "ing"
      ],
      [
        "ad",
        "ju"
      ],
      [
        "ul",
        "d"
      ],
      [
        "ul",
        "t"
      ],
      [
        "ve",
        "c"
      ],
      [
        "ve",
        "lo"
      ],
      [
        "il",
        "d"
      ],
      [
        "ce",
        "ler"
      ],
      [
        "li",
        "f"
      ],
      [
        "li",
        "es"
      ],
      [
        "pro",
        "b"
      ],
      [
        "pro",
        "p"
      ],
      [
        "mo",
        "di"
      ],
      [
        "pl",
        "ac"
      ],
      [
        "el",
        "li"
      ],
      [
        "comp",
        "lic"
      ],
      [
        "sp",
        "e"
      ],
      [
        "sp",
        "here"
      ],
      [
        "ri",
        "x"
      ],
      [
        "cl",
        "es"
      ],
      [
        "cl",
        "ass"
      ],
      [
        "bo",
        "ard"
      ],
      [
        "sub",
        "sti"
      ],
      [
        "str",
        "uc"
      ],
      [
        "ne",
        "utr"
      ],
      [
        "end",
        "ed"
      ],
      [
        "inter",
        "sec"
      ],
      [
        "vi",
        "ol"
      ],
      [
        "ta",
        "ke"
      ],
      [
        "igh",
        "ts"
      ],
      [
        "oc",
        "i"
      ],
      [
        "av",
        "es"
      ],
      [
        "ph",
        "r"
      ],
      [
        "exp",
        "lo"
      ],
      [
        "des",
        "cri"
      ],
      [
        "sy",
        "n"
      ],
      [
        "anc",
        "ed"
      ],
      [
        "imp",
        "ro"
      ],
      [
        "aliz",
        "ation"
      ],
      [
        "app",
        "ed"
      ],
      [
        "fin",
        "ite"
      ],
      [
        "tra",
        "ve"
      ],
      [
        "ev",
        "ol"
      ],
      [
        "ous",
        "ly"
      ],
      [
        "ative",
        "ly"
      ],
      [
        "fi",
        "ed"
      ],
      [
        "contr",
        "adic"
      ],
      [
        "ext",
        "re"
      ],
      [
        "bi",
        "o"
      ],
      [
        "ju",
        "g"
      ],
      [
        "line",
        "ar"
      ],
      [
        "sur",
        "vi"
      ],
      [
        "pos",
        "ed"
      ],
      [
        "mi",
        "x"
      ],
      [
        "inv",
        "ol"
      ],
      [
        "pp",
        "ing"
      ],
      [
        "char",
        "acter"
      ],
      [
        "fol",
        "low"
      ],
      [
        "posi",
        "tion"
      ],
      [
        "ord",
        "in"
      ],
      [
        "ref",
        "lec"
      ],
      [
        "tran",
        "si"
      ],
      [
        "eli",
        "min"
      ],
      [
        "appe",
        "ar"
      ],
      [
        "consi",
        "der"
      ],
      [
        "substi",
        "tu"
      ],
      [
        "a",
        "ver"
      ],
      [
        "b",
        "s"
      ],
      [
        "b",
        "at"
      ],
      [
        "b",
        "ic"
      ],
      [
        "b",
        "il"
      ],
      [
        "b",
        "ig"
      ],
      [
        "b",
        "ut"
      ],
      [
        "b",
        "and"
      ],
      [
        "b",
        "ility"
      ],
      [
        "b",
        "isec"
      ],
      [
        "c",
        "k"
      ],
      [
        "c",
        "an"
      ],
      [
        "c",
        "and"
      ],
      [
        "d",
        "f"
      ],
      [
        "d",
        "an"
      ],
      [
        "d",
        "ays"
      ],
      [
        "e",
        "k"
      ],
      [
        "e",
        "y"
      ],
      [
        "f",
        "ro"
      ],
      [
        "f",
        "ig"
      ],
      [
        "f",
        "all"
      ],
      [
        "f",
        "unc"
      ],
      [
        "g",
        "i"
      ],
      [
        "h",
        "c"
      ],
      [
        "h",
        "ar"
      ],
      [
        "h",
        "ab"
      ],
      [
        "i",
        "ed"
      ],
      [
        "j",
        "a"
      ],
      [
        "k",
        "i"
      ],
      [
        "l",
        "c"
      ],
      [
        "l",
        "ap"
      ],
      [
        "l",
        "uc"
      ],
      [
        "l",
        "and"
      ],
      [
        "l",
        "ong"
      ],
      [
        "m",
        "m"
      ],
      [
        "m",
        "y"
      ],
      [
        "m",
        "us"
      ],
      [
        "m",
        "ir"
      ],
      [
        "m",
        "ess"
      ],
      [
        "n",
        "es"
      ],
      [
        "n",
        "ame"
      ],
      [
        "o",
        "sc"
      ],
      [
        "p",
        "b"
      ],
      [
        "p",
        "le"
      ],
      [
        "p",
        "ay"
      ],
      [
        "p",
        "ill"
      ],
      [
        "r",
        "u"
      ],
      [
        "r",
        "us"
      ],
      [
        "r",
        "ain"
      ],
      [
        "s",
        "m"
      ],
      [
        "s",
        "al"
      ],
      [
        "s",
        "ent"
      ],
      [
        "s",
        "qu"
      ],
      [
        "s",
        "pl"
      ],
      [
        "s",
        "low"
      ],
      [
        "t",
        "in"
      ],
      [
        "t",
        "le"
      ],
      [
        "t",
        "ent"
      ],
      [
        "u",
        "ce"
      ],
      [
        "u",
        "ally"
      ],
      [
        "v",
        "ent"
      ],
      [
        "v",
        "ation"
      ],
      [
        "w",
        "a"
      ],
      [
        "w",
        "o"
      ],
      [
        "w",
        "s"
      ],
      [
        "w",
        "at"
      ],
      [
        "w",
        "ater"
      ],
      [
        "z",
        "y"
      ],
      [
        "z",
        "er"
      ],
      [
        "er",
        "ed"
      ],
      [
        "er",
        "tain"
      ],
      [
        "es",
        "ts"
      ],
      [
        "es",
        "tim"
      ],
      [
        "ti",
        "me"
      ],
      [
        "en",
        "e"
      ],
      [
        "al",
        "ing"
      ],
      [
        "al",
        "ig"
      ],
      [
        "an",
        "o"
      ],
      [
        "ar",
        "r"
      ],
      [
        "re",
        "as"
      ],
      [
        "re",
        "vers"
      ],
      [
        "re",
        "memb"
      ],
      [
        "at",
        "tain"
      ],
      [
        "or",
        "th"
      ],
      [
        "or",
        "tho"
      ],
      [
        "tr",
        "ig"
      ],
      [
        "tr",
        "ack"
      ],
      [
        "tr",
        "unc"
      ],
      [
        "tr",
        "uth"
      ],
      [
        "tr",
        "isec"
      ],
      [
        "le",
        "ad"
      ],
      [
        "ic",
        "i"
      ],
      [
        "ic",
        "ity"
      ],
      [
        "co",
        "u"
      ],
      [
        "co",
        "me"
      ],
      [
        "co",
        "gn"
      ],
      [
        "co",
        "incid"
      ],
      [
        "is",
        "ts"
      ],
      [
        "ac",
        "y"
      ],
      [
        "ac",
        "ks"
      ],
      [
        "ac",
        "cep"
      ],
      [
        "ac",
        "celer"
      ],
      [
        "ro",
        "ll"
      ],
      [
        "ro",
        "und"
      ],
      [
        "de",
        "li"
      ],
      [
        "un",
        "ds"
      ],
      [
        "con",
        "clu"
      ],
      [
        "con",
        "ven"
      ],
      [
        "con",
        "jug"
      ],
      [
        "st",
        "ar"
      ],
      [
        "ch",
        "all"
      ],
      [
        "mp",
        "to"
      ],
      [
        "se",
        "lf"
      ],
      [
        "si",
        "mil"
      ],
      [
        "th",
        "y"
      ],
      [
        "ad",
        "j"
      ],
      [
        "ad",
        "ap"
      ],
      [
        "ex",
        "peri"
      ],
      [
        "ol",
        "d"
      ],
      [
        "ol",
        "l"
      ],
      [
        "ec",
        "ts"
      ],
      [
        "ec",
        "ted"
      ],
      [
        "id",
        "es"
      ],
      [
        "me",
        "ter"
      ],
      [
        "me",
        "ters"
      ],
      [
        "ver",
        "se"
      ],
      [
        "di",
        "r"
      ],
      [
        "di",
        "es"
      ],
      [
        "di",
        "agon"
      ],
      [
        "li",
        "ed"
      ],
      [
        "li",
        "ke"
      ],
      [
        "qu",
        "er"
      ],
      [
        "qu",
        "es"
      ],
      [
        "ag",
        "ing"
      ],
      [
        "ag",
        "ram"
      ],
      [
        "po",
        "int"
      ],
      [
        "po",
        "ints"
      ],
      [
        "us",
        "ed"
      ],
      [
        "us",
        "ing"
      ],
      [
        "pro",
        "ble"
      ],
      [
        "pro",
        "por"
      ],
      [
        "te",
        "ll"
      ],
      [
        "res",
        "ol"
      ],
      [
        "res",
        "id"
      ],
      [
        "per",
        "m"
      ],
      [
        "per",
        "tur"
      ],
      [
        "ir",
        "ed"
      ],
      [
        "ain",
        "ed"
      ],
      [
        "ho",
        "p"
      ],
      [
        "comp",
        "ut"
      ],
      [
        "sub",
        "str"
      ],
      [
        "sub",
        "trac"
      ],
      [
        "dis",
        "rup"
      ],
      [
        "str",
        "a"
      ],
      [
        "gr",
        "ad"
      ],
      [
        "ke",
        "y"
      ],
      [
        "tor",
        "y"
      ],
      [
        "for",
        "mul"
      ],
      [
        "ne",
        "t"
      ],
      [
        "ne",
        "ed"
      ],
      [
        "ne",
        "igh"
      ],
      [
        "em",
        "atic"
      ],
      [
        "ge",
        "t"
      ],
      [
        "sh",
        "if"
      ],
      [
        "op",
        "s"
      ],
      [
        "ta",
        "x"
      ],
      [
        "om",
        "ial"
      ],
      [
        "oc",
        "cup"
      ],
      [
        "pr",
        "is"
      ],
      [
        "car",
        "d"
      ],
      [
        "gen",
        "e"
      ],
      [
        "mis",
        "calcul"
      ],
      [
        "mat",
        "rix"
      ],
      [
        "pre",
        "fer"
      ],
      [
        "des",
        "ig"
      ],
      [
        "coun",
        "ted"
      ],
      [
        "ind",
        "uc"
      ],
      [
        "ass",
        "oci"
      ],
      [
        "pres",
        "er"
      ],
      [
        "cor",
        "rec"
      ],
      [
        "cor",
        "respon"
      ],
      [
        "tur",
        "es"
      ],
      [
        "fr",
        "u"
      ],
      [
        "hy",
        "po"
      ],
      [
        "hy",
        "dro"
      ],
      [
        "jec",
        "tive"
      ],
      [
        "man",
        "ip"
      ],
      [
        "wor",
        "d"
      ],
      [
        "wor",
        "k"
      ],
      [
        "row",
        "s"
      ],
      [
        "ati",
        "vity"
      ],
      [
        "tra",
        "vers"
      ],
      [
        "ev",
        "en"
      ],
      [
        "equ",
        "i"
      ],
      [
        "fi",
        "x"
      ],
      [
        "gu",
        "ar"
      ],
      [
        "eng",
        "ine"
      ],
      [
        "conc",
        "er"
      ],
      [
        "cle",
        "an"
      ],
      [
        "pol",
        "ar"
      ],
      [
        "acc",
        "um"
      ],
      [
        "the",
        "ore"
      ],
      [
        "hedr",
        "al"
      ],
      [
        "conf",
        "ir"
      ],
      [
        "lin",
        "es"
      ],
      [
        "rect",
        "ang"
      ],
      [
        "du",
        "plic"
      ],
      [
        "ome",
        "tric"
      ],
      [
        "parame",
        "ter"
      ],
      [
        "differ",
        "enti"
      ],
      [
        "atur",
        "es"
      ],
      [
        "math",
        "ematic"
      ],
      [
        "incre",
        "ment"
      ],
      [
        "alph",
        "ab"
      ],
      [
        "chec",
        "k"
      ],
      [
        "lab",
        "el"
      ],
      [
        "seg",
        "ment"
      ],
      [
        "with",
        "draw"
      ],
      [
        "succ",
        "ess"
      ],
      [
        "interpre",
        "t"
      ],
      [
        "expon",
        "enti"
      ],
      [
        "compe",
        "ti"
      ],
      [
        "sati",
        "s"
      ],
      [
        "adju",
        "st"
      ],
      [
        "prop",
        "ag"
      ],
      [
        "osc",
        "ill"
      ],
      [
        "a",
        "ke"
      ],
      [
        "b",
        "x"
      ],
      [
        "b",
        "is"
      ],
      [
        "b",
        "us"
      ],
      [
        "b",
        "all"
      ],
      [
        "b",
        "its"
      ],
      [
        "b",
        "loc"
      ],
      [
        "c",
        "n"
      ],
      [
        "c",
        "q"
      ],
      [
        "c",
        "ab"
      ],
      [
        "c",
        "all"
      ],
      [
        "c",
        "ateg"
      ],
      [
        "d",
        "on"
      ],
      [
        "d",
        "at"
      ],
      [
        "d",
        "ur"
      ],
      [
        "d",
        "ers"
      ],
      [
        "e",
        "u"
      ],
      [
        "e",
        "ve"
      ],
      [
        "e",
        "ig"
      ],
      [
        "e",
        "ks"
      ],
      [
        "f",
        "un"
      ],
      [
        "f",
        "am"
      ],
      [
        "f",
        "ib"
      ],
      [
        "f",
        "oc"
      ],
      [
        "f",
        "av"
      ],
      [
        "f",
        "ind"
      ],
      [
        "f",
        "requ"
      ],
      [
        "f",
        "ication"
      ],
      [
        "g",
        "c"
      ],
      [
        "g",
        "ed"
      ],
      [
        "g",
        "ing"
      ],
      [
        "g",
        "ar"
      ],
      [
        "g",
        "ent"
      ],
      [
        "g",
        "res"
      ],
      [
        "g",
        "ir"
      ],
      [
        "g",
        "ers"
      ],
      [
        "h",
        "is"
      ],
      [
        "h",
        "ip"
      ],
      [
        "h",
        "igh"
      ],
      [
        "h",
        "ill"
      ],
      [
        "h",
        "und"
      ],
      [
        "h",
        "ash"
      ],
      [
        "h",
        "ands"
      ],
      [
        "i",
        "i"
      ],
      [
        "i",
        "or"
      ],
      [
        "i",
        "tion"
      ],
      [
        "i",
        "ally"
      ],
      [
        "i",
        "um"
      ],
      [
        "i",
        "tive"
      ],
      [
        "k",
        "a"
      ],
      [
        "l",
        "ad"
      ],
      [
        "l",
        "ay"
      ],
      [
        "l",
        "ang"
      ],
      [
        "l",
        "eng"
      ],
      [
        "l",
        "ish"
      ],
      [
        "l",
        "iter"
      ],
      [
        "m",
        "r"
      ],
      [
        "m",
        "u"
      ],
      [
        "m",
        "ay"
      ],
      [
        "n",
        "el"
      ],
      [
        "n",
        "ers"
      ],
      [
        "n",
        "arrow"
      ],
      [
        "o",
        "ds"
      ],
      [
        "o",
        "ugh"
      ],
      [
        "p",
        "m"
      ],
      [
        "p",
        "on"
      ],
      [
        "p",
        "ent"
      ],
      [
        "p",
        "ip"
      ],
      [
        "p",
        "anc"
      ],
      [
        "r",
        "ad"
      ],
      [
        "r",
        "ho"
      ],
      [
        "s",
        "n"
      ],
      [
        "s",
        "on"
      ],
      [
        "s",
        "co"
      ],
      [
        "s",
        "and"
      ],
      [
        "s",
        "atur"
      ],
      [
        "s",
        "quar"
      ],
      [
        "t",
        "g"
      ],
      [
        "t",
        "un"
      ],
      [
        "t",
        "ons"
      ],
      [
        "t",
        "able"
      ],
      [
        "t",
        "all"
      ],
      [
        "u",
        "g"
      ],
      [
        "u",
        "le"
      ],
      [
        "u",
        "ter"
      ],
      [
        "u",
        "ff"
      ],
      [
        "v",
        "als"
      ],
      [
        "w",
        "ho"
      ],
      [
        "w",
        "ers"
      ],
      [
        "w",
        "est"
      ],
      [
        "w",
        "he"
      ],
      [
        "y",
        "e"
      ],
      [
        "z",
        "o"
      ],
      [
        "in",
        "tu"
      ],
      [
        "in",
        "hib"
      ],
      [
        "er",
        "r"
      ],
      [
        "on",
        "o"
      ],
      [
        "on",
        "es"
      ],
      [
        "es",
        "e"
      ],
      [
        "ti",
        "l"
      ],
      [
        "en",
        "h"
      ],
      [
        "al",
        "i"
      ],
      [
        "al",
        "ter"
      ],
      [
        "an",
        "te"
      ],
      [
        "ar",
        "o"
      ],
      [
        "ar",
        "ies"
      ],
      [
        "ar",
        "gu"
      ],
      [
        "ar",
        "ith"
      ],
      [
        "re",
        "p"
      ],
      [
        "re",
        "ve"
      ],
      [
        "re",
        "tur"
      ],
      [
        "re",
        "vis"
      ],
      [
        "re",
        "construc"
      ],
      [
        "re",
        "cogn"
      ],
      [
        "at",
        "h"
      ],
      [
        "at",
        "ten"
      ],
      [
        "at",
        "temp"
      ],
      [
        "or",
        "g"
      ],
      [
        "or",
        "es"
      ],
      [
        "or",
        "ies"
      ],
      [
        "or",
        "ient"
      ],
      [
        "tr",
        "on"
      ],
      [
        "tr",
        "uc"
      ],
      [
        "tr",
        "ip"
      ],
      [
        "tr",
        "op"
      ],
      [
        "tr",
        "ies"
      ],
      [
        "tr",
        "ape"
      ],
      [
        "le",
        "f"
      ],
      [
        "le",
        "av"
      ],
      [
        "le",
        "ft"
      ],
      [
        "ic",
        "h"
      ],
      [
        "ic",
        "tion"
      ],
      [
        "ic",
        "ular"
      ],
      [
        "co",
        "ur"
      ],
      [
        "co",
        "ok"
      ],
      [
        "co",
        "eff"
      ],
      [
        "co",
        "ordin"
      ],
      [
        "it",
        "al"
      ],
      [
        "it",
        "or"
      ],
      [
        "it",
        "ted"
      ],
      [
        "ac",
        "tion"
      ],
      [
        "ac",
        "ts"
      ],
      [
        "ac",
        "cur"
      ],
      [
        "ent",
        "er"
      ],
      [
        "ro",
        "om"
      ],
      [
        "ro",
        "ugh"
      ],
      [
        "de",
        "p"
      ],
      [
        "de",
        "cl"
      ],
      [
        "de",
        "vi"
      ],
      [
        "de",
        "mon"
      ],
      [
        "de",
        "velo"
      ],
      [
        "as",
        "c"
      ],
      [
        "as",
        "su"
      ],
      [
        "as",
        "ter"
      ],
      [
        "as",
        "ur"
      ],
      [
        "as",
        "tic"
      ],
      [
        "un",
        "e"
      ],
      [
        "con",
        "gr"
      ],
      [
        "st",
        "ate"
      ],
      [
        "ab",
        "a"
      ],
      [
        "ab",
        "sor"
      ],
      [
        "mp",
        "s"
      ],
      [
        "se",
        "m"
      ],
      [
        "se",
        "ly"
      ],
      [
        "se",
        "ll"
      ],
      [
        "su",
        "st"
      ],
      [
        "su",
        "pp"
      ],
      [
        "su",
        "gg"
      ],
      [
        "si",
        "de"
      ],
      [
        "lo",
        "ad"
      ],
      [
        "lo",
        "gram"
      ],
      [
        "th",
        "or"
      ],
      [
        "ad",
        "s"
      ],
      [
        "ap",
        "plic"
      ],
      [
        "ex",
        "c"
      ],
      [
        "ex",
        "ec"
      ],
      [
        "ex",
        "amp"
      ],
      [
        "ex",
        "cep"
      ],
      [
        "ex",
        "chang"
      ],
      [
        "ex",
        "ceed"
      ],
      [
        "ul",
        "es"
      ],
      [
        "il",
        "i"
      ],
      [
        "il",
        "ing"
      ],
      [
        "ur",
        "s"
      ],
      [
        "me",
        "an"
      ],
      [
        "me",
        "chan"
      ],
      [
        "me",
        "asur"
      ],
      [
        "ver",
        "if"
      ],
      [
        "ce",
        "ll"
      ],
      [
        "di",
        "ver"
      ],
      [
        "di",
        "rect"
      ],
      [
        "di",
        "men"
      ],
      [
        "li",
        "gh"
      ],
      [
        "ag",
        "ree"
      ],
      [
        "po",
        "p"
      ],
      [
        "po",
        "st"
      ],
      [
        "pro",
        "f"
      ],
      [
        "pro",
        "mo"
      ],
      [
        "pro",
        "per"
      ],
      [
        "pro",
        "gram"
      ],
      [
        "pro",
        "gres"
      ],
      [
        "te",
        "tra"
      ],
      [
        "mo",
        "re"
      ],
      [
        "mo",
        "de"
      ],
      [
        "mo",
        "un"
      ],
      [
        "per",
        "pend"
      ],
      [
        "to",
        "p"
      ],
      [
        "to",
        "x"
      ],
      [
        "to",
        "gg"
      ],
      [
        "am",
        "s"
      ],
      [
        "am",
        "er"
      ],
      [
        "ain",
        "t"
      ],
      [
        "iz",
        "es"
      ],
      [
        "par",
        "t"
      ],
      [
        "par",
        "ent"
      ],
      [
        "comp",
        "ens"
      ],
      [
        "sp",
        "an"
      ],
      [
        "sp",
        "ace"
      ],
      [
        "cl",
        "aim"
      ],
      [
        "ang",
        "e"
      ],
      [
        "dis",
        "c"
      ],
      [
        "str",
        "ong"
      ],
      [
        "str",
        "ateg"
      ],
      [
        "um",
        "er"
      ],
      [
        "do",
        "t"
      ],
      [
        "do",
        "ts"
      ],
      [
        "gr",
        "and"
      ],
      [
        "be",
        "t"
      ],
      [
        "for",
        "c"
      ],
      [
        "for",
        "mat"
      ],
      [
        "for",
        "ms"
      ],
      [
        "for",
        "ces"
      ],
      [
        "ne",
        "ar"
      ],
      [
        "em",
        "is"
      ],
      [
        "der",
        "iv"
      ],
      [
        "ib",
        "ility"
      ],
      [
        "est",
        "ab"
      ],
      [
        "ans",
        "wer"
      ],
      [
        "sh",
        "ar"
      ],
      [
        "sh",
        "ad"
      ],
      [
        "sh",
        "uff"
      ],
      [
        "up",
        "d"
      ],
      [
        "mb",
        "ol"
      ],
      [
        "ta",
        "il"
      ],
      [
        "ta",
        "ken"
      ],
      [
        "om",
        "ials"
      ],
      [
        "pr",
        "inc"
      ],
      [
        "ma",
        "tic"
      ],
      [
        "car",
        "ri"
      ],
      [
        "car",
        "ry"
      ],
      [
        "av",
        "oid"
      ],
      [
        "mis",
        "sion"
      ],
      [
        "ph",
        "en"
      ],
      [
        "sc",
        "i"
      ],
      [
        "sc",
        "ri"
      ],
      [
        "enc",
        "ing"
      ],
      [
        "enc",
        "lo"
      ],
      [
        "enc",
        "ies"
      ],
      [
        "mon",
        "ot"
      ],
      [
        "he",
        "ap"
      ],
      [
        "mat",
        "ch"
      ],
      [
        "pre",
        "comp"
      ],
      [
        "inc",
        "or"
      ],
      [
        "br",
        "a"
      ],
      [
        "br",
        "an"
      ],
      [
        "des",
        "c"
      ],
      [
        "coun",
        "ts"
      ],
      [
        "anc",
        "ing"
      ],
      [
        "trans",
        "form"
      ],
      [
        "imp",
        "os"
      ],
      [
        "imp",
        "lic"
      ],
      [
        "imp",
        "ort"
      ],
      [
        "imp",
        "lement"
      ],
      [
        "au",
        "g"
      ],
      [
        "app",
        "ing"
      ],
      [
        "wor",
        "ds"
      ],
      [
        "ati",
        "ves"
      ],
      [
        "fac",
        "e"
      ],
      [
        "clu",
        "st"
      ],
      [
        "contr",
        "ol"
      ],
      [
        "gu",
        "ess"
      ],
      [
        "eng",
        "er"
      ],
      [
        "rel",
        "ations"
      ],
      [
        "conc",
        "aten"
      ],
      [
        "cle",
        "ar"
      ],
      [
        "ash",
        "a"
      ],
      [
        "acc",
        "ess"
      ],
      [
        "dy",
        "nam"
      ],
      [
        "pri",
        "or"
      ],
      [
        "sw",
        "it"
      ],
      [
        "sw",
        "im"
      ],
      [
        "ugh",
        "t"
      ],
      [
        "tro",
        "min"
      ],
      [
        "peri",
        "od"
      ],
      [
        "main",
        "tain"
      ],
      [
        "radi",
        "i"
      ],
      [
        "radi",
        "us"
      ],
      [
        "tre",
        "e"
      ],
      [
        "att",
        "ack"
      ],
      [
        "appro",
        "ach"
      ],
      [
        "ome",
        "try"
      ],
      [
        "fy",
        "ing"
      ],
      [
        "sch",
        "ed"
      ],
      [
        "inde",
        "x"
      ],
      [
        "connec",
        "ted"
      ],
      [
        "sequ",
        "ence"
      ],
      [
        "parame",
        "tr"
      ],
      [
        "comm",
        "un"
      ],
      [
        "elec",
        "tric"
      ],
      [
        "pho",
        "to"
      ],
      [
        "alph",
        "a"
      ],
      [
        "tran",
        "sp"
      ],
      [
        "parti",
        "tion"
      ],
      [
        "compo",
        "si"
      ],
      [
        "cro",
        "ss"
      ],
      [
        "pur",
        "ch"
      ],
      [
        "sa",
        "fe"
      ],
      [
        "sym",
        "metric"
      ],
      [
        "xy",
        "z"
      ],
      [
        "asy",
        "mpto"
      ],
      [
        "pig",
        "e"
      ],
      [
        "intr",
        "od"
      ],
      [
        "infl",
        "u"
      ],
      [
        "acti",
        "v"
      ],
      [
        "add",
        "res"
      ],
      [
        "deno",
        "min"
      ],
      [
        "ever",
        "y"
      ],
      [
        "rece",
        "i"
      ],
      [
        "plac",
        "ed"
      ],
      [
        "spe",
        "ak"
      ],
      [
        "mir",
        "r"
      ],
      [
        "deli",
        "ver"
      ],
      [
        "simil",
        "ar"
      ],
      [
        "adj",
        "ac"
      ],
      [
        "pertur",
        "b"
      ],
      [
        "neigh",
        "bor"
      ],
      [
        "equi",
        "val"
      ],
      [
        "guar",
        "ante"
      ],
      [
        "eig",
        "en"
      ],
      [
        "hund",
        "red"
      ],
      [
        "demon",
        "str"
      ],
      [
        "congr",
        "u"
      ],
      [
        "perpend",
        "icular"
      ],
      [
        "a",
        "e"
      ],
      [
        "a",
        "i"
      ],
      [
        "a",
        "o"
      ],
      [
        "a",
        "ks"
      ],
      [
        "a",
        "hedron"
      ],
      [
        "b",
        "k"
      ],
      [
        "b",
        "m"
      ],
      [
        "b",
        "n"
      ],
      [
        "b",
        "q"
      ],
      [
        "b",
        "t"
      ],
      [
        "b",
        "un"
      ],
      [
        "b",
        "lo"
      ],
      [
        "b",
        "ec"
      ],
      [
        "b",
        "id"
      ],
      [
        "b",
        "acter"
      ],
      [
        "c",
        "ut"
      ],
      [
        "c",
        "au"
      ],
      [
        "c",
        "ame"
      ],
      [
        "c",
        "ry"
      ],
      [
        "c",
        "ash"
      ],
      [
        "c",
        "ases"
      ],
      [
        "c",
        "lock"
      ],
      [
        "c",
        "entric"
      ],
      [
        "d",
        "in"
      ],
      [
        "d",
        "am"
      ],
      [
        "d",
        "est"
      ],
      [
        "d",
        "war"
      ],
      [
        "d",
        "oll"
      ],
      [
        "e",
        "co"
      ],
      [
        "e",
        "as"
      ],
      [
        "f",
        "d"
      ],
      [
        "f",
        "re"
      ],
      [
        "f",
        "ic"
      ],
      [
        "f",
        "is"
      ],
      [
        "f",
        "ur"
      ],
      [
        "f",
        "igh"
      ],
      [
        "f",
        "ies"
      ],
      [
        "f",
        "ast"
      ],
      [
        "g",
        "or"
      ],
      [
        "g",
        "am"
      ],
      [
        "g",
        "end"
      ],
      [
        "g",
        "est"
      ],
      [
        "g",
        "all"
      ],
      [
        "g",
        "row"
      ],
      [
        "g",
        "reg"
      ],
      [
        "g",
        "ather"
      ],
      [
        "h",
        "on"
      ],
      [
        "h",
        "at"
      ],
      [
        "h",
        "am"
      ],
      [
        "h",
        "ack"
      ],
      [
        "h",
        "ips"
      ],
      [
        "h",
        "mm"
      ],
      [
        "i",
        "j"
      ],
      [
        "i",
        "le"
      ],
      [
        "i",
        "ev"
      ],
      [
        "j",
        "e"
      ],
      [
        "j",
        "an"
      ],
      [
        "j",
        "or"
      ],
      [
        "j",
        "us"
      ],
      [
        "j",
        "ok"
      ],
      [
        "k",
        "it"
      ],
      [
        "k",
        "ad"
      ],
      [
        "k",
        "op"
      ],
      [
        "l",
        "d"
      ],
      [
        "l",
        "n"
      ],
      [
        "l",
        "en"
      ],
      [
        "l",
        "ar"
      ],
      [
        "l",
        "or"
      ],
      [
        "l",
        "it"
      ],
      [
        "l",
        "as"
      ],
      [
        "l",
        "ist"
      ],
      [
        "l",
        "aw"
      ],
      [
        "l",
        "ands"
      ],
      [
        "m",
        "ation"
      ],
      [
        "m",
        "ol"
      ],
      [
        "m",
        "ers"
      ],
      [
        "m",
        "and"
      ],
      [
        "m",
        "ass"
      ],
      [
        "n",
        "uc"
      ],
      [
        "o",
        "v"
      ],
      [
        "o",
        "y"
      ],
      [
        "o",
        "se"
      ],
      [
        "o",
        "ur"
      ],
      [
        "o",
        "ther"
      ],
      [
        "o",
        "graph"
      ],
      [
        "p",
        "d"
      ],
      [
        "p",
        "al"
      ],
      [
        "p",
        "ac"
      ],
      [
        "p",
        "as"
      ],
      [
        "p",
        "ad"
      ],
      [
        "p",
        "us"
      ],
      [
        "p",
        "ies"
      ],
      [
        "p",
        "lot"
      ],
      [
        "r",
        "m"
      ],
      [
        "r",
        "ab"
      ],
      [
        "r",
        "ap"
      ],
      [
        "r",
        "ig"
      ],
      [
        "r",
        "ice"
      ],
      [
        "r",
        "ational"
      ],
      [
        "r",
        "ub"
      ],
      [
        "s",
        "r"
      ],
      [
        "s",
        "un"
      ],
      [
        "s",
        "lo"
      ],
      [
        "s",
        "mo"
      ],
      [
        "s",
        "par"
      ],
      [
        "s",
        "ke"
      ],
      [
        "s",
        "av"
      ],
      [
        "s",
        "ens"
      ],
      [
        "s",
        "amp"
      ],
      [
        "s",
        "ses"
      ],
      [
        "t",
        "x"
      ],
      [
        "t",
        "ex"
      ],
      [
        "t",
        "est"
      ],
      [
        "t",
        "als"
      ],
      [
        "t",
        "ens"
      ],
      [
        "t",
        "ect"
      ],
      [
        "u",
        "x"
      ],
      [
        "u",
        "su"
      ],
      [
        "u",
        "min"
      ],
      [
        "u",
        "sion"
      ],
      [
        "u",
        "ish"
      ],
      [
        "u",
        "gg"
      ],
      [
        "v",
        "a"
      ],
      [
        "v",
        "w"
      ],
      [
        "v",
        "in"
      ],
      [
        "v",
        "ac"
      ],
      [
        "v",
        "as"
      ],
      [
        "v",
        "able"
      ],
      [
        "v",
        "ice"
      ],
      [
        "v",
        "acc"
      ],
      [
        "w",
        "i"
      ],
      [
        "w",
        "w"
      ],
      [
        "w",
        "as"
      ],
      [
        "w",
        "ol"
      ],
      [
        "w",
        "ays"
      ],
      [
        "w",
        "ide"
      ],
      [
        "x",
        "ia"
      ],
      [
        "y",
        "ar"
      ],
      [
        "y",
        "cl"
      ],
      [
        "y",
        "iel"
      ],
      [
        "z",
        "z"
      ],
      [
        "z",
        "en"
      ],
      [
        "z",
        "ed"
      ],
      [
        "in",
        "a"
      ],
      [
        "in",
        "ity"
      ],
      [
        "in",
        "fer"
      ],
      [
        "in",
        "divid"
      ],
      [
        "in",
        "consist"
      ],
      [
        "es",
        "ted"
      ],
      [
        "ti",
        "ce"
      ],
      [
        "ti",
        "tu"
      ],
      [
        "ti",
        "ves"
      ],
      [
        "ti",
        "ble"
      ],
      [
        "en",
        "ing"
      ],
      [
        "en",
        "co"
      ],
      [
        "en",
        "counter"
      ],
      [
        "en",
        "vir"
      ],
      [
        "en",
        "umer"
      ],
      [
        "ed",
        "s"
      ],
      [
        "ed",
        "ing"
      ],
      [
        "al",
        "ex"
      ],
      [
        "al",
        "ge"
      ],
      [
        "al",
        "loc"
      ],
      [
        "an",
        "a"
      ],
      [
        "an",
        "n"
      ],
      [
        "an",
        "al"
      ],
      [
        "ar",
        "ti"
      ],
      [
        "re",
        "ver"
      ],
      [
        "re",
        "tain"
      ],
      [
        "re",
        "act"
      ],
      [
        "re",
        "wr"
      ],
      [
        "re",
        "order"
      ],
      [
        "re",
        "pain"
      ],
      [
        "re",
        "place"
      ],
      [
        "re",
        "hen"
      ],
      [
        "at",
        "om"
      ],
      [
        "or",
        "ation"
      ],
      [
        "or",
        "ig"
      ],
      [
        "or",
        "bit"
      ],
      [
        "tr",
        "ain"
      ],
      [
        "tr",
        "im"
      ],
      [
        "tr",
        "act"
      ],
      [
        "le",
        "y"
      ],
      [
        "le",
        "ver"
      ],
      [
        "le",
        "ep"
      ],
      [
        "ic",
        "es"
      ],
      [
        "ic",
        "ograph"
      ],
      [
        "co",
        "up"
      ],
      [
        "co",
        "her"
      ],
      [
        "co",
        "pri"
      ],
      [
        "co",
        "py"
      ],
      [
        "is",
        "ol"
      ],
      [
        "is",
        "ms"
      ],
      [
        "is",
        "ion"
      ],
      [
        "is",
        "trib"
      ],
      [
        "it",
        "ation"
      ],
      [
        "ac",
        "qu"
      ],
      [
        "ac",
        "tic"
      ],
      [
        "ac",
        "ting"
      ],
      [
        "ac",
        "tive"
      ],
      [
        "ac",
        "tions"
      ],
      [
        "ent",
        "ers"
      ],
      [
        "ro",
        "o"
      ],
      [
        "de",
        "fe"
      ],
      [
        "de",
        "gener"
      ],
      [
        "de",
        "pos"
      ],
      [
        "de",
        "que"
      ],
      [
        "de",
        "compos"
      ],
      [
        "as",
        "se"
      ],
      [
        "as",
        "si"
      ],
      [
        "ly",
        "a"
      ],
      [
        "un",
        "fol"
      ],
      [
        "con",
        "d"
      ],
      [
        "con",
        "v"
      ],
      [
        "con",
        "su"
      ],
      [
        "con",
        "di"
      ],
      [
        "con",
        "fl"
      ],
      [
        "st",
        "ay"
      ],
      [
        "st",
        "op"
      ],
      [
        "st",
        "om"
      ],
      [
        "st",
        "ack"
      ],
      [
        "st",
        "ati"
      ],
      [
        "st",
        "air"
      ],
      [
        "st",
        "ep"
      ],
      [
        "ab",
        "o"
      ],
      [
        "ab",
        "s"
      ],
      [
        "ab",
        "ly"
      ],
      [
        "ab",
        "ab"
      ],
      [
        "ab",
        "les"
      ],
      [
        "ch",
        "r"
      ],
      [
        "ch",
        "ick"
      ],
      [
        "se",
        "e"
      ],
      [
        "se",
        "l"
      ],
      [
        "se",
        "em"
      ],
      [
        "se",
        "cu"
      ],
      [
        "se",
        "mi"
      ],
      [
        "se",
        "mic"
      ],
      [
        "su",
        "s"
      ],
      [
        "su",
        "it"
      ],
      [
        "si",
        "g"
      ],
      [
        "si",
        "x"
      ],
      [
        "si",
        "an"
      ],
      [
        "si",
        "tive"
      ],
      [
        "si",
        "ght"
      ],
      [
        "lo",
        "y"
      ],
      [
        "th",
        "in"
      ],
      [
        "th",
        "ir"
      ],
      [
        "th",
        "row"
      ],
      [
        "th",
        "ous"
      ],
      [
        "ad",
        "es"
      ],
      [
        "ap",
        "er"
      ],
      [
        "ap",
        "art"
      ],
      [
        "ex",
        "ist"
      ],
      [
        "ex",
        "trac"
      ],
      [
        "ul",
        "er"
      ],
      [
        "ul",
        "ated"
      ],
      [
        "ul",
        "ations"
      ],
      [
        "il",
        "ater"
      ],
      [
        "ur",
        "y"
      ],
      [
        "ec",
        "ting"
      ],
      [
        "ec",
        "tive"
      ],
      [
        "id",
        "en"
      ],
      [
        "id",
        "ent"
      ],
      [
        "me",
        "l"
      ],
      [
        "me",
        "mo"
      ],
      [
        "me",
        "tab"
      ],
      [
        "me",
        "asure"
      ],
      [
        "ce",
        "il"
      ],
      [
        "di",
        "ame"
      ],
      [
        "li",
        "g"
      ],
      [
        "li",
        "on"
      ],
      [
        "li",
        "de"
      ],
      [
        "li",
        "fe"
      ],
      [
        "li",
        "ght"
      ],
      [
        "qu",
        "o"
      ],
      [
        "qu",
        "ick"
      ],
      [
        "qu",
        "anti"
      ],
      [
        "ag",
        "s"
      ],
      [
        "ag",
        "ed"
      ],
      [
        "ag",
        "ons"
      ],
      [
        "po",
        "se"
      ],
      [
        "po",
        "ur"
      ],
      [
        "po",
        "wer"
      ],
      [
        "pro",
        "vid"
      ],
      [
        "pro",
        "tec"
      ],
      [
        "pro",
        "ceed"
      ],
      [
        "te",
        "le"
      ],
      [
        "te",
        "les"
      ],
      [
        "te",
        "ach"
      ],
      [
        "res",
        "t"
      ],
      [
        "res",
        "ul"
      ],
      [
        "mo",
        "ve"
      ],
      [
        "mo",
        "tor"
      ],
      [
        "mo",
        "lec"
      ],
      [
        "pl",
        "at"
      ],
      [
        "pl",
        "us"
      ],
      [
        "per",
        "form"
      ],
      [
        "per",
        "cent"
      ],
      [
        "ig",
        "nor"
      ],
      [
        "to",
        "k"
      ],
      [
        "to",
        "ols"
      ],
      [
        "am",
        "ine"
      ],
      [
        "ment",
        "al"
      ],
      [
        "el",
        "f"
      ],
      [
        "iz",
        "on"
      ],
      [
        "ting",
        "s"
      ],
      [
        "ting",
        "uish"
      ],
      [
        "par",
        "as"
      ],
      [
        "ho",
        "le"
      ],
      [
        "comp",
        "res"
      ],
      [
        "comp",
        "ati"
      ],
      [
        "comp",
        "rehen"
      ],
      [
        "sp",
        "el"
      ],
      [
        "sp",
        "her"
      ],
      [
        "sp",
        "read"
      ],
      [
        "sp",
        "aces"
      ],
      [
        "cl",
        "in"
      ],
      [
        "cl",
        "ar"
      ],
      [
        "min",
        "is"
      ],
      [
        "bo",
        "c"
      ],
      [
        "bo",
        "t"
      ],
      [
        "bo",
        "w"
      ],
      [
        "bo",
        "x"
      ],
      [
        "bo",
        "ok"
      ],
      [
        "bo",
        "dy"
      ],
      [
        "bo",
        "tt"
      ],
      [
        "sub",
        "t"
      ],
      [
        "dis",
        "car"
      ],
      [
        "dis",
        "cre"
      ],
      [
        "dis",
        "tinguish"
      ],
      [
        "do",
        "c"
      ],
      [
        "do",
        "m"
      ],
      [
        "do",
        "u"
      ],
      [
        "do",
        "main"
      ],
      [
        "do",
        "ub"
      ],
      [
        "gr",
        "ass"
      ],
      [
        "im",
        "m"
      ],
      [
        "im",
        "al"
      ],
      [
        "ke",
        "ep"
      ],
      [
        "be",
        "h"
      ],
      [
        "be",
        "at"
      ],
      [
        "be",
        "ha"
      ],
      [
        "be",
        "gin"
      ],
      [
        "and",
        "re"
      ],
      [
        "for",
        "med"
      ],
      [
        "for",
        "ward"
      ],
      [
        "rec",
        "i"
      ],
      [
        "rec",
        "or"
      ],
      [
        "em",
        "er"
      ],
      [
        "ip",
        "her"
      ],
      [
        "ge",
        "ts"
      ],
      [
        "ge",
        "ometric"
      ],
      [
        "ge",
        "eks"
      ],
      [
        "sh",
        "e"
      ],
      [
        "sh",
        "ort"
      ],
      [
        "up",
        "s"
      ],
      [
        "up",
        "per"
      ],
      [
        "inter",
        "n"
      ],
      [
        "inter",
        "cep"
      ],
      [
        "inter",
        "leav"
      ],
      [
        "mb",
        "er"
      ],
      [
        "vi",
        "de"
      ],
      [
        "ta",
        "kes"
      ],
      [
        "om",
        "en"
      ],
      [
        "oc",
        "t"
      ],
      [
        "oc",
        "ta"
      ],
      [
        "oc",
        "cur"
      ],
      [
        "oc",
        "curr"
      ],
      [
        "pr",
        "in"
      ],
      [
        "ma",
        "x"
      ],
      [
        "ma",
        "jor"
      ],
      [
        "gen",
        "ce"
      ],
      [
        "av",
        "en"
      ],
      [
        "av",
        "ail"
      ],
      [
        "ph",
        "ys"
      ],
      [
        "ph",
        "ism"
      ],
      [
        "mon",
        "ic"
      ],
      [
        "no",
        "t"
      ],
      [
        "no",
        "te"
      ],
      [
        "he",
        "ar"
      ],
      [
        "mat",
        "ched"
      ],
      [
        "pre",
        "par"
      ],
      [
        "war",
        "e"
      ],
      [
        "inc",
        "t"
      ],
      [
        "exp",
        "and"
      ],
      [
        "exp",
        "ect"
      ],
      [
        "br",
        "ac"
      ],
      [
        "br",
        "un"
      ],
      [
        "br",
        "id"
      ],
      [
        "val",
        "ue"
      ],
      [
        "enti",
        "ally"
      ],
      [
        "coun",
        "ting"
      ],
      [
        "over",
        "l"
      ],
      [
        "low",
        "er"
      ],
      [
        "sy",
        "mbol"
      ],
      [
        "fe",
        "as"
      ],
      [
        "ty",
        "p"
      ],
      [
        "ind",
        "ent"
      ],
      [
        "ind",
        "ro"
      ],
      [
        "trans",
        "fer"
      ],
      [
        "dec",
        "ry"
      ],
      [
        "if",
        "y"
      ],
      [
        "if",
        "ic"
      ],
      [
        "if",
        "ication"
      ],
      [
        "mar",
        "k"
      ],
      [
        "mar",
        "y"
      ],
      [
        "au",
        "x"
      ],
      [
        "cor",
        "rect"
      ],
      [
        "tur",
        "ed"
      ],
      [
        "tur",
        "al"
      ],
      [
        "fr",
        "id"
      ],
      [
        "fr",
        "ag"
      ],
      [
        "fr",
        "ame"
      ],
      [
        "fer",
        "ence"
      ],
      [
        "jec",
        "t"
      ],
      [
        "man",
        "ds"
      ],
      [
        "man",
        "age"
      ],
      [
        "wor",
        "ks"
      ],
      [
        "ach",
        "iev"
      ],
      [
        "fin",
        "ish"
      ],
      [
        "tri",
        "vi"
      ],
      [
        "com",
        "es"
      ],
      [
        "com",
        "ing"
      ],
      [
        "cur",
        "v"
      ],
      [
        "ob",
        "tain"
      ],
      [
        "col",
        "or"
      ],
      [
        "ist",
        "ant"
      ],
      [
        "equ",
        "al"
      ],
      [
        "log",
        "arith"
      ],
      [
        "por",
        "ts"
      ],
      [
        "sol",
        "ute"
      ],
      [
        "ari",
        "ly"
      ],
      [
        "vers",
        "ity"
      ],
      [
        "sho",
        "o"
      ],
      [
        "cont",
        "est"
      ],
      [
        "cont",
        "amin"
      ],
      [
        "ext",
        "en"
      ],
      [
        "cu",
        "be"
      ],
      [
        "cu",
        "stom"
      ],
      [
        "rel",
        "ated"
      ],
      [
        "unc",
        "ertain"
      ],
      [
        "conc",
        "entr"
      ],
      [
        "cir",
        "cle"
      ],
      [
        "cir",
        "cles"
      ],
      [
        "ju",
        "mp"
      ],
      [
        "sing",
        "ular"
      ],
      [
        "spec",
        "tr"
      ],
      [
        "ded",
        "uc"
      ],
      [
        "pos",
        "si"
      ],
      [
        "fo",
        "ur"
      ],
      [
        "inv",
        "ari"
      ],
      [
        "sign",
        "ific"
      ],
      [
        "diff",
        "ic"
      ],
      [
        "bu",
        "il"
      ],
      [
        "jo",
        "in"
      ],
      [
        "ot",
        "es"
      ],
      [
        "pol",
        "l"
      ],
      [
        "reg",
        "ular"
      ],
      [
        "let",
        "es"
      ],
      [
        "plan",
        "e"
      ],
      [
        "cap",
        "ac"
      ],
      [
        "poly",
        "n"
      ],
      [
        "hedr",
        "ons"
      ],
      [
        "pp",
        "ed"
      ],
      [
        "conf",
        "ig"
      ],
      [
        "cent",
        "er"
      ],
      [
        "cent",
        "ers"
      ],
      [
        "sk",
        "in"
      ],
      [
        "sk",
        "ip"
      ],
      [
        "sk",
        "ill"
      ],
      [
        "wh",
        "ites"
      ],
      [
        "bor",
        "row"
      ],
      [
        "clo",
        "u"
      ],
      [
        "cri",
        "min"
      ],
      [
        "ful",
        "ly"
      ],
      [
        "num",
        "ber"
      ],
      [
        "off",
        "ic"
      ],
      [
        "tre",
        "at"
      ],
      [
        "att",
        "ach"
      ],
      [
        "simp",
        "li"
      ],
      [
        "simp",
        "lif"
      ],
      [
        "posi",
        "tions"
      ],
      [
        "ele",
        "v"
      ],
      [
        "pi",
        "ec"
      ],
      [
        "sl",
        "ant"
      ],
      [
        "ane",
        "ous"
      ],
      [
        "requ",
        "ire"
      ],
      [
        "under",
        "stand"
      ],
      [
        "comple",
        "te"
      ],
      [
        "graph",
        "s"
      ],
      [
        "flo",
        "or"
      ],
      [
        "la",
        "ur"
      ],
      [
        "inde",
        "pend"
      ],
      [
        "arrang",
        "e"
      ],
      [
        "uni",
        "form"
      ],
      [
        "sequ",
        "ences"
      ],
      [
        "tho",
        "ugh"
      ],
      [
        "pred",
        "ic"
      ],
      [
        "hyper",
        "bol"
      ],
      [
        "bit",
        "mas"
      ],
      [
        "elec",
        "tro"
      ],
      [
        "mag",
        "n"
      ],
      [
        "mag",
        "ne"
      ],
      [
        "pat",
        "h"
      ],
      [
        "pat",
        "ho"
      ],
      [
        "entr",
        "al"
      ],
      [
        "stre",
        "t"
      ],
      [
        "stre",
        "am"
      ],
      [
        "super",
        "conduc"
      ],
      [
        "addi",
        "tive"
      ],
      [
        "addi",
        "tivity"
      ],
      [
        "memb",
        "ers"
      ],
      [
        "lim",
        "it"
      ],
      [
        "cat",
        "aly"
      ],
      [
        "pu",
        "ts"
      ],
      [
        "py",
        "th"
      ],
      [
        "van",
        "ish"
      ],
      [
        "determin",
        "ed"
      ],
      [
        "ste",
        "in"
      ],
      [
        "parti",
        "te"
      ],
      [
        "gon",
        "al"
      ],
      [
        "ox",
        "id"
      ],
      [
        "lex",
        "icograph"
      ],
      [
        "cover",
        "ed"
      ],
      [
        "coll",
        "ap"
      ],
      [
        "seg",
        "ments"
      ],
      [
        "play",
        "ed"
      ],
      [
        "tour",
        "nam"
      ],
      [
        "homo",
        "the"
      ],
      [
        "homo",
        "gene"
      ],
      [
        "decre",
        "ment"
      ],
      [
        "ben",
        "ef"
      ],
      [
        "fil",
        "ter"
      ],
      [
        "hor",
        "mon"
      ],
      [
        "hor",
        "izon"
      ],
      [
        "kno",
        "w"
      ],
      [
        "kno",
        "wn"
      ],
      [
        "ric",
        "h"
      ],
      [
        "tang",
        "ent"
      ],
      [
        "suff",
        "icient"
      ],
      [
        "quadr",
        "atic"
      ],
      [
        "combin",
        "ator"
      ],
      [
        "bir",
        "th"
      ],
      [
        "cli",
        "mb"
      ],
      [
        "qr",
        "t"
      ],
      [
        "ra",
        "is"
      ],
      [
        "right",
        "arrow"
      ],
      [
        "vic",
        "tor"
      ],
      [
        "yo",
        "un"
      ],
      [
        "itu",
        "de"
      ],
      [
        "tech",
        "no"
      ],
      [
        "tou",
        "ch"
      ],
      [
        "boo",
        "ks"
      ],
      [
        "bound",
        "ed"
      ],
      [
        "dist",
        "inct"
      ],
      [
        "necess",
        "it"
      ],
      [
        "bel",
        "ong"
      ],
      [
        "fri",
        "ends"
      ],
      [
        "wid",
        "th"
      ],
      [
        "rearrang",
        "e"
      ],
      [
        "thes",
        "is"
      ],
      [
        "uld",
        "n"
      ],
      [
        "vec",
        "tor"
      ],
      [
        "elli",
        "p"
      ],
      [
        "finite",
        "ly"
      ],
      [
        "hab",
        "it"
      ],
      [
        "luc",
        "ky"
      ],
      [
        "sm",
        "all"
      ],
      [
        "spl",
        "it"
      ],
      [
        "zer",
        "o"
      ],
      [
        "reas",
        "on"
      ],
      [
        "orth",
        "oc"
      ],
      [
        "ici",
        "ency"
      ],
      [
        "cou",
        "pl"
      ],
      [
        "chall",
        "eng"
      ],
      [
        "adap",
        "t"
      ],
      [
        "proble",
        "ms"
      ],
      [
        "comput",
        "ation"
      ],
      [
        "stra",
        "ight"
      ],
      [
        "fru",
        "it"
      ],
      [
        "alphab",
        "e"
      ],
      [
        "eu",
        "ro"
      ],
      [
        "fav",
        "or"
      ],
      [
        "sand",
        "w"
      ],
      [
        "org",
        "an"
      ],
      [
        "trape",
        "z"
      ],
      [
        "sust",
        "ain"
      ],
      [
        "thor",
        "ough"
      ],
      [
        "dimen",
        "sion"
      ],
      [
        "estab",
        "lish"
      ],
      [
        "sci",
        "enti"
      ],
      [
        "monot",
        "on"
      ],
      [
        "aug",
        "ment"
      ],
      [
        "pige",
        "on"
      ],
      [
        "introd",
        "uc"
      ],
      [
        "cry",
        "st"
      ],
      [
        "jus",
        "ti"
      ],
      [
        "pal",
        "indro"
      ],
      [
        "smo",
        "oth"
      ],
      [
        "envir",
        "on"
      ],
      [
        "alge",
        "bra"
      ],
      [
        "orig",
        "in"
      ],
      [
        "asse",
        "mb"
      ],
      [
        "semic",
        "ir"
      ],
      [
        "metab",
        "ol"
      ],
      [
        "teles",
        "co"
      ],
      [
        "beha",
        "vi"
      ],
      [
        "a",
        "z"
      ],
      [
        "a",
        "co"
      ],
      [
        "a",
        "ab"
      ],
      [
        "a",
        "qu"
      ],
      [
        "a",
        "vi"
      ],
      [
        "a",
        "que"
      ],
      [
        "a",
        "ult"
      ],
      [
        "a",
        "moun"
      ],
      [
        "b",
        "ly"
      ],
      [
        "b",
        "ab"
      ],
      [
        "b",
        "am"
      ],
      [
        "b",
        "ers"
      ],
      [
        "b",
        "ri"
      ],
      [
        "b",
        "uc"
      ],
      [
        "b",
        "les"
      ],
      [
        "b",
        "ill"
      ],
      [
        "b",
        "ind"
      ],
      [
        "b",
        "ak"
      ],
      [
        "b",
        "ble"
      ],
      [
        "b",
        "ins"
      ],
      [
        "b",
        "att"
      ],
      [
        "b",
        "ell"
      ],
      [
        "c",
        "m"
      ],
      [
        "c",
        "s"
      ],
      [
        "c",
        "x"
      ],
      [
        "c",
        "er"
      ],
      [
        "c",
        "en"
      ],
      [
        "c",
        "as"
      ],
      [
        "c",
        "red"
      ],
      [
        "c",
        "iti"
      ],
      [
        "c",
        "row"
      ],
      [
        "c",
        "ular"
      ],
      [
        "c",
        "ast"
      ],
      [
        "c",
        "ket"
      ],
      [
        "c",
        "akes"
      ],
      [
        "c",
        "ertain"
      ],
      [
        "c",
        "ipher"
      ],
      [
        "d",
        "m"
      ],
      [
        "d",
        "al"
      ],
      [
        "d",
        "re"
      ],
      [
        "d",
        "or"
      ],
      [
        "d",
        "le"
      ],
      [
        "d",
        "il"
      ],
      [
        "d",
        "id"
      ],
      [
        "d",
        "res"
      ],
      [
        "d",
        "ate"
      ],
      [
        "d",
        "ang"
      ],
      [
        "d",
        "um"
      ],
      [
        "d",
        "au"
      ],
      [
        "d",
        "ash"
      ],
      [
        "d",
        "ict"
      ],
      [
        "d",
        "iction"
      ],
      [
        "e",
        "es"
      ],
      [
        "e",
        "is"
      ],
      [
        "e",
        "th"
      ],
      [
        "e",
        "per"
      ],
      [
        "e",
        "gg"
      ],
      [
        "e",
        "uler"
      ],
      [
        "f",
        "s"
      ],
      [
        "f",
        "en"
      ],
      [
        "f",
        "ed"
      ],
      [
        "f",
        "ing"
      ],
      [
        "f",
        "at"
      ],
      [
        "f",
        "le"
      ],
      [
        "f",
        "ly"
      ],
      [
        "f",
        "res"
      ],
      [
        "f",
        "ir"
      ],
      [
        "f",
        "ers"
      ],
      [
        "f",
        "em"
      ],
      [
        "f",
        "if"
      ],
      [
        "f",
        "air"
      ],
      [
        "f",
        "ish"
      ],
      [
        "f",
        "ect"
      ],
      [
        "f",
        "are"
      ],
      [
        "f",
        "lex"
      ],
      [
        "f",
        "ree"
      ],
      [
        "f",
        "ather"
      ],
      [
        "g",
        "lo"
      ],
      [
        "g",
        "ap"
      ],
      [
        "g",
        "ol"
      ],
      [
        "g",
        "ate"
      ],
      [
        "g",
        "ain"
      ],
      [
        "g",
        "ho"
      ],
      [
        "g",
        "ri"
      ],
      [
        "g",
        "ang"
      ],
      [
        "g",
        "em"
      ],
      [
        "g",
        "ons"
      ],
      [
        "g",
        "ates"
      ],
      [
        "g",
        "over"
      ],
      [
        "g",
        "if"
      ],
      [
        "g",
        "ot"
      ],
      [
        "g",
        "old"
      ],
      [
        "h",
        "n"
      ],
      [
        "h",
        "t"
      ],
      [
        "h",
        "z"
      ],
      [
        "h",
        "ing"
      ],
      [
        "h",
        "ic"
      ],
      [
        "h",
        "as"
      ],
      [
        "h",
        "un"
      ],
      [
        "h",
        "ad"
      ],
      [
        "h",
        "ul"
      ],
      [
        "h",
        "il"
      ],
      [
        "h",
        "ig"
      ],
      [
        "h",
        "ang"
      ],
      [
        "h",
        "um"
      ],
      [
        "h",
        "im"
      ],
      [
        "h",
        "all"
      ],
      [
        "h",
        "ub"
      ],
      [
        "h",
        "ier"
      ],
      [
        "h",
        "emis"
      ],
      [
        "i",
        "o"
      ],
      [
        "i",
        "x"
      ],
      [
        "i",
        "ation"
      ],
      [
        "i",
        "us"
      ],
      [
        "i",
        "ke"
      ],
      [
        "i",
        "van"
      ],
      [
        "j",
        "i"
      ],
      [
        "j",
        "k"
      ],
      [
        "j",
        "am"
      ],
      [
        "j",
        "im"
      ],
      [
        "j",
        "ob"
      ],
      [
        "j",
        "unc"
      ],
      [
        "j",
        "ia"
      ],
      [
        "j",
        "ury"
      ],
      [
        "k",
        "x"
      ],
      [
        "k",
        "in"
      ],
      [
        "k",
        "ar"
      ],
      [
        "k",
        "at"
      ],
      [
        "k",
        "ol"
      ],
      [
        "k",
        "el"
      ],
      [
        "k",
        "ang"
      ],
      [
        "k",
        "ine"
      ],
      [
        "k",
        "ings"
      ],
      [
        "k",
        "ah"
      ],
      [
        "k",
        "rus"
      ],
      [
        "l",
        "ac"
      ],
      [
        "l",
        "li"
      ],
      [
        "l",
        "ag"
      ],
      [
        "l",
        "ate"
      ],
      [
        "l",
        "am"
      ],
      [
        "l",
        "ind"
      ],
      [
        "l",
        "ens"
      ],
      [
        "l",
        "one"
      ],
      [
        "l",
        "amp"
      ],
      [
        "l",
        "ater"
      ],
      [
        "m",
        "l"
      ],
      [
        "m",
        "ac"
      ],
      [
        "m",
        "ap"
      ],
      [
        "m",
        "um"
      ],
      [
        "m",
        "im"
      ],
      [
        "m",
        "iti"
      ],
      [
        "m",
        "ach"
      ],
      [
        "m",
        "ality"
      ],
      [
        "m",
        "itted"
      ],
      [
        "n",
        "d"
      ],
      [
        "n",
        "r"
      ],
      [
        "n",
        "ac"
      ],
      [
        "n",
        "ment"
      ],
      [
        "n",
        "one"
      ],
      [
        "n",
        "ice"
      ],
      [
        "n",
        "ight"
      ],
      [
        "n",
        "ick"
      ],
      [
        "n",
        "ail"
      ],
      [
        "n",
        "atur"
      ],
      [
        "n",
        "els"
      ],
      [
        "o",
        "g"
      ],
      [
        "o",
        "q"
      ],
      [
        "o",
        "w"
      ],
      [
        "o",
        "z"
      ],
      [
        "o",
        "le"
      ],
      [
        "o",
        "de"
      ],
      [
        "o",
        "wn"
      ],
      [
        "o",
        "uter"
      ],
      [
        "p",
        "in"
      ],
      [
        "p",
        "lo"
      ],
      [
        "p",
        "ir"
      ],
      [
        "p",
        "ted"
      ],
      [
        "p",
        "iz"
      ],
      [
        "p",
        "tions"
      ],
      [
        "p",
        "enc"
      ],
      [
        "p",
        "ati"
      ],
      [
        "p",
        "aw"
      ],
      [
        "p",
        "ure"
      ],
      [
        "p",
        "ick"
      ],
      [
        "p",
        "ush"
      ],
      [
        "q",
        "t"
      ],
      [
        "q",
        "slant"
      ],
      [
        "r",
        "s"
      ],
      [
        "r",
        "at"
      ],
      [
        "r",
        "ating"
      ],
      [
        "r",
        "ati"
      ],
      [
        "r",
        "ings"
      ],
      [
        "r",
        "ail"
      ],
      [
        "s",
        "an"
      ],
      [
        "s",
        "su"
      ],
      [
        "s",
        "po"
      ],
      [
        "s",
        "ay"
      ],
      [
        "s",
        "ons"
      ],
      [
        "s",
        "end"
      ],
      [
        "s",
        "und"
      ],
      [
        "s",
        "od"
      ],
      [
        "s",
        "mar"
      ],
      [
        "s",
        "ong"
      ],
      [
        "s",
        "lic"
      ],
      [
        "s",
        "pot"
      ],
      [
        "s",
        "itu"
      ],
      [
        "s",
        "leep"
      ],
      [
        "s",
        "qrt"
      ],
      [
        "t",
        "ol"
      ],
      [
        "t",
        "ment"
      ],
      [
        "t",
        "ally"
      ],
      [
        "u",
        "ti"
      ],
      [
        "u",
        "ed"
      ],
      [
        "u",
        "an"
      ],
      [
        "u",
        "ters"
      ],
      [
        "u",
        "ary"
      ],
      [
        "v",
        "or"
      ],
      [
        "v",
        "ap"
      ],
      [
        "v",
        "ib"
      ],
      [
        "v",
        "ant"
      ],
      [
        "v",
        "ill"
      ],
      [
        "v",
        "ents"
      ],
      [
        "v",
        "ary"
      ],
      [
        "v",
        "lad"
      ],
      [
        "w",
        "y"
      ],
      [
        "w",
        "on"
      ],
      [
        "w",
        "it"
      ],
      [
        "w",
        "all"
      ],
      [
        "w",
        "ill"
      ],
      [
        "w",
        "ind"
      ],
      [
        "w",
        "ish"
      ],
      [
        "w",
        "ash"
      ],
      [
        "w",
        "ick"
      ],
      [
        "w",
        "ave"
      ],
      [
        "w",
        "els"
      ],
      [
        "w",
        "ik"
      ],
      [
        "w",
        "ild"
      ],
      [
        "y",
        "d"
      ],
      [
        "y",
        "r"
      ],
      [
        "y",
        "es"
      ],
      [
        "y",
        "or"
      ],
      [
        "y",
        "el"
      ],
      [
        "y",
        "nam"
      ],
      [
        "z",
        "a"
      ],
      [
        "z",
        "ing"
      ],
      [
        "z",
        "ag"
      ],
      [
        "z",
        "ig"
      ],
      [
        "in",
        "th"
      ],
      [
        "in",
        "str"
      ],
      [
        "in",
        "ess"
      ],
      [
        "in",
        "her"
      ],
      [
        "in",
        "jec"
      ],
      [
        "in",
        "form"
      ],
      [
        "in",
        "ten"
      ],
      [
        "in",
        "sec"
      ],
      [
        "in",
        "ner"
      ],
      [
        "in",
        "valid"
      ],
      [
        "in",
        "struc"
      ],
      [
        "in",
        "direct"
      ],
      [
        "in",
        "scri"
      ],
      [
        "in",
        "clin"
      ],
      [
        "er",
        "a"
      ],
      [
        "er",
        "c"
      ],
      [
        "er",
        "ry"
      ],
      [
        "on",
        "d"
      ],
      [
        "es",
        "ting"
      ],
      [
        "es",
        "cap"
      ],
      [
        "es",
        "sive"
      ],
      [
        "ti",
        "ed"
      ],
      [
        "ti",
        "an"
      ],
      [
        "ti",
        "le"
      ],
      [
        "ti",
        "ent"
      ],
      [
        "ti",
        "ght"
      ],
      [
        "ti",
        "ssu"
      ],
      [
        "en",
        "er"
      ],
      [
        "en",
        "ed"
      ],
      [
        "en",
        "or"
      ],
      [
        "en",
        "ch"
      ],
      [
        "en",
        "se"
      ],
      [
        "en",
        "su"
      ],
      [
        "en",
        "em"
      ],
      [
        "en",
        "ari"
      ],
      [
        "en",
        "velo"
      ],
      [
        "en",
        "zy"
      ],
      [
        "ed",
        "uc"
      ],
      [
        "ed",
        "ge"
      ],
      [
        "ed",
        "ges"
      ],
      [
        "ing",
        "red"
      ],
      [
        "al",
        "t"
      ],
      [
        "al",
        "es"
      ],
      [
        "al",
        "an"
      ],
      [
        "al",
        "ar"
      ],
      [
        "al",
        "co"
      ],
      [
        "al",
        "th"
      ],
      [
        "al",
        "one"
      ],
      [
        "al",
        "gor"
      ],
      [
        "al",
        "titu"
      ],
      [
        "an",
        "k"
      ],
      [
        "an",
        "ted"
      ],
      [
        "an",
        "no"
      ],
      [
        "an",
        "agram"
      ],
      [
        "ar",
        "en"
      ],
      [
        "ar",
        "is"
      ],
      [
        "ar",
        "ds"
      ],
      [
        "ar",
        "ding"
      ],
      [
        "ar",
        "bi"
      ],
      [
        "re",
        "in"
      ],
      [
        "re",
        "es"
      ],
      [
        "re",
        "tion"
      ],
      [
        "re",
        "ly"
      ],
      [
        "re",
        "te"
      ],
      [
        "re",
        "comp"
      ],
      [
        "re",
        "plic"
      ],
      [
        "re",
        "cep"
      ],
      [
        "re",
        "produc"
      ],
      [
        "re",
        "cover"
      ],
      [
        "re",
        "vol"
      ],
      [
        "re",
        "phr"
      ],
      [
        "at",
        "o"
      ],
      [
        "at",
        "ter"
      ],
      [
        "at",
        "mo"
      ],
      [
        "at",
        "trib"
      ],
      [
        "or",
        "ts"
      ],
      [
        "tion",
        "ally"
      ],
      [
        "tr",
        "u"
      ],
      [
        "tr",
        "in"
      ],
      [
        "tr",
        "ation"
      ],
      [
        "tr",
        "ace"
      ],
      [
        "le",
        "m"
      ],
      [
        "le",
        "an"
      ],
      [
        "le",
        "ts"
      ],
      [
        "le",
        "ve"
      ],
      [
        "le",
        "mon"
      ],
      [
        "le",
        "ave"
      ],
      [
        "le",
        "pip"
      ],
      [
        "ic",
        "an"
      ],
      [
        "ic",
        "ks"
      ],
      [
        "ic",
        "ian"
      ],
      [
        "ic",
        "hes"
      ],
      [
        "co",
        "b"
      ],
      [
        "co",
        "p"
      ],
      [
        "co",
        "t"
      ],
      [
        "co",
        "w"
      ],
      [
        "co",
        "re"
      ],
      [
        "co",
        "con"
      ],
      [
        "co",
        "st"
      ],
      [
        "co",
        "ol"
      ],
      [
        "co",
        "ding"
      ],
      [
        "is",
        "on"
      ],
      [
        "is",
        "su"
      ],
      [
        "is",
        "ting"
      ],
      [
        "is",
        "om"
      ],
      [
        "is",
        "ions"
      ],
      [
        "it",
        "ly"
      ],
      [
        "it",
        "te"
      ],
      [
        "it",
        "em"
      ],
      [
        "it",
        "her"
      ],
      [
        "it",
        "ors"
      ],
      [
        "it",
        "ten"
      ],
      [
        "ac",
        "id"
      ],
      [
        "ac",
        "tu"
      ],
      [
        "ac",
        "cor"
      ],
      [
        "ac",
        "com"
      ],
      [
        "ac",
        "tical"
      ],
      [
        "ent",
        "al"
      ],
      [
        "ent",
        "ang"
      ],
      [
        "ent",
        "hal"
      ],
      [
        "ro",
        "ts"
      ],
      [
        "ro",
        "matic"
      ],
      [
        "de",
        "b"
      ],
      [
        "de",
        "ad"
      ],
      [
        "de",
        "ep"
      ],
      [
        "de",
        "gre"
      ],
      [
        "de",
        "tail"
      ],
      [
        "de",
        "composi"
      ],
      [
        "de",
        "tect"
      ],
      [
        "as",
        "k"
      ],
      [
        "as",
        "p"
      ],
      [
        "as",
        "on"
      ],
      [
        "as",
        "ser"
      ],
      [
        "as",
        "sum"
      ],
      [
        "as",
        "tron"
      ],
      [
        "ly",
        "sis"
      ],
      [
        "un",
        "k"
      ],
      [
        "un",
        "it"
      ],
      [
        "un",
        "ce"
      ],
      [
        "un",
        "ity"
      ],
      [
        "un",
        "its"
      ],
      [
        "un",
        "like"
      ],
      [
        "un",
        "known"
      ],
      [
        "con",
        "st"
      ],
      [
        "con",
        "ser"
      ],
      [
        "con",
        "jec"
      ],
      [
        "con",
        "cep"
      ],
      [
        "con",
        "sum"
      ],
      [
        "con",
        "curr"
      ],
      [
        "con",
        "vol"
      ],
      [
        "con",
        "secu"
      ],
      [
        "st",
        "er"
      ],
      [
        "st",
        "at"
      ],
      [
        "st",
        "ac"
      ],
      [
        "st",
        "ation"
      ],
      [
        "st",
        "ers"
      ],
      [
        "st",
        "ated"
      ],
      [
        "st",
        "able"
      ],
      [
        "st",
        "oc"
      ],
      [
        "st",
        "amp"
      ],
      [
        "st",
        "atic"
      ],
      [
        "ab",
        "ac"
      ],
      [
        "ab",
        "ol"
      ],
      [
        "ab",
        "und"
      ],
      [
        "ab",
        "solute"
      ],
      [
        "ch",
        "ap"
      ],
      [
        "ch",
        "il"
      ],
      [
        "ch",
        "ain"
      ],
      [
        "ch",
        "ess"
      ],
      [
        "ch",
        "ame"
      ],
      [
        "ch",
        "air"
      ],
      [
        "ch",
        "ef"
      ],
      [
        "ch",
        "ains"
      ],
      [
        "ch",
        "lor"
      ],
      [
        "ch",
        "romatic"
      ],
      [
        "mp",
        "tion"
      ],
      [
        "se",
        "x"
      ],
      [
        "se",
        "ar"
      ],
      [
        "se",
        "ver"
      ],
      [
        "se",
        "cond"
      ],
      [
        "su",
        "lf"
      ],
      [
        "si",
        "bl"
      ],
      [
        "si",
        "ze"
      ],
      [
        "lo",
        "s"
      ],
      [
        "lo",
        "id"
      ],
      [
        "lo",
        "op"
      ],
      [
        "ter",
        "y"
      ],
      [
        "th",
        "res"
      ],
      [
        "th",
        "em"
      ],
      [
        "th",
        "est"
      ],
      [
        "th",
        "ick"
      ],
      [
        "th",
        "ink"
      ],
      [
        "th",
        "rough"
      ],
      [
        "ad",
        "sor"
      ],
      [
        "ap",
        "r"
      ],
      [
        "ap",
        "ex"
      ],
      [
        "ap",
        "ers"
      ],
      [
        "ex",
        "per"
      ],
      [
        "ex",
        "plic"
      ],
      [
        "ex",
        "act"
      ],
      [
        "ex",
        "plan"
      ],
      [
        "ex",
        "tern"
      ],
      [
        "ex",
        "amin"
      ],
      [
        "ex",
        "hib"
      ],
      [
        "ul",
        "ed"
      ],
      [
        "ul",
        "us"
      ],
      [
        "ul",
        "ating"
      ],
      [
        "ul",
        "ty"
      ],
      [
        "ul",
        "dr"
      ],
      [
        "ul",
        "ative"
      ],
      [
        "ul",
        "tim"
      ],
      [
        "ve",
        "loc"
      ],
      [
        "ve",
        "hic"
      ],
      [
        "il",
        "inear"
      ],
      [
        "ur",
        "n"
      ],
      [
        "ur",
        "es"
      ],
      [
        "ur",
        "al"
      ],
      [
        "ec",
        "k"
      ],
      [
        "ec",
        "ess"
      ],
      [
        "ec",
        "tively"
      ],
      [
        "ec",
        "centric"
      ],
      [
        "id",
        "er"
      ],
      [
        "id",
        "ence"
      ],
      [
        "me",
        "e"
      ],
      [
        "me",
        "th"
      ],
      [
        "me",
        "try"
      ],
      [
        "ce",
        "vi"
      ],
      [
        "ce",
        "les"
      ],
      [
        "di",
        "ed"
      ],
      [
        "di",
        "al"
      ],
      [
        "di",
        "am"
      ],
      [
        "di",
        "agram"
      ],
      [
        "di",
        "versity"
      ],
      [
        "li",
        "e"
      ],
      [
        "li",
        "p"
      ],
      [
        "li",
        "er"
      ],
      [
        "li",
        "qu"
      ],
      [
        "li",
        "br"
      ],
      [
        "li",
        "ance"
      ],
      [
        "li",
        "ked"
      ],
      [
        "qu",
        "al"
      ],
      [
        "qu",
        "ality"
      ],
      [
        "ag",
        "ent"
      ],
      [
        "ag",
        "ain"
      ],
      [
        "ag",
        "ue"
      ],
      [
        "ag",
        "ric"
      ],
      [
        "ag",
        "greg"
      ],
      [
        "po",
        "in"
      ],
      [
        "po",
        "le"
      ],
      [
        "po",
        "inter"
      ],
      [
        "po",
        "sing"
      ],
      [
        "po",
        "pul"
      ],
      [
        "us",
        "s"
      ],
      [
        "us",
        "er"
      ],
      [
        "us",
        "age"
      ],
      [
        "pro",
        "te"
      ],
      [
        "pro",
        "du"
      ],
      [
        "pro",
        "of"
      ],
      [
        "te",
        "l"
      ],
      [
        "te",
        "en"
      ],
      [
        "te",
        "tromin"
      ],
      [
        "res",
        "er"
      ],
      [
        "res",
        "is"
      ],
      [
        "res",
        "em"
      ],
      [
        "res",
        "ta"
      ],
      [
        "res",
        "ear"
      ],
      [
        "res",
        "ult"
      ],
      [
        "res",
        "our"
      ],
      [
        "mo",
        "us"
      ],
      [
        "mo",
        "ment"
      ],
      [
        "mo",
        "der"
      ],
      [
        "mo",
        "ther"
      ],
      [
        "mo",
        "use"
      ],
      [
        "mo",
        "squ"
      ],
      [
        "pl",
        "ate"
      ],
      [
        "pl",
        "ain"
      ],
      [
        "pl",
        "ays"
      ],
      [
        "pl",
        "uses"
      ],
      [
        "pl",
        "aces"
      ],
      [
        "pl",
        "astic"
      ],
      [
        "pl",
        "ugg"
      ],
      [
        "per",
        "p"
      ],
      [
        "per",
        "mut"
      ],
      [
        "per",
        "fect"
      ],
      [
        "ir",
        "al"
      ],
      [
        "ir",
        "rel"
      ],
      [
        "to",
        "m"
      ],
      [
        "to",
        "po"
      ],
      [
        "to",
        "ff"
      ],
      [
        "to",
        "ge"
      ],
      [
        "to",
        "wn"
      ],
      [
        "to",
        "tal"
      ],
      [
        "to",
        "oth"
      ],
      [
        "tic",
        "s"
      ],
      [
        "am",
        "big"
      ],
      [
        "ment",
        "ation"
      ],
      [
        "ment",
        "ary"
      ],
      [
        "el",
        "se"
      ],
      [
        "el",
        "ves"
      ],
      [
        "iz",
        "er"
      ],
      [
        "iz",
        "ations"
      ],
      [
        "par",
        "ts"
      ],
      [
        "par",
        "abol"
      ],
      [
        "ho",
        "w"
      ],
      [
        "ho",
        "me"
      ],
      [
        "ho",
        "ut"
      ],
      [
        "ho",
        "od"
      ],
      [
        "ho",
        "ps"
      ],
      [
        "ho",
        "use"
      ],
      [
        "comp",
        "on"
      ],
      [
        "sp",
        "in"
      ],
      [
        "sp",
        "ac"
      ],
      [
        "sp",
        "ring"
      ],
      [
        "ri",
        "es"
      ],
      [
        "cl",
        "amp"
      ],
      [
        "cl",
        "assi"
      ],
      [
        "min",
        "or"
      ],
      [
        "min",
        "us"
      ],
      [
        "bo",
        "u"
      ],
      [
        "bo",
        "mb"
      ],
      [
        "bo",
        "unc"
      ],
      [
        "bo",
        "dies"
      ],
      [
        "sub",
        "st"
      ],
      [
        "sub",
        "gr"
      ],
      [
        "sub",
        "inter"
      ],
      [
        "sub",
        "divis"
      ],
      [
        "sub",
        "case"
      ],
      [
        "sub",
        "group"
      ],
      [
        "sub",
        "tas"
      ],
      [
        "sub",
        "arr"
      ],
      [
        "sub",
        "rectang"
      ],
      [
        "ang",
        "ular"
      ],
      [
        "dis",
        "e"
      ],
      [
        "dis",
        "tric"
      ],
      [
        "dis",
        "sol"
      ],
      [
        "dis",
        "connec"
      ],
      [
        "dis",
        "continu"
      ],
      [
        "dis",
        "place"
      ],
      [
        "dis",
        "crimin"
      ],
      [
        "uc",
        "k"
      ],
      [
        "str",
        "eng"
      ],
      [
        "str",
        "ict"
      ],
      [
        "um",
        "s"
      ],
      [
        "um",
        "bre"
      ],
      [
        "do",
        "p"
      ],
      [
        "do",
        "es"
      ],
      [
        "do",
        "dec"
      ],
      [
        "gr",
        "av"
      ],
      [
        "gr",
        "adi"
      ],
      [
        "gr",
        "ade"
      ],
      [
        "im",
        "ag"
      ],
      [
        "im",
        "als"
      ],
      [
        "im",
        "age"
      ],
      [
        "im",
        "medi"
      ],
      [
        "ke",
        "ys"
      ],
      [
        "be",
        "a"
      ],
      [
        "be",
        "ac"
      ],
      [
        "be",
        "li"
      ],
      [
        "be",
        "ta"
      ],
      [
        "be",
        "et"
      ],
      [
        "ut",
        "y"
      ],
      [
        "ine",
        "ment"
      ],
      [
        "and",
        "er"
      ],
      [
        "for",
        "d"
      ],
      [
        "for",
        "ce"
      ],
      [
        "rec",
        "ip"
      ],
      [
        "rec",
        "all"
      ],
      [
        "ne",
        "at"
      ],
      [
        "em",
        "an"
      ],
      [
        "em",
        "ail"
      ],
      [
        "em",
        "bed"
      ],
      [
        "ip",
        "ri"
      ],
      [
        "der",
        "i"
      ],
      [
        "der",
        "ange"
      ],
      [
        "sh",
        "a"
      ],
      [
        "sh",
        "or"
      ],
      [
        "sh",
        "ap"
      ],
      [
        "sh",
        "ir"
      ],
      [
        "sh",
        "iel"
      ],
      [
        "inter",
        "pol"
      ],
      [
        "inter",
        "medi"
      ],
      [
        "vi",
        "a"
      ],
      [
        "vi",
        "ous"
      ],
      [
        "vi",
        "ously"
      ],
      [
        "op",
        "h"
      ],
      [
        "op",
        "pos"
      ],
      [
        "op",
        "pon"
      ],
      [
        "ta",
        "u"
      ],
      [
        "ta",
        "king"
      ],
      [
        "ta",
        "ils"
      ],
      [
        "om",
        "ic"
      ],
      [
        "pe",
        "t"
      ],
      [
        "pe",
        "tr"
      ],
      [
        "pe",
        "ach"
      ],
      [
        "pe",
        "ters"
      ],
      [
        "ant",
        "ly"
      ],
      [
        "pr",
        "un"
      ],
      [
        "ma",
        "k"
      ],
      [
        "ma",
        "tically"
      ],
      [
        "car",
        "ef"
      ],
      [
        "car",
        "tes"
      ],
      [
        "car",
        "bon"
      ],
      [
        "gen",
        "s"
      ],
      [
        "av",
        "y"
      ],
      [
        "gh",
        "ter"
      ],
      [
        "gh",
        "ts"
      ],
      [
        "mis",
        "si"
      ],
      [
        "mis",
        "transl"
      ],
      [
        "mis",
        "interpret"
      ],
      [
        "mis",
        "taken"
      ],
      [
        "ph",
        "i"
      ],
      [
        "ph",
        "us"
      ],
      [
        "ph",
        "one"
      ],
      [
        "sc",
        "an"
      ],
      [
        "sc",
        "re"
      ],
      [
        "sc",
[...]
