{
  "version": "1.0",
  "truncation": {
    "direction": "Right",
    "max_length": 1024,
    "strategy": "LongestFirst",
    "stride": 0
  },
  "padding": null,
  "added_tokens": [
    {
      "id": 0,
      "content": "<PAD>",
      "single_word": false,
      "lstrip": false,
      "rstrip": false,
      "normalized": false,
      "special": true
    },
    {
      "id": 1,
      "content": "<UNK>",
      "single_word": false,
      "lstrip": false,
      "rstrip": false,
      "normalized": false,
      "special": true
    },
    {
      "id": 2,
      "content": "<BOS>",
      "single_word": false,
      "lstrip": false,
      "rstrip": false,
      "normalized": false,
      "special": true
    },
    {
      "id": 3,
      "content": "<EOS>",
      "single_word": false,
      "lstrip": false,
      "rstrip": false,
      "normalized": false,
      "special": true
    }
  ],
  "normalizer": null,
  "pre_tokenizer": {
    "type": "ByteLevel",
    "add_prefix_space": true,
    "trim_offsets": true,
    "use_regex": true
  },
  "post_processor": null,
  "decoder": {
    "type": "ByteLevel",
    "add_prefix_space": true,
    "trim_offsets": true,
    "use_regex": true
  },
  "model": {
    "type": "BPE",
    "dropout": null,
    "unk_token": "<UNK>",
    "continuing_subword_prefix": null,
    "end_of_word_suffix": null,
    "fuse_unk": false,
    "byte_fallback": false,
    "ignore_merges": false,
    "vocab": {
      "<PAD>": 0,
      "<UNK>": 1,
      "<BOS>": 2,
      "<EOS>": 3,
      "!": 4,
      "\"": 5,
      "#": 6,
      "$": 7,
      "%": 8,
      "&": 9,
      "'": 10,
      "(": 11,
      ")": 12,
      "*": 13,
      "+": 14,
      ",": 15,
      "-": 16,
      ".": 17,
      "/": 18,
      "0": 19,
      "1": 20,
      "2": 21,
      "3": 22,
      "4": 23,
      "5": 24,
      "6": 25,
      "7": 26,
      "8": 27,
      "9": 28,
      ":": 29,
      ";": 30,
      "<": 31,
      "=": 32,
      ">": 33,
      "?": 34,
      "@": 35,
      "A": 36,
      "B": 37,
      "C": 38,
      "D": 39,
      "E": 40,
      "F": 41,
      "G": 42,
      "H": 43,
      "I": 44,
      "J": 45,
      "K": 46,
      "L": 47,
      "M": 48,
      "N": 49,
      "O": 50,
      "P": 51,
      "Q": 52,
      "R": 53,
      "S": 54,
      "T": 55,
      "U": 56,
      "V": 57,
      "W": 58,
      "X": 59,
      "Y": 60,
      "Z": 61,
      "[": 62,
      "\\": 63,
      "]": 64,
      "^": 65,
      "_": 66,
      "`": 67,
      "a": 68,
      "b": 69,
      "c": 70,
      "d": 71,
      "e": 72,
      "f": 73,
      "g": 74,
      "h": 75,
      "i": 76,
      "j": 77,
      "k": 78,
      "l": 79,
      "m": 80,
      "n": 81,
      "o": 82,
      "p": 83,
      "q": 84,
      "r": 85,
      "s": 86,
      "t": 87,
      "u": 88,
      "v": 89,
      "w": 90,
      "x": 91,
      "y": 92,
      "z": 93,
      "{": 94,
      "|": 95,
      "}": 96,
      "~": 97,
      "Ċ": 98,
      "Ġ": 99,
      "ĠĠ": 100,
      "ĠĠĠĠ": 101,
      "Ġt": 102,
      "Ġa": 103,
      "in": 104,
      "he": 105,
      "on": 106,
      "re": 107,
      "Ġthe": 108,
      "Ġs": 109,
      "er": 110,
      "at": 111,
      "en": 112,
      "Ġc": 113,
      "Ġo": 114,
      "ĠĠĠĠĠĠĠĠ": 115,
      "es": 116,
      "is": 117,
      "ĠĠĠ": 118,
      "nd": 119,
      "ing": 120,
      "it": 121,
      "Ġw": 122,
      "al": 123,
      "or": 124,
      "an": 125,
      "ou": 126,
      "Ġp": 127,
      "Ġf": 128,
      "le": 129,
      "Ġm": 130,
      "Ġand": 131,
      "Ġto": 132,
      "Ġb": 133,
      "ion": 134,
      "Ġin": 135,
      "Ġd": 136,
      "ent": 137,
      "ro": 138,
      "Ġof": 139,
      "ar": 140,
      "ed": 141,
      "ic": 142,
      "as": 143,
      "ĠĠĠĠĠĠĠ": 144,
      "ct": 145,
      "Ġre": 146,
      "Ġe": 147,
      "Ġth": 148,
      "us": 149,
      "ve": 150,
      "\":": 151,
      "Ġ\"": 152,
      "Ġn": 153,
      "ĠĠĠĠĠĠĠĠĠĠĠ": 154,
      "Ġy": 155,
      "ĠĠĠĠĠĠĠĠĠĠĠĠĠĠĠ": 156,
      "Ġl": 157,
      "et": 158,
      "Ġh": 159,
      "\":\"": 160,
      "om": 161,
      ".\\": 162,
      "Ġyou": 163,
      "Ġis": 164,
      "ly": 165,
      "im": 166,
      "id": 167,
      "ation": 168,
      "ce": 169,
      "ll": 170,
      "Ġg": 171,
      "Ġst": 172,
      "st": 173,
      "ont": 174,
      "ut": 175,
      "ow": 176,
      "\\\"": 177,
      "ot": 178,
      "Ġbe": 179,
      "Ġthat": 180,
      "ig": 181,
      "ist": 182,
      "Ġfor": 183,
      "ĠI": 184,
      "Ġ{": 185,
      "ch": 186,
      "ur": 187,
      "if": 188,
      "ĠT": 189,
      "ra": 190,
      "Ġ}": 191,
      "Ġor": 192,
      "se": 193,
      "ver": 194,
      "Ġit": 195,
      "ith": 196,
      "ld": 197,
      "Ġpro": 198,
      "Ġon": 199,
      "ul": 200,
      "ate": 201,
      "ess": 202,
      "Ġas": 203,
      "ant": 204,
      "role": 205,
      "ontent": 206,
      "ag": 207,
      "um": 208,
      "'s": 209,
      "Ġcon": 210,
      "un": 211,
      "Ġcan": 212,
      "Ġwith": 213,
      "Ġex": 214,
      "ay": 215,
      "am": 216,
      "Ġ},": 217,
      "content": 218,
      "\",": 219,
      "ke": 220,
      "ir": 221,
      "Ġan": 222,
      "ore": 223,
      "Ġv": 224,
      "ers": 225,
      "Ġwe": 226,
      "her": 227,
      "ive": 228,
      "il": 229,
      "ab": 230,
      "qu": 231,
      "ad": 232,
      "ol": 233,
      "Ġwh": 234,
      "Ġare": 235,
      "Ġcom": 236,
      "Ġde": 237,
      "ect": 238,
      "Ġyour": 239,
      "ity": 240,
      "Ġ1": 241,
      "Ġsu": 242,
      "od": 243,
      "ass": 244,
      "res": 245,
      "ment": 246,
      "est": 247,
      "pp": 248,
      "ter": 249,
      "Ġ=": 250,
      "ri": 251,
      "igh": 252,
      "Ġus": 253,
      "th": 254,
      "ĠA": 255,
      "Ġ(": 256,
      "Ġhe": 257,
      "ould": 258,
      "Ġne": 259,
      "ain": 260,
      "Ġch": 261,
      "ple": 262,
      "ial": 263,
      "ies": 264,
      ":\\": 265,
      "iv": 266,
      "Ġse": 267,
      "ĠThe": 268,
      "Ġ\\\"": 269,
      "Ġ\\": 270,
      "ac": 271,
      ".\",": 272,
      "ction": 273,
      "pl": 274,
      "Ġal": 275,
      "Ġha": 276,
      "em": 277,
      "ere": 278,
      "Ġr": 279,
      "ight": 280,
      "Ġen": 281,
      "ill": 282,
      "Ġint": 283,
      "ĠS": 284,
      "pe": 285,
      "os": 286,
      "istant": 287,
      "pt": 288,
      "ort": 289,
      "Ġsh": 290,
      "Ġ2": 291,
      "Ġle": 292,
      "Ġmore": 293,
      "Ġthis": 294,
      "oc": 295,
      "Ġim": 296,
      "nt": 297,
      "user": 298,
      "act": 299,
      "ud": 300,
      "``": 301,
      "ue": 302,
      "assistant": 303,
      "his": 304,
      "Ġwor": 305,
      "rom": 306,
      "ust": 307,
      "ations": 308,
      "ĠC": 309,
      "Ġme": 310,
      "Ġat": 311,
      "ure": 312,
      "art": 313,
      "ence": 314,
      "all": 315,
      "Ġby": 316,
      "iz": 317,
      "ang": 318,
      "ions": 319,
      "00": 320,
      "Ġu": 321,
      "Ġnot": 322,
      "Ġma": 323,
      "ide": 324,
      "**": 325,
      "king": 326,
      "and": 327,
      "per": 328,
      "age": 329,
      "out": 330,
      "ine": 331,
      "ical": 332,
      "Ġres": 333,
      "Ġfrom": 334,
      "ff": 335,
      "ach": 336,
      "el": 337,
      "end": 338,
      "ĠW": 339,
      "Ġab": 340,
      "Ġhave": 341,
      "are": 342,
      "nT": 343,
      "able": 344,
      "Ġad": 345,
      "Ġwhe": 346,
      "ance": 347,
      "ome": 348,
      "ult": 349,
      "ind": 350,
      "ĠThis": 351,
      "Ġar": 352,
      "ĠP": 353,
      "Ġtheir": 354,
      "Ġfe": 355,
      "Ġdat": 356,
      "orm": 357,
      "ich": 358,
      "ther": 359,
      "int": 360,
      "ĠH": 361,
      "Ġcl": 362,
      "so": 363,
      "Ġ`": 364,
      "ĠB": 365,
      "ie": 366,
      "Ġinc": 367,
      "ip": 368,
      "Ġte": 369,
      "Ġdo": 370,
      "Ġpl": 371,
      "umb": 372,
      "our": 373,
      "op": 374,
      "Ġif": 375,
      "\\/": 376,
      "Ġstr": 377,
      "og": 378,
      "ast": 379,
      "ard": 380,
      "Ġapp": 381,
      "du": 382,
      "Ġun": 383,
      "Ġalso": 384,
      "nI": 385,
      "Ġval": 386,
      "Ġwhich": 387,
      "Ġtr": 388,
      ")\\": 389,
      "ime": 390,
      "unction": 391,
      "ase": 392,
      "Ġ-": 393,
      "ĠM": 394,
      "Ġcont": 395,
      "Ġimp": 396,
      "ib": 397,
      "Ġ3": 398,
      "Ġdata": 399,
      "Ġco": 400,
      "rou": 401,
      "ike": 402,
      "Ġcomp": 403,
      "ign": 404,
      "ĠF": 405,
      "form": 406,
      "Ġfunction": 407,
      "ile": 408,
      "Ġ+": 409,
      "Ġwill": 410,
      "Ġj": 411,
      "cc": 412,
      "Ġcre": 413,
      "ress": 414,
      "ces": 415,
      "urn": 416,
      "gh": 417,
      "Ġnumb": 418,
      "ack": 419,
      "xt": 420,
      "Ġall": 421,
      "Ġcons": 422,
      "Ġbut": 423,
      "Ġout": 424,
      "Ġev": 425,
      "ific": 426,
      "Ġhel": 427,
      "ĠE": 428,
      "Ġk": 429,
      "ep": 430,
      "rit": 431,
      "Ġlike": 432,
      "ary": 433,
      "Ġhelp": 434,
      "ari": 435,
      "ages": 436,
      "ents": 437,
      "?\",": 438,
      "\\\\": 439,
      "ge": 440,
      "Ġbet": 441,
      "Ġabout": 442,
      "ition": 443,
      "Ġta": 444,
      "ans": 445,
      "hat": 446,
      "Ġsc": 447,
      "ative": 448,
      "vel": 449,
      "Ġmy": 450,
      "ire": 451,
      "Ġrel": 452,
      "Ġem": 453,
      "Ġsuch": 454,
      "Ġper": 455,
      "Ġthey": 456,
      "Ġret": 457,
      "ĠR": 458,
      "Ġqu": 459,
      "we": 460,
      "Ġother": 461,
      "ks": 462,
      "ice": 463,
      "ual": 464,
      "Ġind": 465,
      "```": 466,
      "ating": 467,
      "ated": 468,
      "fere": 469,
      "Ġpo": 470,
      "av": 471,
      "ider": 472,
      "ous": 473,
      "Ġhas": 474,
      "Ġpre": 475,
      "Ġspe": 476,
      "Ġdis": 477,
      "ame": 478,
      "ound": 479,
      "oo": 480,
      "one": 481,
      "ors": 482,
      "ĠD": 483,
      "Ġgo": 484,
      "yth": 485,
      "Ġcould": 486,
      "Ġman": 487,
      "Ġwould": 488,
      "Ġprov": 489,
      "Ġwas": 490,
      "Ġsome": 491,
      "essages": 492,
      "ential": 493,
      "Ġ$": 494,
      "Ġ]": 495,
      "Ġneed": 496,
      "Ġfo": 497,
      "nder": 498,
      "ong": 499,
      "20": 500,
      "ise": 501,
      "Ġreturn": 502,
      "Ġmake": 503,
      "messages": 504,
      "\":[": 505,
      "Ġover": 506,
      "nA": 507,
      "nThe": 508,
      "ory": 509,
      "Ġsp": 510,
      "ility": 511,
      "Ġdif": 512,
      "Ġup": 513,
      "ject": 514,
      "Ġtime": 515,
      "ear": 516,
      "Ġthem": 517,
      "ace": 518,
      "Ġ0": 519,
      "ween": 520,
      "Ġvari": 521,
      "Ġbetween": 522,
      "Ġnew": 523,
      "Ġone": 524,
      "Ġuse": 525,
      "Ġcomm": 526,
      "ues": 527,
      "Ġinto": 528,
      "ail": 529,
      "ph": 530,
      "Ġmo": 531,
      "Ġunder": 532,
      "now": 533,
      "Ġour": 534,
      "Ġadd": 535,
      "Ġeff": 536,
      "Ġnumber": 537,
      "You": 538,
      "put": 539,
      "ities": 540,
      "ount": 541,
      "ates": 542,
      "lud": 543,
      "Ġtw": 544,
      "ict": 545,
      "ĠL": 546,
      "ys": 547,
      "Ġpr": 548,
      "Ġke": 549,
      "'re": 550,
      "Ġits": 551,
      "rib": 552,
      "Ġtra": 553,
      "ays": 554,
      "ĠO": 555,
      "Ġpos": 556,
      "Ġconc": 557,
      "lf": 558,
      "Ġthese": 559,
      "Ġspec": 560,
      "Ġeach": 561,
      "Ġexp": 562,
      "Ġ5": 563,
      "ython": 564,
      "ally": 565,
      "ample": 566,
      "ments": 567,
      "cess": 568,
      "Ġ**": 569,
      "ize": 570,
      "ef": 571,
      "les": 572,
      "Ġso": 573,
      "ens": 574,
      "Ġexper": 575,
      "ĠN": 576,
      "Ġdiffere": 577,
      "Ġwhere": 578,
      "Ġlist": 579,
      "Ġinter": 580,
      "Ġchar": 581,
      "Ġmay": 582,
      "Ġany": 583,
      "Ġ'": 584,
      "Ġpart": 585,
      "ond": 586,
      "Ġro": 587,
      "Ġdes": 588,
      "Ġass": 589,
      "hip": 590,
      ";\\": 591,
      "erm": 592,
      "Ġhow": 593,
      "Ġfind": 594,
      "Ġtwo": 595,
      "Ġx": 596,
      "Ġconsider": 597,
      "Ġ4": 598,
      "ful": 599,
      "Ġset": 600,
      "ings": 601,
      "ange": 602,
      "Ġacc": 603,
      "Ġthere": 604,
      "yst": 605,
      "Ġusing": 606,
      "Ġwork": 607,
      "get": 608,
      "ĠIt": 609,
      "irst": 610,
      "vers": 611,
      "ns": 612,
      "ap": 613,
      "Ġwho": 614,
      "eg": 615,
      "ons": 616,
      "Ġshould": 617,
      "Ġwhat": 618,
      "Ġform": 619,
      "Ġwhen": 620,
      "ram": 621,
      "Ġsent": 622,
      "Ġpers": 623,
      "Ġmod": 624,
      "Ġdec": 625,
      "Ġinclud": 626,
      "ĠG": 627,
      "str": 628,
      "201": 629,
      "Ġthan": 630,
      "Ġknow": 631,
      "eth": 632,
      "ient": 633,
      "Ġget": 634,
      "Ġinv": 635,
      "Ġresp": 636,
      "Ġmat": 637,
      "Ġ[": 638,
      "ify": 639,
      "Ġob": 640,
      "Ġprob": 641,
      "ĠIn": 642,
      "Ġrec": 643,
      "ystem": 644,
      "Ġappro": 645,
      "ience": 646,
      "Ġfl": 647,
      "'t": 648,
      "Ġpoint": 649,
      "Ġdist": 650,
      "ark": 651,
      "ck": 652,
      "ord": 653,
      "ne": 654,
      "Ġwell": 655,
      "Ġph": 656,
      "ry": 657,
      "led": 658,
      "Ġdet": 659,
      "Ġexpl": 660,
      "pport": 661,
      "llow": 662,
      "Ġsign": 663,
      "aus": 664,
      "Ġcharact": 665,
      "erv": 666,
      "stand": 667,
      "row": 668,
      "Ġher": 669,
      "ose": 670,
      "Ġstud": 671,
      "ics": 672,
      "ite": 673,
      "oy": 674,
      "Ġcreate": 675,
      "its": 676,
      "),": 677,
      "Ġvalue": 678,
      "ree": 679,
      "ĠU": 680,
      "'ve": 681,
      "**:": 682,
      "Ġoff": 683,
      "ob": 684,
      "ible": 685,
      "Ġanal": 686,
      "ak": 687,
      "Ġcor": 688,
      "gg": 689,
      "rough": 690,
      "Ġequ": 691,
      "ular": 692,
      "reat": 693,
      "Ġam": 694,
      "Ġinform": 695,
      "Ġra": 696,
      "Ġcal": 697,
      "ert": 698,
      "Ġrem": 699,
      "Ġprodu": 700,
      "ĠJ": 701,
      "oth": 702,
      "ribut": 703,
      "Ġresult": 704,
      "Ġcomple": 705,
      "Ġmight": 706,
      "ten": 707,
      "ever": 708,
      "Ġpe": 709,
      "ub": 710,
      "Ġsim": 711,
      "ĠIf": 712,
      "Ġgen": 713,
      "ability": 714,
      "Ġreg": 715,
      "Ġeffect": 716,
      "Ġfollow": 717,
      "ild": 718,
      "ting": 719,
      "als": 720,
      "Ġele": 721,
      ".\\\"": 722,
      "Ġunderstand": 723,
      "ning": 724,
      "The": 725,
      "ident": 726,
      "Ġused": 727,
      "Ġbeen": 728,
      "Ġrep": 729,
      "Ġfirst": 730,
      "Ġmean": 731,
      "nIn": 732,
      "Ġrelations": 733,
      "Ġsub": 734,
      "Ġsm": 735,
      "What": 736,
      "enc": 737,
      "Ġpat": 738,
      "Ġstart": 739,
      "very": 740,
      "Ġrelationship": 741,
      "ased": 742,
      "Ġ*": 743,
      "cept": 744,
      "wn": 745,
      "ough": 746,
      "hes": 747,
      "Ġfact": 748,
      "Ġty": 749,
      "eng": 750,
      "Ġsol": 751,
      "--": 752,
      "Ġbec": 753,
      "ĠHow": 754,
      "velop": 755,
      "ode": 756,
      "How": 757,
      "..": 758,
      "Ġread": 759,
      "Ġkey": 760,
      "Ġthrough": 761,
      "ink": 762,
      "Ġwrit": 763,
      "ower": 764,
      "cul": 765,
      "te": 766,
      "Ġway": 767,
      "Ġprovide": 768,
      "ract": 769,
      "ures": 770,
      "Ġexample": 771,
      "Ġpot": 772,
      "Ġperson": 773,
      "uct": 774,
      "Ġatt": 775,
      "Ġcol": 776,
      "nS": 777,
      "ft": 778,
      "Ġwhile": 779,
      "Ġtrans": 780,
      "Ġact": 781,
      "):\\": 782,
      "resent": 783,
      "Ġ6": 784,
      "Ġday": 785,
      "iqu": 786,
      "Ġess": 787,
      "Ġfeel": 788,
      "ences": 789,
      "Ġdisc": 790,
      "Ġtake": 791,
      "Ġvalues": 792,
      "ĠWe": 793,
      "ving": 794,
      "Ġthen": 795,
      "iven": 796,
      "Ġpotential": 797,
      "Ġdifferent": 798,
      "ople": 799,
      "Ġwant": 800,
      "self": 801,
      "Ġins": 802,
      "Ġrev": 803,
      "'ll": 804,
      "nF": 805,
      "uc": 806,
      "Ġide": 807,
      "Ġspecific": 808,
      "ional": 809,
      "Ġmain": 810,
      "Ġdoes": 811,
      "nce": 812,
      "Ġincre": 813,
      "Ġjust": 814,
      "Ġhigh": 815,
      "own": 816,
      "Ġhis": 817,
      "lic": 818,
      "Ġtext": 819,
      "ense": 820,
      "ocus": 821,
      ",\\": 822,
      "Ġdevelop": 823,
      "Ġsentence": 824,
      "Ġprog": 825,
      "Ġback": 826,
      "val": 827,
      "Ġsec": 828,
      "Ġyear": 829,
      "Ġpar": 830,
      "ish": 831,
      "tern": 832,
      "Ġsignific": 833,
      "itive": 834,
      "anc": 835,
      "hen": 836,
      "Ġgener": 837,
      "Ġlead": 838,
      "any": 839,
      "ily": 840,
      "Ġcle": 841,
      "Ġprocess": 842,
      "ivid": 843,
      "Ġbu": 844,
      "dition": 845,
      "Ġmed": 846,
      "Ġdef": 847,
      "Ġpeople": 848,
      "inal": 849,
      "Ġ\\/": 850,
      "Ġsee": 851,
      "ases": 852,
      "Ġinteg": 853,
      "ethod": 854,
      "chn": 855,
      "Ġcur": 856,
      "'m": 857,
      "fore": 858,
      "pect": 859,
      "Ġloc": 860,
      "Ġmost": 861,
      "mat": 862,
      "Ġvis": 863,
      "Ġcharacter": 864,
      "Ġident": 865,
      "li": 866,
      "Ġeng": 867,
      "ook": 868,
      "Ġbl": 869,
      "Ġsum": 870,
      "Ġimpro": 871,
      "Ġgrou": 872,
      "Ġinput": 873,
      "Ġword": 874,
      "Ġfocus": 875,
      "ĠYou": 876,
      "Ġapproach": 877,
      "Ġinformation": 878,
      "Ġarg": 879,
      "Ġinf": 880,
      "uring": 881,
      "Ġboth": 882,
      "iew": 883,
      "Ġcalcul": 884,
      "ia": 885,
      "ality": 886,
      "other": 887,
      "Ġeven": 888,
      "```\\": 889,
      "ices": 890,
      "Ġlo": 891,
      "imate": 892,
      "Ġ20": 893,
      "Ġcommun": 894,
      "ically": 895,
      "ĠWhat": 896,
      "Ġsystem": 897,
      "Ġonly": 898,
      "()": 899,
      "ather": 900,
      "Ġ7": 901,
      "ife": 902,
      "Ġno": 903,
      "Ġmethod": 904,
      "olog": 905,
      "ness": 906,
      "pr": 907,
      "Ġtechn": 908,
      "ause": 909,
      "Ġproduct": 910,
      "Ġhand": 911,
      "22": 912,
      "Ġprovid": 913,
      "python": 914,
      "arch": 915,
      "raph": 916,
      "Ġconf": 917,
      "nB": 918,
      "ves": 919,
      "Ġplan": 920,
      "Ġposs": 921,
      "Ġrequ": 922,
      "Ġallow": 923,
      "ince": 924,
      "lem": 925,
      "Ġgu": 926,
      "Ġche": 927,
      "lect": 928,
      "Ġref": 929,
      "Ġmult": 930,
      "Ġmaking": 931,
      "Ġ8": 932,
      "ustom": 933,
      "Ġed": 934,
      "ives": 935,
      "nect": 936,
      "Ġsignificant": 937,
      "Ġimpact": 938,
      "Ġcorre": 939,
      "Ġquest": 940,
      "ateg": 941,
      "ater": 942,
      "ggest": 943,
      "Ġent": 944,
      "Ġdep": 945,
      "ric": 946,
      "Ġessential": 947,
      "Ġens": 948,
      "ument": 949,
      "ext": 950,
      "Ġcomplex": 951,
      "Ġchang": 952,
      "ward": 953,
      "ian": 954,
      "iness": 955,
      "Ġshe": 956,
      "ng": 957,
      "Ġag": 958,
      "ex": 959,
      "old": 960,
      "Ġsuggest": 961,
      "Ġoften": 962,
      "ps": 963,
      "Ġbeing": 964,
      "Ġnumbers": 965,
      "Ġsupport": 966,
      "ĠFor": 967,
      "Ġac": 968,
      "ts": 969,
      "ious": 970,
      "Ġ<": 971,
      "Ġterm": 972,
      "Ġtest": 973,
      "Ġsa": 974,
      "kes": 975,
      "Ġgrow": 976,
      "Ġfeet": 977,
      "ĠPython": 978,
      "Ġstring": 979,
      "Ġproblem": 980,
      "Ġlong": 981,
      "Ġtop": 982,
      "Ġinst": 983,
      "Ġlet": 984,
      "Ġsk": 985,
      "Ġcustom": 986,
      "nO": 987,
      "Ġcare": 988,
      "ade": 989,
      "ysis": 990,
      "Ġimport": 991,
      ").": 992,
      "erest": 993,
      "ights": 994,
      "ploy": 995,
      "Ġopt": 996,
      "Ġsal": 997,
      "nW": 998,
      "erg": 999,
      "Ġsense": 1000,
      "Here": 1001,
      "Ġmany": 1002,
      "Ġown": 1003,
      "Ġbus": 1004,
      "Ġsl": 1005,
      "Ġsur": 1006,
      "Ġ\\\\": 1007,
      "Ġclass": 1008,
      "Ġwere": 1009,
      "ved": 1010,
      "Ġstand": 1011,
      "ision": 1012,
      "Ġ10": 1013,
      "To": 1014,
      "Ġ#": 1015,
      "Ġcase": 1016,
      "Ġsn": 1017,
      "line": 1018,
      "Ġhad": 1019,
      "read": 1020,
      "alth": 1021,
      "Ġmin": 1022,
      "Ġstate": 1023,
      "Ġsmall": 1024,
      "ĠHowever": 1025,
      "Ġline": 1026,
      "Ġcost": 1027,
      "Ġmark": 1028,
      "Ġart": 1029,
      "Ġcompany": 1030,
      "emb": 1031,
      "ctions": 1032,
      "com": 1033,
      "err": 1034,
      "Ġlear": 1035,
      "ty": 1036,
      "Ġsame": 1037,
      "03": 1038,
      "Ġanalysis": 1039,
      "ĠBy": 1040,
      "iss": 1041,
      "Ġchall": 1042,
      "wor": 1043,
      "ied": 1044,
      "Ġ9": 1045,
      "Ġpartic": 1046,
      "Ġreal": 1047,
      "Ġexperience": 1048,
      "Ġproject": 1049,
      "Ġstat": 1050,
      "Ġconnect": 1051,
      "Ġgiven": 1052,
      "Ġgreat": 1053,
      "verage": 1054,
      "ining": 1055,
      "ables": 1056,
      "Ġext": 1057,
      "Ġinterest": 1058,
      "Ġeffective": 1059,
      "Ġimprove": 1060,
      "Ġcr": 1061,
      "Ġincluding": 1062,
      "Ġdire": 1063,
      "Ġpass": 1064,
      "ĠV": 1065,
      "Ġlar": 1066,
      "riend": 1067,
      "Ġsoc": 1068,
      "hed": 1069,
      "Ġworld": 1070,
      "ique": 1071,
      "rent": 1072,
      "ield": 1073,
      "ĠSt": 1074,
      "Ġfollowing": 1075,
      "nThis": 1076,
      "Ġclear": 1077,
      "Ġprof": 1078,
      "ression": 1079,
      "]\\": 1080,
      "Ġinvol": 1081,
      "ature": 1082,
      "angu": 1083,
      "port": 1084,
      "Ġshow": 1085,
      "Ġ|": 1086,
      "ized": 1087,
      "Ġperform": 1088,
      "fter": 1089,
      "Ġteam": 1090,
      "Ġav": 1091,
      "000": 1092,
      "ood": 1093,
      "ution": 1094,
      "ines": 1095,
      "Ġthink": 1096,
      "Ġadv": 1097,
      "ered": 1098,
      "10": 1099,
      "ss": 1100,
      "der": 1101,
      "Ġdistribut": 1102,
      "red": 1103,
      "Ġser": 1104,
      "iron": 1105,
      "Ġidentify": 1106,
      "ural": 1107,
      "Ġobject": 1108,
      "Ġ{\\": 1109,
      "nN": 1110,
      "ick": 1111,
      "Ġtot": 1112,
      "Ġpri": 1113,
      "Ġredu": 1114,
      "gan": 1115,
      "ner": 1116,
      "Ġdev": 1117,
      "Ġemploy": 1118,
      "Ġlife": 1119,
      "Ġbusiness": 1120,
      "Ġrese": 1121,
      "Ġlog": 1122,
      "Ġcode": 1123,
      "Ġop": 1124,
      "Ġlangu": 1125,
      "Ġtry": 1126,
      "ĠY": 1127,
      "Ġself": 1128,
      "Ġstep": 1129,
      "tain": 1130,
      "Ġpoints": 1131,
      "Ġunderstanding": 1132,
      "ency": 1133,
      "Ġtyp": 1134,
      "onse": 1135,
      "Ġenv": 1136,
      "Ġdown": 1137,
      "Ġjob": 1138,
      "ization": 1139,
      "Ġprogram": 1140,
      "(\\\"": 1141,
      "Ġstory": 1142,
      "bs": 1143,
      "Ġcontain": 1144,
      "Ġmodel": 1145,
      "Ġdesc": 1146,
      "Ġstruct": 1147,
      ",\\\"": 1148,
      "icient": 1149,
      "Ġtotal": 1150,
      "ray": 1151,
      "ndef": 1152,
      "ell": 1153,
      "oid": 1154,
      "ec": 1155,
      "Ġrange": 1156,
      "?\\": 1157,
      "Ġtri": 1158,
      "Ġmust": 1159,
      "ript": 1160,
      ");\\": 1161,
      "Ġel": 1162,
      "imes": 1163,
      "air": 1164,
      "Ġmulti": 1165,
      "ma": 1166,
      "Ġiss": 1167,
      "Ġwriting": 1168,
      "Ġest": 1169,
      "Ġsnail": 1170,
      "plement": 1171,
      "nC": 1172,
      "Ġwithout": 1173,
      "ational": 1174,
      "Ġconcise": 1175,
      "Ġorig": 1176,
      "Ġdeterm": 1177,
      "ĠK": 1178,
      "ividual": 1179,
      "nL": 1180,
      "ĠHere": 1181,
      "ead": 1182,
      "Ġcount": 1183,
      "ets": 1184,
      "Ġpop": 1185,
      "ix": 1186,
      "Ġbeh": 1187,
      "Ġenviron": 1188,
      "Ġthough": 1189,
      "Ġensure": 1190,
      "Ġhealth": 1191,
      "Ġfew": 1192,
      "aging": 1193,
      "Ġindividual": 1194,
      "Ġresponse": 1195,
      "Ġyears": 1196,
      "sc": 1197,
      "Ġlanguage": 1198,
      "\\\",": 1199,
      ".\\\"\\": 1200,
      "Ġstandard": 1201,
      "lus": 1202,
      "par": 1203,
      "Ġindic": 1204,
      "Ġben": 1205,
      "ared": 1206,
      "Ġbecause": 1207,
      "ator": 1208,
      "ost": 1209,
      "Ġargument": 1210,
      "Ġevery": 1211,
      "ee": 1212,
      "ours": 1213,
      "Ġfam": 1214,
      "Ġpur": 1215,
      "uss": 1216,
      "Ġserv": 1217,
      "Ġerr": 1218,
      "ars": 1219,
      "Ġchanges": 1220,
      "Ġpossible": 1221,
      "Ġstill": 1222,
      "Ġend": 1223,
      "Ġaverage": 1224,
      "ĠCh": 1225,
      "Ġfriend": 1226,
      "ined": 1227,
      "dict": 1228,
      "Ġmade": 1229,
      "urther": 1230,
      "oice": 1231,
      "ited": 1232,
      "Ġnon": 1233,
      "Ġwithin": 1234,
      "Ġcomb": 1235,
      "Ġaround": 1236,
      "Ġlevel": 1237,
      "Ġoffer": 1238,
      "Ġfin": 1239,
      "rite": 1240,
      "Ġbre": 1241,
      "plic": 1242,
      "Ġstre": 1243,
      "Ġemot": 1244,
      "ring": 1245,
      "Ġcontin": 1246,
      "Ġscore": 1247,
      "Ġchalleng": 1248,
      "Ġbuild": 1249,
      "Ġgood": 1250,
      "con": 1251,
      "Ġtre": 1252,
      "Ġaut": 1253,
      "ills": 1254,
      "Ġpower": 1255,
      "Ġremain": 1256,
      "nTo": 1257,
      "ove": 1258,
      "Ġz": 1259,
      "Ġinclude": 1260,
      "ertain": 1261,
      "Ġrepresent": 1262,
      "iation": 1263,
      "ling": 1264,
      "Ġcurrent": 1265,
      "Ġi": 1266,
      "ins": 1267,
      "Ġenvironment": 1268,
      "Ġtas": 1269,
      "Ġdays": 1270,
      "Ġchange": 1271,
      "ason": 1272,
      "ake": 1273,
      "Ġphr": 1274,
      "wer": 1275,
      "Ġdi": 1276,
      "Ġhum": 1277,
      "apt": 1278,
      "ieve": 1279,
      "Ġsocial": 1280,
      "Ġstudents": 1281,
      "Ġpositive": 1282,
      "ention": 1283,
      "Ġvariables": 1284,
      "2019": 1285,
      "',": 1286,
      "ath": 1287,
      "ym": 1288,
      "Ġrole": 1289,
      "Ġexam": 1290,
      "print": 1291,
      "Ġimplement": 1292,
      "ĠAs": 1293,
      "04": 1294,
      "eting": 1295,
      "In": 1296,
      "idence": 1297,
      "ples": 1298,
      "Ġdesign": 1299,
      "Ġopen": 1300,
      "Ġfactors": 1301,
      "Ġwords": 1302,
      "Ġsecond": 1303,
      "Ġbefore": 1304,
      "Ġsom": 1305,
      "Ġvers": 1306,
      "Ġbetter": 1307,
      "Ġsit": 1308,
      "Ġoriginal": 1309,
      "arr": 1310,
      "Ġfound": 1311,
      "Ġprint": 1312,
      "Ġnum": 1313,
      "Ġright": 1314,
      "2013": 1315,
      "Ġunique": 1316,
      "Ġfu": 1317,
      "Ġ18": 1318,
      "Ġbenef": 1319,
      "Ġdon": 1320,
      "Ġstatist": 1321,
      "Ġpol": 1322,
      "Ġafter": 1323,
      "ccess": 1324,
      "arm": 1325,
      "Ġcommon": 1326,
      "Ġbel": 1327,
      "Ġstrateg": 1328,
      "omm": 1329,
      "pportun": 1330,
      "Ġprobability": 1331,
      "\\\"\\": 1332,
      "Ġresearch": 1333,
      "Ġclim": 1334,
      "Ġgrowth": 1335,
      "Ġproper": 1336,
      "Ġhist": 1337,
      "Ġ==": 1338,
      "aw": 1339,
      "Ġans": 1340,
      "here": 1341,
      "Ġdem": 1342,
      "Ġexpect": 1343,
      "ems": 1344,
      "ised": 1345,
      "Ġoper": 1346,
      "ddition": 1347,
      "Ġdiscuss": 1348,
      "Ġdistribution": 1349,
      "Ġtype": 1350,
      "ength": 1351,
      "ven": 1352,
      "Ġmeas": 1353,
      "Ġplay": 1354,
      "ier": 1355,
      "'d": 1356,
      "Ġopportun": 1357,
      "Ġdirect": 1358,
      "imately": 1359,
      "ergy": 1360,
      "Ġthose": 1361,
      "Ġrequire": 1362,
      "Ġorgan": 1363,
      "ology": 1364,
      "ulation": 1365,
      "ock": 1366,
      "Ġ19": 1367,
      "ĠThey": 1368,
      "gether": 1369,
      "Ġtogether": 1370,
      "Ġlim": 1371,
      "Ġless": 1372,
      "Ġpersonal": 1373,
      "io": 1374,
      "Ġelements": 1375,
      "dditionally": 1376,
      "Ġbest": 1377,
      "lying": 1378,
      "Ġcent": 1379,
      "onsider": 1380,
      "Ġideas": 1381,
      "ination": 1382,
      "Ġlocal": 1383,
      "ilities": 1384,
      "Ġpresent": 1385,
      "Ġarea": 1386,
      "----": 1387,
      "lling": 1388,
      "iction": 1389,
      "Ġgra": 1390,
      "Ġareas": 1391,
      "Ġstructure": 1392,
      "Ġworking": 1393,
      "Ġsqu": 1394,
      "Ġgroup": 1395,
      "ooking": 1396,
      "ually": 1397,
      "Ġexperi": 1398,
      "ories": 1399,
      "Ġskills": 1400,
      "Ġkeep": 1401,
      "itions": 1402,
      "list": 1403,
      "ĠThese": 1404,
      "Ġreach": 1405,
      "lu": 1406,
      "Ġach": 1407,
      "Ġduring": 1408,
      "ox": 1409,
      "Ġspace": 1410,
      "ots": 1411,
      "Ġdra": 1412,
      "Ġcontent": 1413,
      "ivity": 1414,
      "Ġanaly": 1415,
      "Ġvariable": 1416,
      "Ġmaintain": 1417,
      "Ġear": 1418,
      "ember": 1419,
      "ross": 1420,
      "Ġexplore": 1421,
      "lation": 1422,
      "ources": 1423,
      "Ġprom": 1424,
      "arity": 1425,
      "Ġmeans": 1426,
      "day": 1427,
      "ism": 1428,
      "Ġterms": 1429,
      "Ġdiv": 1430,
      "izing": 1431,
      "arget": 1432,
      "nIt": 1433,
      "Ġsuccess": 1434,
      "ants": 1435,
      "ways": 1436,
      "ety": 1437,
      "Ġprior": 1438,
      "back": 1439,
      "Ġfield": 1440,
      "Ġgl": 1441,
      "iting": 1442,
      "Ġnecess": 1443,
      "rodu": 1444,
      "Ġidea": 1445,
      "pre": 1446,
      "ced": 1447,
      "Ġparticular": 1448,
      "Ġmanage": 1449,
      "))": 1450,
      "Ġconcept": 1451,
      "Ġaw": 1452,
      "ru": 1453,
      "ffect": 1454,
      "Ġcontext": 1455,
      "Ġmind": 1456,
      "Ġenergy": 1457,
      "Ġsay": 1458,
      "Ġwater": 1459,
      "Ġsever": 1460,
      "Ġbased": 1461,
      "ote": 1462,
      "ior": 1463,
      "ata": 1464,
      "ope": 1465,
      "verse": 1466,
      "Ġprev": 1467,
      "Ġmet": 1468,
      "Ġinvest": 1469,
      "Ġocc": 1470,
      "Ġthree": 1471,
      "Ġpres": 1472,
      "Ġoverall": 1473,
      "Ġinit": 1474,
      "Ġaddition": 1475,
      "Ġreturns": 1476,
      "Ġris": 1477,
      "ublic": 1478,
      "Ġtakes": 1479,
      "Ġassum": 1480,
      "vert": 1481,
      "ax": 1482,
      "Ġleast": 1483,
      "app": 1484,
      "Ġneeds": 1485,
      "Ġenc": 1486,
      "Ġball": 1487,
      "lish": 1488,
      "Ġeas": 1489,
      "Ġrelationships": 1490,
      "ental": 1491,
      "ci": 1492,
      "Ġcar": 1493,
      "Ġpract": 1494,
      "Ġaddress": 1495,
      "Ġequation": 1496,
      "ists": 1497,
      "nces": 1498,
      "up": 1499,
      "Ġshare": 1500,
      "to": 1501,
      "Ġanswer": 1502,
      "ute": 1503,
      "...": 1504,
      "Ġimportant": 1505,
      "Ġhours": 1506,
      "vey": 1507,
      "Ġresults": 1508,
      "ternative": 1509,
      "Ġbra": 1510,
      "_{": 1511,
      "oring": 1512,
      "Ġdatas": 1513,
      "Ġdifference": 1514,
      "Ġbal": 1515,
      "Ġsometh": 1516,
      "Ġaccess": 1517,
      "Ġtoo": 1518,
      "por": 1519,
      "Ġsentences": 1520,
      "Ġrather": 1521,
      "Ġname": 1522,
      "tle": 1523,
      "Ġstrong": 1524,
      "Ġcult": 1525,
      "Ġprofess": 1526,
      "ĠTo": 1527,
      "ending": 1528,
      "Ġlook": 1529,
      "word": 1530,
      "Ġstudy": 1531,
      "Ġlast": 1532,
      "Ġcharacters": 1533,
      "Ġplace": 1534,
      "Ġobs": 1535,
      "Ġcalculate": 1536,
      "Ġseveral": 1537,
      "Ġsales": 1538,
      "ave": 1539,
      "uation": 1540,
      "ibility": 1541,
      "Ġmeaning": 1542,
      "Ġnow": 1543,
      "Ġtrue": 1544,
      "ucial": 1545,
      "the": 1546,
      "nHow": 1547,
      "abor": 1548,
      "Ġmultiple": 1549,
      "Ġquestions": 1550,
      "ern": 1551,
      "Ġorder": 1552,
      "Ġgoals": 1553,
      "Ġcrucial": 1554,
      "Ġsomething": 1555,
      "rol": 1556,
      "Ġconvers": 1557,
      "irc": 1558,
      "work": 1559,
      "Ġexc": 1560,
      "Ġnext": 1561,
      "ral": 1562,
      "ew": 1563,
      "ov": 1564,
      "ĠAI": 1565,
      "Ġvarious": 1566,
      "Ġseries": 1567,
      "anced": 1568,
      "alse": 1569,
      "Ġve": 1570,
      "Ġwhether": 1571,
      "onth": 1572,
      "Ġhim": 1573,
      "}\\": 1574,
      "cing": 1575,
      "uch": 1576,
      "Ġhig": 1577,
      "ool": 1578,
      "hemat": 1579,
      "agraph": 1580,
      "Ġconst": 1581,
      "Ġcommunity": 1582,
      "Ġlarge": 1583,
      "ances": 1584,
      "nAn": 1585,
      "asing": 1586,
      "Ġversion": 1587,
      "Ġcrit": 1588,
      "Ġfurther": 1589,
      "lex": 1590,
      "Ġuser": 1591,
      "Ġaud": 1592,
      "ithm": 1593,
      "ified": 1594,
      "__": 1595,
      "ital": 1596,
      "Ġtem": 1597,
      "Ġdecision": 1598,
      "Ġquestion": 1599,
      "Ġtarget": 1600,
      "ĠĠĠĠĠĠĠĠĠĠĠĠĠĠĠĠ": 1601,
      "nE": 1602,
      ">\\": 1603,
      "Ġrest": 1604,
      "over": 1605,
      "omet": 1606,
      "Ġalways": 1607,
      "Ġ}\\": 1608,
      "name": 1609,
      "nprint": 1610,
      ").\\": 1611,
      "Ġevent": 1612,
      "for": 1613,
      "Ġvisual": 1614,
      "terns": 1615,
      "nR": 1616,
      "Ġinflu": 1617,
      "ek": 1618,
      "Ġhere": 1619,
      "Ġmax": 1620,
      "ren": 1621,
      "pec": 1622,
      "Ġcommunic": 1623,
      "Ġask": 1624,
      "Ġhapp": 1625,
      "urs": 1626,
      "Ġparagraph": 1627,
      "be": 1628,
      "Ġlight": 1629,
      "Ġinsights": 1630,
      "pos": 1631,
      "round": 1632,
      "Ġgeneral": 1633,
      "Ġflow": 1634,
      "Ġpatterns": 1635,
      "Ġdevelopment": 1636,
      "Ġfil": 1637,
      "nP": 1638,
      "ides": 1639,
      "Ġdetermine": 1640,
      "atural": 1641,
      "mer": 1642,
      "less": 1643,
      "lease": 1644,
      "Ġcreating": 1645,
      "Ġsing": 1646,
      "Ġstatement": 1647,
      "ially": 1648,
      "Ġcall": 1649,
      "Ġneg": 1650,
      "ĠThere": 1651,
      "oun": 1652,
      "ery": 1653,
      "Ġ12": 1654,
      "ted": 1655,
      "Ġsize": 1656,
      "Ġcity": 1657,
      "Ġanalyz": 1658,
      "Ġbehav": 1659,
      "gin": 1660,
      "atures": 1661,
      "Ġmathemat": 1662,
      "yn": 1663,
      "Ġsure": 1664,
      "atch": 1665,
      "Ġhuman": 1666,
      "Ġfall": 1667,
      "Ġprot": 1668,
      "Ġengaging": 1669,
      "Ġincrease": 1670,
      "Ġtimes": 1671,
      "Ġcorrect": 1672,
      "dd": 1673,
      "light": 1674,
      "Ġsample": 1675,
      "Ġcoll": 1676,
      "ients": 1677,
      "Ġphys": 1678,
      "Ġes": 1679,
      "Ġnet": 1680,
      "ale": 1681,
      "Ġperformance": 1682,
      "hile": 1683,
      "nFor": 1684,
      "Ġbi": 1685,
      "Ġcheck": 1686,
      "ĠHe": 1687,
      "eff": 1688,
      "nU": 1689,
      "Ġgive": 1690,
      "Ġlearning": 1691,
      "Ġmus": 1692,
      "Ġchallenges": 1693,
      "Ġhy": 1694,
      "Ġbreak": 1695,
      "ape": 1696,
      "Ġways": 1697,
      "Ġclarity": 1698,
      "Ġsw": 1699,
      "nBy": 1700,
      "Ġavoid": 1701,
      "Ġtone": 1702,
      "Ġtool": 1703,
      "ees": 1704,
      "essage": 1705,
      "Ġexpress": 1706,
      "Ġdiction": 1707,
      "Ġtaking": 1708,
      "oss": 1709,
      "num": 1710,
      "Ġmot": 1711,
      "Ġevents": 1712,
      "nAnother": 1713,
      "Ġsince": 1714,
      "Ġlength": 1715,
      "set": 1716,
      "Ġlooking": 1717,
      ".,": 1718,
      "Ġfamily": 1719,
      "aries": 1720,
      "Ġdetail": 1721,
      "Ġgot": 1722,
      "Ġconclus": 1723,
      "Ġeval": 1724,
      "idd": 1725,
      "Ġmuch": 1726,
      "Ġnu": 1727,
      "Ġvery": 1728,
      "value": 1729,
      "Ġelement": 1730,
      "acy": 1731,
      "ger": 1732,
      "nM": 1733,
      "Ġmem": 1734,
      "Ġmonth": 1735,
      "Ġothers": 1736,
      "Ġeffectively": 1737,
      "Ġagain": 1738,
      "Ġscen": 1739,
      "Ġsimple": 1740,
      "Ġrun": 1741,
      "istic": 1742,
      "Ġelse": 1743,
      "Ġcolle": 1744,
      "Ġanother": 1745,
      "ogn": 1746,
      "endent": 1747,
      "Ġlearn": 1748,
      "ouse": 1749,
      "Ġcontribut": 1750,
      "50": 1751,
      "Ġcorrelation": 1752,
      "ledge": 1753,
      "Ġcareer": 1754,
      "Ġlikely": 1755,
      "yle": 1756,
      "ule": 1757,
      "Ġrevised": 1758,
      "Ġnorm": 1759,
      "Ġdataset": 1760,
      "Ġfac": 1761,
      "Ġimm": 1762,
      "Ġrespons": 1763,
      "aut": 1764,
      "Ġge": 1765,
      "Ġmag": 1766,
      "Ġprovides": 1767,
      "12": 1768,
      "Ġarray": 1769,
      "iving": 1770,
      "Ġnatural": 1771,
      "Ġhome": 1772,
      "me": 1773,
      "Ġdescrib": 1774,
      "Ġworks": 1775,
      "aring": 1776,
      "Ġpopulation": 1777,
      "Ġfre": 1778,
      "Ġ100": 1779,
      "erial": 1780,
      "Ġfeed": 1781,
      "Ġcaus": 1782,
      "Ġcirc": 1783,
      "Ġissues": 1784,
      "ĠTh": 1785,
      "Ġindust": 1786,
      "Ġ.": 1787,
      "Ġmethods": 1788,
      "St": 1789,
      "nHere": 1790,
      "Ġfood": 1791,
      "Ġdig": 1792,
      "just": 1793,
      "Ġbenefits": 1794,
      "inking": 1795,
      "pro": 1796,
      "Ġstay": 1797,
      "Ġformul": 1798,
      "ips": 1799,
      "nD": 1800,
      "string": 1801,
      "Ġside": 1802,
      "Ġpast": 1803,
      "cent": 1804,
      "Ġnight": 1805,
      "Ġknown": 1806,
      "of": 1807,
      "Ġaffect": 1808,
      "Ġerror": 1809,
      "Ġcustomers": 1810,
      "let": 1811,
      "Ġdue": 1812,
      "`,": 1813,
      "ash": 1814,
      "action": 1815,
      "Ġaccur": 1816,
      "Ġestab": 1817,
      "ĠEx": 1818,
      "lev": 1819,
      "Ġdeep": 1820,
      "aps": 1821,
      "Ġstore": 1822,
      "ises": 1823,
      "Ġold": 1824,
      "isf": 1825,
      "Ġdr": 1826,
      "Ġpublic": 1827,
      "11": 1828,
      "els": 1829,
      "Ġcustomer": 1830,
      "ilar": 1831,
      "ames": 1832,
      "quence": 1833,
      "Ġmove": 1834,
      "Ġsound": 1835,
      "Ġreason": 1836,
      "oh": 1837,
      "Ġfile": 1838,
      "Ġeduc": 1839,
      "Ġobserv": 1840,
      "Ġamount": 1841,
      "Ġaspect": 1842,
      "aking": 1843,
      "Ġhead": 1844,
      "Ġvalid": 1845,
      "ird": 1846,
      "Ġfund": 1847,
      "Ġleft": 1848,
      "Ġmiss": 1849,
      "atisf": 1850,
      "Ġsolution": 1851,
      "Ġconvey": 1852,
      "ror": 1853,
      "Ġincor": 1854,
      "Ġcertain": 1855,
      "Ġsteps": 1856,
      "Ġexperiences": 1857,
      "ering": 1858,
      "=\\\"": 1859,
      "Ġtravel": 1860,
      "ĠYour": 1861,
      "come": 1862,
      "de": 1863,
      "Ġtrend": 1864,
      "ired": 1865,
      "Ġturn": 1866,
      "Ġdri": 1867,
      "system": 1868,
      "Ġreview": 1869,
      "amp": 1870,
      "Ġprogress": 1871,
      "Ġspecial": 1872,
      "Ġcour": 1873,
      "astly": 1874,
      "ires": 1875,
      "Ġinteger": 1876,
      "Ġnecessary": 1877,
      "Ġbit": 1878,
      "Ġsym": 1879,
      "numb": 1880,
      "Ġopportunities": 1881,
      "ugg": 1882,
      "Ġphrase": 1883,
      "Ġacross": 1884,
      "Ġaccount": 1885,
      "Ġyourself": 1886,
      "Write": 1887,
      "Ġnarr": 1888,
      "Ġexist": 1889,
      "Ġland": 1890,
      "Ġmessage": 1891,
      "Ġcontrol": 1892,
      "Ġsystems": 1893,
      "Ġapplic": 1894,
      "Ġey": 1895,
      "Ġsaid": 1896,
      "oint": 1897,
      "Ġequal": 1898,
      "isions": 1899,
      "Ġlove": 1900,
      "Ġaudience": 1901,
      "Ġactiv": 1902,
      "nHowever": 1903,
      "Ġdid": 1904,
      "```\",": 1905,
      "Ġmedia": 1906,
      "Ġenh": 1907,
      "Ġappear": 1908,
      "cise": 1909,
      "Ġbalance": 1910,
      "Ġsingle": 1911,
      "Ġhelps": 1912,
      "Ġachieve": 1913,
      "inary": 1914,
      "Ġdiff": 1915,
      "ĠAl": 1916,
      "cl": 1917,
      "Ġage": 1918,
      "Ġdictionary": 1919,
      "inally": 1920,
      "Ġdeviation": 1921,
      "imum": 1922,
      "Ġgain": 1923,
      "Ġprofessional": 1924,
      "ndom": 1925,
      "uments": 1926,
      "aches": 1927,
      "Ġhigher": 1928,
      "ody": 1929,
      "Ġchild": 1930,
      "nAs": 1931,
      "Ġrate": 1932,
      "ĠEm": 1933,
      "Ġbehavior": 1934,
      "atic": 1935,
      "Ġevalu": 1936,
      "Ġable": 1937,
      "amet": 1938,
      "\\\":": 1939,
      "Ġcosts": 1940,
      "resp": 1941,
      "nLastly": 1942,
      "oura": 1943,
      "Ġfeedback": 1944,
      "Ġsquare": 1945,
      "ble": 1946,
      "Ġonline": 1947,
      "Ġreader": 1948,
      "Ġlower": 1949,
      "Ġmeasure": 1950,
      "Ġcond": 1951,
      "Ġoptions": 1952,
      "Ġmom": 1953,
      "Ġgroups": 1954,
      "Ġscores": 1955,
      "Ġmaterial": 1956,
      "ection": 1957,
      "Ġiter": 1958,
      "Ġlow": 1959,
      "ards": 1960,
      "Ġarr": 1961,
      "Ġconsist": 1962,
      "Ġcoeff": 1963,
      "Ġclimb": 1964,
      "ĠBut": 1965,
      "Ġevidence": 1966,
      "Ġbul": 1967,
      "ately": 1968,
      "Ġbecome": 1969,
      "Ġadjust": 1970,
      "Ġuses": 1971,
      "Ġvoice": 1972,
      "by": 1973,
      "Ġallows": 1974,
      "Ġformula": 1975,
      "iques": 1976,
      "ming": 1977,
      "Ġcome": 1978,
      "Ġsaf": 1979,
      "Ġcollabor": 1980,
      "ank": 1981,
      "Ġmedian": 1982,
      "Ġemotional": 1983,
      "au": 1984,
      "not": 1985,
      "Ġbat": 1986,
      "ĠĠĠĠĠ": 1987,
      "Ġfut": 1988,
      "angle": 1989,
      "ything": 1990,
      "Ġbr": 1991,
      "Ġperspect": 1992,
      "nov": 1993,
      ")^": 1994,
      "30": 1995,
      "Ġclose": 1996,
      "Ġinvolves": 1997,
      "Ġresources": 1998,
      "Ġshort": 1999,
      "pping": 2000,
      "time": 2001,
      "Ġindividuals": 2002,
      "ready": 2003,
      "ustain": 2004,
      "Ġ30": 2005,
      "oose": 2006,
      "Ġfactor": 2007,
      "Ġlit": 2008,
      "Ġfore": 2009,
      "chool": 2010,
      "ption": 2011,
      "ĠAnd": 2012,
      "iod": 2013,
      "Ġweek": 2014,
      "ĠUse": 2015,
      "ently": 2016,
      "Ġfoot": 2017,
      "Ġsatisf": 2018,
      "Ġunc": 2019,
      "Ġview": 2020,
      "Ġemployees": 2021,
      "pty": 2022,
      "rror": 2023,
      "Ġtypes": 2024,
      "Ġnegative": 2025,
      "Ġrespect": 2026,
      "alk": 2027,
      "ĠWhen": 2028,
      "Ġver": 2029,
      "Ġavail": 2030,
      "Ġalready": 2031,
      "ties": 2032,
      "ource": 2033,
      "Ġallowing": 2034,
      "imal": 2035,
      "Ġmar": 2036,
      "Ġair": 2037,
      "Ġthinking": 2038,
      "Ġintrodu": 2039,
      "hens": 2040,
      "wards": 2041,
      "Ġquality": 2042,
      "utions": 2043,
      "Ġbegin": 2044,
      "ries": 2045,
      "osp": 2046,
      "ibr": 2047,
      "Ġtasks": 2048,
      "Ġtrying": 2049,
      "Ġpath": 2050,
      "Ġintegers": 2051,
      "aim": 2052,
      "aces": 2053,
      "Ġreduce": 2054,
      "ĠAn": 2055,
      "liers": 2056,
      "nNow": 2057,
      "Ġlinear": 2058,
      "Ġproviding": 2059,
      "Ġactivities": 2060,
      "Ġsens": 2061,
      "Ġsituation": 2062,
      "ference": 2063,
      "Ġstatistical": 2064,
      "::": 2065,
      "Ġ$\\\\": 2066,
      "Ġgr": 2067,
      "Ġthings": 2068,
      "Ġtechniques": 2069,
      "Ġfuture": 2070,
      "\\\")\\": 2071,
      "ava": 2072,
      "reen": 2073,
      "hold": 2074,
      "Ġefficient": 2075,
      "Ġtend": 2076,
      "Ġstreng": 2077,
      "igate": 2078,
      "Ġnarrative": 2079,
      "],": 2080,
      "Ġcateg": 2081,
      "Your": 2082,
      "Ġmeet": 2083,
      "Ġder": 2084,
      "fect": 2085,
      "mar": 2086,
      "Ġsort": 2087,
      "lo": 2088,
      "sing": 2089,
      "ĠAre": 2090,
      "respond": 2091,
      "Ġaction": 2092,
      "Ġfree": 2093,
      "Ġpredict": 2094,
      "Ġperiod": 2095,
      "Ġ15": 2096,
      "ished": 2097,
      "Ġadditional": 2098,
      "Ġmarket": 2099,
      "Ġsimpl": 2100,
      "ah": 2101,
      "Ġroom": 2102,
      "Ġseem": 2103,
      "Ġfinanc": 2104,
      "Ġinitial": 2105,
      "Ġcorrespond": 2106,
      "Ġcourse": 2107,
      "Ġbound": 2108,
      "fully": 2109,
      "Ġmakes": 2110,
      "nAdditionally": 2111,
      "Ġcontinu": 2112,
      "Ġissue": 2113,
      "Ġknowledge": 2114,
      "Ġbro": 2115,
      "()`": 2116,
      "Ġcap": 2117,
      "Ġcompre": 2118,
      "Ġtask": 2119,
      "ĠRe": 2120,
      "rame": 2121,
      "Ġregular": 2122,
      "Ġengage": 2123,
      "sel": 2124,
      "Ġpie": 2125,
      "Ġdraw": 2126,
      "ush": 2127,
      "()\\": 2128,
      "Ġconnection": 2129,
      "Ġtell": 2130,
      "nWe": 2131,
      "{\\\\": 2132,
      "pose": 2133,
      "inct": 2134,
      "Ġfinal": 2135,
      "Ġgoal": 2136,
      "ended": 2137,
      "ration": 2138,
      "Ġsomeone": 2139,
      "math": 2140,
      "Ġformal": 2141,
      "gor": 2142,
      "rue": 2143,
      "Ġworth": 2144,
      "Ġinstead": 2145,
      "Ġpriorit": 2146,
      "ĠPro": 2147,
      "Ġitself": 2148,
      "Ġhistory": 2149,
      "play": 2150,
      "Ġ&": 2151,
      "ager": 2152,
      "Ġtransform": 2153,
      "Ġstarting": 2154,
      "Ġdivid": 2155,
      "Ġexpression": 2156,
      "struct": 2157,
      "arent": 2158,
      "Ġdecisions": 2159,
      "Ġformat": 2160,
      "pot": 2161,
      "Ġdescript": 2162,
      "ĠUn": 2163,
      "Error": 2164,
      "Ġparticularly": 2165,
      "Ġoccur": 2166,
      "Ġalign": 2167,
      "atform": 2168,
      "Ġthought": 2169,
      "Ġcomprehens": 2170,
      "Ġindep": 2171,
      "Ġassistant": 2172,
      "Ġinterpre": 2173,
      "Ġhaving": 2174,
      "Ġseen": 2175,
      "Ġ25": 2176,
      "aling": 2177,
      "Ġsustain": 2178,
      "ĠQ": 2179,
      "Ġthoughts": 2180,
      "nIf": 2181,
      "sh": 2182,
      "gorithm": 2183,
      "Ġconsidering": 2184,
      "phas": 2185,
      "Ġcondition": 2186,
      "Ġbring": 2187,
      "Ġsequence": 2188,
      "ĠSince": 2189,
      ":**": 2190,
      "Ġrandom": 2191,
      "Ġproducts": 2192,
      "Ġcases": 2193,
      "Ġmotiv": 2194,
      "Ġconcer": 2195,
      "add": 2196,
      "ĠX": 2197,
      "Ġstyle": 2198,
      "Ġconclusion": 2199,
      "Ġtypically": 2200,
      "Ġconditions": 2201,
      "Ġsetting": 2202,
      "Ġfinancial": 2203,
      "Ġexplain": 2204,
      "Ġdetails": 2205,
      "Ġconversation": 2206,
      "Ġpay": 2207,
      "Ġexcept": 2208,
      "Ġ17": 2209,
      "Ġindustry": 2210,
      "Ġreally": 2211,
      "Ġconse": 2212,
      "Ġdoesn": 2213,
      "ken": 2214,
      "Ġgeomet": 2215,
      "Ġnature": 2216,
      "Ġgoing": 2217,
      "Ġcra": 2218,
      "Ġnav": 2219,
      "Ġsimilar": 2220,
      "Ġchec": 2221,
      "Ġmanagement": 2222,
      "pecially": 2223,
      "Ġrisk": 2224,
      "ann": 2225,
      "Ġmarketing": 2226,
      "ively": 2227,
      "))\\": 2228,
      "ither": 2229,
      "Ġclaim": 2230,
      "Ġ>": 2231,
      "Ġsuggests": 2232,
      "ynam": 2233,
      "hor": 2234,
      "Ġrelev": 2235,
      "Ġexpert": 2236,
      "view": 2237,
      "Ġprime": 2238,
      "Ġdoing": 2239,
      "oot": 2240,
      "ograph": 2241,
      "Ġsupp": 2242,
      "Ġestablish": 2243,
      "Ġlimit": 2244,
      "Ġjour": 2245,
      "Ġreaders": 2246,
      "Ġincorpor": 2247,
      "Ġespecially": 2248,
      "':": 2249,
      "Ġbas": 2250,
      "uable": 2251,
      "Ġsepar": 2252,
      "lt": 2253,
      "Ġplatform": 2254,
      "Ġrepl": 2255,
      "Ġposition": 2256,
      "19": 2257,
      "joy": 2258,
      "Ġstrugg": 2259,
      "Ġupd": 2260,
      "ero": 2261,
      "iled": 2262,
      "Ġcapt": 2263,
      "Ġfeatures": 2264,
      "Ġelect": 2265,
      "icult": 2266,
      "orts": 2267,
      "ooks": 2268,
      "Ġstrategies": 2269,
      "etic": 2270,
      "}$": 2271,
      "Ġphysical": 2272,
      "Ġsubject": 2273,
      "('": 2274,
      "15": 2275,
      "Ġcritical": 2276,
      "Ġalgorithm": 2277,
      "Ġconcerns": 2278,
      "Ġrecomm": 2279,
      "Ġinstance": 2280,
      "Ġpost": 2281,
      "Ġpolic": 2282,
      "Ġcomplete": 2283,
      "Ġinnov": 2284,
      "Ġfunctions": 2285,
      "Ġprep": 2286,
      "ĠShe": 2287,
      "ters": 2288,
      "Ġloop": 2289,
      "Ġsolve": 2290,
      "Ġtemper": 2291,
      "Ġalternative": 2292,
      "25": 2293,
      "Ġprevious": 2294,
      "Ġimportance": 2295,
      "Ġforward": 2296,
      "Ġentire": 2297,
      "nWhen": 2298,
      "Ġlogical": 2299,
      "Ġrece": 2300,
      "ĠIs": 2301,
      "conom": 2302,
      "Ġoutput": 2303,
      "writ": 2304,
      "land": 2305,
      "Ġplot": 2306,
      "yc": 2307,
      "Ġever": 2308,
      "Ġattention": 2309,
      "import": 2310,
      "Ġhold": 2311,
      "urity": 2312,
      "Ġkind": 2313,
      "Ġ\\/\\/": 2314,
      "ney": 2315,
      "Ġenhance": 2316,
      "Ġmemb": 2317,
      "Ġassoc": 2318,
      "Ġexact": 2319,
      "ptions": 2320,
      "Ġpair": 2321,
      "Ġrecogn": 2322,
      "nAl": 2323,
      "64": 2324,
      "omes": 2325,
      "pped": 2326,
      "Ġfrequ": 2327,
      "Ġencoura": 2328,
      "unch": 2329,
      "fra": 2330,
      "Ġschool": 2331,
      "onstr": 2332,
      "Ġdifficult": 2333,
      "Ġgram": 2334,
      "05": 2335,
      "Ġrad": 2336,
      "Ġfit": 2337,
      "ilt": 2338,
      "Ġreve": 2339,
      "Ġvol": 2340,
      "Ġfriends": 2341,
      "Ġpain": 2342,
      "face": 2343,
      "Ġrelative": 2344,
      "Ġcommunication": 2345,
      "Ġvisit": 2346,
      "Ġabs": 2347,
      "Ġproperties": 2348,
      "Ġcomput": 2349,
      "Ġderiv": 2350,
      "Ġchoice": 2351,
      "lude": 2352,
      "Ġsolutions": 2353,
      "nOne": 2354,
      "Ġpress": 2355,
      "fort": 2356,
      "Ġreflect": 2357,
      "ĠConsider": 2358,
      "Ġleading": 2359,
      "Ġoutliers": 2360,
      "rix": 2361,
      "az": 2362,
      "path": 2363,
      "ivers": 2364,
      "itch": 2365,
      "avor": 2366,
      "ply": 2367,
      "043": 2368,
      "Ġpoly": 2369,
      "Ġmon": 2370,
      "Ġemployee": 2371,
      "ĠCon": 2372,
      "ĠCan": 2373,
      "Ġstrength": 2374,
      "nSo": 2375,
      "Ġenjoy": 2376,
      "Ġcollect": 2377,
      "min": 2378,
      "Ġavailable": 2379,
      "Ġapprox": 2380,
      "numbers": 2381,
      "ĠSh": 2382,
      "Ġtechnology": 2383,
      "nYou": 2384,
      "Ġactions": 2385,
      "Ġdeg": 2386,
      "Ġbody": 2387,
      "ift": 2388,
      "Ġitems": 2389,
      "resents": 2390,
      "Ġprovided": 2391,
      "Ġtraining": 2392,
      "Ġ11": 2393,
      "Ġperfect": 2394,
      "eed": 2395,
      "Ġindependent": 2396,
      "bra": 2397,
      "key": 2398,
      "Ġhandle": 2399,
      "Ġroot": 2400,
      "ohn": 2401,
      "ges": 2402,
      "ron": 2403,
      "Ġextre": 2404,
      "ounter": 2405,
      "Ġda": 2406,
      "Ġregression": 2407,
      "ats": 2408,
      "aster": 2409,
      "Ġprim": 2410,
      "Ġservices": 2411,
      "Ġconstant": 2412,
      "Ġpercent": 2413,
      "asc": 2414,
      "gs": 2415,
      "Ġsearch": 2416,
      "Ġaway": 2417,
      "Ġdynam": 2418,
      "Ġprem": 2419,
      "Ġhope": 2420,
      "ĠOne": 2421,
      "nThere": 2422,
      "Ġrepresents": 2423,
      "Ġtrack": 2424,
      "Ġeconom": 2425,
      "orical": 2426,
      "Ġclos": 2427,
      "Ġinvolve": 2428,
      "Ġwrite": 2429,
      "Ġpa": 2430,
      "Ġmembers": 2431,
      "Ġusers": 2432,
      "fer": 2433,
      "Ġsuit": 2434,
      "ude": 2435,
      "right": 2436,
      "Ġnormal": 2437,
      "Ġbuilding": 2438,
      "imize": 2439,
      "ĠInst": 2440,
      "Ġinteract": 2441,
      "Ġerrors": 2442,
      "ging": 2443,
      "utes": 2444,
      "Ġgetting": 2445,
      "iety": 2446,
      "Ġanalyze": 2447,
      "nimport": 2448,
      "ĠOut": 2449,
      "arc": 2450,
      "ĠAdditionally": 2451,
      "ising": 2452,
      "Ġimplementation": 2453,
      "Ġsimply": 2454,
      "rast": 2455,
      "aving": 2456,
      "Ġdemonstr": 2457,
      "Ġdistinct": 2458,
      "Ġlevels": 2459,
      "Ġrelevant": 2460,
      "Ġhypot": 2461,
      "Ġsmo": 2462,
      "ane": 2463,
      "ators": 2464,
      "Ġyoung": 2465,
      "Ġsumm": 2466,
      "Ġadapt": 2467,
      "Ġang": 2468,
      "ĠAr": 2469,
      "rate": 2470,
      "Ġsets": 2471,
      "Ġguid": 2472,
      "Ġchoose": 2473,
      "ension": 2474,
      "221": 2475,
      "Ġla": 2476,
      "^(": 2477,
      "Ġguide": 2478,
      "Ġrelated": 2479,
      "Ġske": 2480,
      "Ġabove": 2481,
      "Ġsun": 2482,
      "Ġcomplexity": 2483,
      "Ġmusic": 2484,
      "ĠBe": 2485,
      "Ġ50": 2486,
      "omial": 2487,
      "iles": 2488,
      "Ġvaluable": 2489,
      "Ġneeded": 2490,
      "son": 2491,
      "ĠWhile": 2492,
      "ster": 2493,
      "Ġtrends": 2494,
      "Ġhard": 2495,
      "Ġemotions": 2496,
      "term": 2497,
      "side": 2498,
      "Ġparamet": 2499,
      "Ġgreater": 2500,
      "Ġdoc": 2501,
      "Ġnear": 2502,
      "Ġthird": 2503,
      "Ġheart": 2504,
      "Ġhouse": 2505,
      "ĠLet": 2506,
      "Ġcommit": 2507,
      "Ġempty": 2508,
      "Ġ16": 2509,
      "Ġwind": 2510,
      "Ġwhy": 2511,
      "izes": 2512,
      "Ġtools": 2513,
      "Ġill": 2514,
      "Ġarguments": 2515,
      "ĠDo": 2516,
      "Ġplanning": 2517,
      "comes": 2518,
      "Ġden": 2519,
      "ends": 2520,
      "Ġbeaut": 2521,
      "til": 2522,
      "Ġdistance": 2523,
      "quences": 2524,
      "hesis": 2525,
      "ume": 2526,
      "Ġcoefficient": 2527,
      "Ġbook": 2528,
      "Ġmaj": 2529,
      "ches": 2530,
      "Ġsides": 2531,
      "Ġstra": 2532,
      "case": 2533,
      "Ġbehind": 2534,
      "Ġsoft": 2535,
      "Ġextreme": 2536,
      "hel": 2537,
      "Ġstress": 2538,
      "Ġtreat": 2539,
      "ĠMy": 2540,
      "Ġexpected": 2541,
      "Ġemphas": 2542,
      "Ġbase": 2543,
      "Ġmoment": 2544,
      "Ġnumer": 2545,
      "edi": 2546,
      "Ġfar": 2547,
      "aced": 2548,
      "new": 2549,
      "Ex": 2550,
      "ele": 2551,
      "reate": 2552,
      "Ġmaterials": 2553,
      "Ġunderlying": 2554,
      "Ġaim": 2555,
      "Ġsignificantly": 2556,
      "Ġtheory": 2557,
      "Ġoutcomes": 2558,
      "ctor": 2559,
      "rop": 2560,
      "izations": 2561,
      "ailed": 2562,
      "Ġwebs": 2563,
      "Ġlarger": 2564,
      "Ġtrust": 2565,
      "Ġinfin": 2566,
      "Can": 2567,
      "<\\/": 2568,
      "Ġcompon": 2569,
      "Ġimplic": 2570,
      "Ġlay": 2571,
      "Ġmis": 2572,
      "Ġservice": 2573,
      "Ġagainst": 2574,
      "--------": 2575,
      "orem": 2576,
      "met": 2577,
      "Ġdifferences": 2578,
      "head": 2579,
      "Ġproblems": 2580,
      "Ġassoci": 2581,
      "Ġindicates": 2582,
      "ug": 2583,
      "Ġmor": 2584,
      "Ġbox": 2585,
      "ront": 2586,
      "Ġconsid": 2587,
      "ibilities": 2588,
      "ltimately": 2589,
      "aves": 2590,
      "Ġeither": 2591,
      "Ġflo": 2592,
      "nWhat": 2593,
      "Ġamong": 2594,
      "Ġrespond": 2595,
      "Ġweight": 2596,
      "inc": 2597,
      "Ġrequires": 2598,
      "pir": 2599,
      "ferences": 2600,
      "Ġselect": 2601,
      "ening": 2602,
      "Ġstrategy": 2603,
      "Ġtradition": 2604,
      "ification": 2605,
      "selves": 2606,
      "Ġauthor": 2607,
      "ership": 2608,
      "Ġpurpose": 2609,
      "Ġability": 2610,
      "ording": 2611,
      "ius": 2612,
      "Ġfundam": 2613,
      "atives": 2614,
      "Ġdirectly": 2615,
      "Ġparticip": 2616,
      "ĠZ": 2617,
      "Ġexploring": 2618,
      "tic": 2619,
      "irm": 2620,
      "nTh": 2621,
      "istics": 2622,
      "ici": 2623,
      "Ġcombination": 2624,
      "Ġassess": 2625,
      "tt": 2626,
      "Ġwilling": 2627,
      "Ġquick": 2628,
      "Ġdel": 2629,
      "ĠTherefore": 2630,
      "Ġcalled": 2631,
      "Ġface": 2632,
      "Ġfeeling": 2633,
      "16": 2634,
      "emember": 2635,
      "Ġlocation": 2636,
      "Ġsche": 2637,
      "Ġclimbs": 2638,
      "Ġbo": 2639,
      "Ġtransition": 2640,
      "Ġeducation": 2641,
      "99": 2642,
      "ival": 2643,
      "Ġculture": 2644,
      "enge": 2645,
      "uth": 2646,
      "iddle": 2647,
      "Ġpattern": 2648,
      "Ġwom": 2649,
      "Ġput": 2650,
      "Ġrecommend": 2651,
      "Ġinterested": 2652,
      "Ġtrip": 2653,
      "amb": 2654,
      "Ġprice": 2655,
      "Ġmeeting": 2656,
      "Ġraise": 2657,
      "data": 2658,
      "Ġbar": 2659,
      "ternatively": 2660,
      "nFinally": 2661,
      "co": 2662,
      "eper": 2663,
      "Ġ200": 2664,
      "arily": 2665,
      "Ġcause": 2666,
      "Ġinformed": 2667,
      "iment": 2668,
      "ware": 2669,
      "lines": 2670,
      "Ġprioritize": 2671,
      "Ġreli": 2672,
      "haps": 2673,
      "Ġdescribe": 2674,
      "ĠCom": 2675,
      "When": 2676,
      "my": 2677,
      "ON": 2678,
      "Ġgame": 2679,
      "Ġwide": 2680,
      "Ġalong": 2681,
      "Ġur": 2682,
      "Ġinterpret": 2683,
      "aur": 2684,
      "duct": 2685,
      "Ġreport": 2686,
      "uff": 2687,
      "aching": 2688,
      "enue": 2689,
      "Ġcreative": 2690,
      "Ġphrases": 2691,
      "actions": 2692,
      "phr": 2693,
      "Ġaspects": 2694,
      "ott": 2695,
      "ream": 2696,
      "Ġremo": 2697,
      "Ġindex": 2698,
      "sum": 2699,
      "Ġcompet": 2700,
      "Ġexer": 2701,
      "Ġcontinue": 2702,
      "Ġdepth": 2703,
      "Ġbelieve": 2704,
      "Ġlot": 2705,
      "agon": 2706,
      "Ġcho": 2707,
      "uly": 2708,
      "icle": 2709,
      "Ġcell": 2710,
      "Ġintern": 2711,
      "^{": 2712,
      "Ġstudent": 2713,
      "Ġtransport": 2714,
      "ests": 2715,
      "Ġfollows": 2716,
      "Ġminutes": 2717,
      "cal": 2718,
      "Ġmajor": 2719,
      "Ġfalse": 2720,
      "anged": 2721,
      "Ġeffects": 2722,
      "part": 2723,
      "Ġded": 2724,
      "inst": 2725,
      "Ġfocusing": 2726,
      "olution": 2727,
      "ĠEng": 2728,
      "ares": 2729,
      "enced": 2730,
      "Ġpresence": 2731,
      "ret": 2732,
      "ouble": 2733,
      "Ġconfidence": 2734,
      "Ġmental": 2735,
      "Ġrat": 2736,
      "Ġsummary": 2737,
      "Ġhighlight": 2738,
      "Ġpromot": 2739,
      "aste": 2740,
      "ifying": 2741,
      "Ġconsidered": 2742,
      "erate": 2743,
      "leep": 2744,
      "Ġsuper": 2745,
      "lict": 2746,
      "==": 2747,
      "Ġconvert": 2748,
      "nf": 2749,
      "13": 2750,
      "Ġeyes": 2751,
      "ĠSo": 2752,
      "Ġtable": 2753,
      "nBest": 2754,
      "Ġtown": 2755,
      "cient": 2756,
      "Ġfundamental": 2757,
      "Ġpack": 2758,
      "Ġfinding": 2759,
      "inter": 2760,
      "Ġexpertise": 2761,
      "nNext": 2762,
      "Ġfull": 2763,
      "Ġmach": 2764,
      "go": 2765,
      "Ġapproaches": 2766,
      "Ġenvironmental": 2767,
      "Ġengine": 2768,
      "Ġresulting": 2769,
      "Ġdetect": 2770,
      "mosp": 2771,
      "more": 2772,
      "vent": 2773,
      "Ġpurch": 2774,
      "Ġinfluence": 2775,
      "\\/\\/": 2776,
      "Ġdirection": 2777,
      "ĠOutput": 2778,
      "Ġdaily": 2779,
      "].": 2780,
      "Ġreasoning": 2781,
      "Ġmodels": 2782,
      "Ġfour": 2783,
      "}\\\\": 2784,
      "ids": 2785,
      "akes": 2786,
      "Ġheav": 2787,
      "Ġexplan": 2788,
      "Ġsmaller": 2789,
      "83": 2790,
      "count": 2791,
      "ones": 2792,
      "Ġdivis": 2793,
      "Ġchallenging": 2794,
      "Ġadded": 2795,
      "14": 2796,
      "Ġtail": 2797,
      "Ġcompan": 2798,
      "ological": 2799,
      "Ġstarted": 2800,
      "Ġmen": 2801,
      "Ġjourney": 2802,
      "Ġincreasing": 2803,
      "Ġsuggestions": 2804,
      "ĠDe": 2805,
      "Ġexamples": 2806,
      "Ġopportunity": 2807,
      "Ġatmosp": 2808,
      "words": 2809,
      "ury": 2810,
      "Ġful": 2811,
      "nFirst": 2812,
      "erve": 2813,
      "Ġquant": 2814,
      "Ġuntil": 2815,
      "being": 2816,
      "ĠOn": 2817,
      "Ġdone": 2818,
      "Ġrephr": 2819,
      "nUltimately": 2820,
      "Ġgenerate": 2821,
      "Ġrout": 2822,
      "alue": 2823,
      "Ġcolor": 2824,
      "vern": 2825,
      "input": 2826,
      "itude": 2827,
      "Ġdefin": 2828,
      "Ġprevent": 2829,
      "aris": 2830,
      "Ġmathematical": 2831,
      "Ġspread": 2832,
      "Ġchallenge": 2833,
      "Ġconver": 2834,
      "Ġgives": 2835,
      "Ġred": 2836,
      "Ġobjects": 2837,
      "ER": 2838,
      "ground": 2839,
      "equ": 2840,
      "Ġbig": 2841,
      "Ġmaximum": 2842,
      "Ġbud": 2843,
      "Ġdeeper": 2844,
      "ived": 2845,
      "Ġsecurity": 2846,
      "Ġinterests": 2847,
      "hers": 2848,
      "Ġscenari": 2849,
      "Ġadding": 2850,
      "Ġonce": 2851,
      "Ġrow": 2852,
      "Ġchildren": 2853,
      "Ġswitch": 2854,
      "ber": 2855,
      "Ġstates": 2856,
      "Ġconflict": 2857,
      "gest": 2858,
      "`.": 2859,
      "meric": 2860,
      "18": 2861,
      "Ġperspective": 2862,
      "Ġwarm": 2863,
      "Ġappre": 2864,
      "Ġindicate": 2865,
      "Ġdecre": 2866,
      "Pro": 2867,
      "pper": 2868,
      "stru": 2869,
      "Ġzero": 2870,
      "based": 2871,
      "ault": 2872,
      "Ġlaw": 2873,
      "Ġcomfort": 2874,
      "ium": 2875,
      "Ġgraph": 2876,
      "Ġpriv": 2877,
      "Ġpopular": 2878,
      "Ġuseful": 2879,
      "):": 2880,
      "Ġcontinuous": 2881,
      "rap": 2882,
      "wise": 2883,
      "Ġscience": 2884,
      "Ġscient": 2885,
      "Ġapproximately": 2886,
      "Ġtowards": 2887,
      "Ġcontains": 2888,
      "Ġactually": 2889,
      "Ġmonths": 2890,
      "Ġsalary": 2891,
      "und": 2892,
      "ored": 2893,
      "uck": 2894,
      "Ġincreased": 2895,
      "Ġtoday": 2896,
      "aged": 2897,
      "Ġimplications": 2898,
      "Ġdark": 2899,
      "Ġeasier": 2900,
      "Ġconcepts": 2901,
      "ype": 2902,
      "Ġfig": 2903,
      "Ġtraditional": 2904,
      "Ġenough": 2905,
      "Ġcannot": 2906,
      "Ġcoo": 2907,
      "ĠWith": 2908,
      "ey": 2909,
      "down": 2910,
      "Ġseason": 2911,
      "Ġresid": 2912,
      "Ġmaintaining": 2913,
      "ĠSome": 2914,
      "mod": 2915,
      "illed": 2916,
      "Ġrich": 2917,
      "Ġshape": 2918,
      "Ġearly": 2919,
      "Ġapplications": 2920,
      "Ġ%": 2921,
      "Ġproperty": 2922,
      "Ġwa": 2923,
      "Ġevaluate": 2924,
      "Ġhon": 2925,
      "Ġprojects": 2926,
      "Ġincludes": 2927,
      "Ġconsum": 2928,
      "osing": 2929,
      "itle": 2930,
      "Ġorganization": 2931,
      "Ġrule": 2932,
      "Ġrates": 2933,
      "ules": 2934,
      "Ġoption": 2935,
      "Ġphot": 2936,
      "bb": 2937,
      "!\\": 2938,
      "Ġgovern": 2939,
      "Ġexh": 2940,
      "mit": 2941,
      "Ġthemselves": 2942,
      "Ġmention": 2943,
      "cast": 2944,
      "Ġfeelings": 2945,
      "nomial": 2946,
      "Ġpiece": 2947,
      "Ġmatter": 2948,
      "Ġeasy": 2949,
      "Ġgard": 2950,
      "hood": 2951,
      "Ġwebsite": 2952,
      "Ġpowerful": 2953,
      "tr": 2954,
      "oms": 2955,
      "ĠNew": 2956,
      "resh": 2957,
      "point": 2958,
      "oph": 2959,
      "Ġaware": 2960,
      "ifically": 2961,
      "Ġnetwork": 2962,
      "Ġheight": 2963,
      "##": 2964,
      "Ġnever": 2965,
      "use": 2966,
      "Ġdeb": 2967,
      "lection": 2968,
      "Ġtruth": 2969,
      "nH": 2970,
      "Ġsurround": 2971,
      "ilit": 2972,
      "Ġachie": 2973,
      "Ġunits": 2974,
      "Ġport": 2975,
      "Ġmeasures": 2976,
      "esp": 2977,
      "Ġassociated": 2978,
      "Ġdest": 2979,
      "ĠThen": 2980,
      "Ġrequired": 2981,
      "Ġlen": 2982,
      "Ġindeed": 2983,
      "Ġbrand": 2984,
      "Ġimprovement": 2985,
      "ffee": 2986,
      "Ġpolynomial": 2987,
      "Ġseems": 2988,
      "Ġcolum": 2989,
      "40": 2990,
      "Ġderivative": 2991,
      "Ġtemperature": 2992,
      "Ġclimate": 2993,
      "oin": 2994,
      "Ġprecise": 2995,
      "Ġbecomes": 2996,
      "Ġloss": 2997,
      "Ġsources": 2998,
      "aff": 2999,
      "Ġrefine": 3000,
      "Ġlittle": 3001,
      "Ġstrings": 3002,
      "lier": 3003,
      "pers": 3004,
      "omin": 3005,
      "file": 3006,
      "Ġeveryone": 3007,
      "Ġassist": 3008,
      "ops": 3009,
      "Ġcorresponding": 3010,
      "ĠNone": 3011,
      "Ġthroughout": 3012,
      "Ġmathematics": 3013,
      "af": 3014,
      "ĠAlex": 3015,
      "Ġcamp": 3016,
      "Ġaccurate": 3017,
      "Ġratio": 3018,
      "60": 3019,
      "zz": 3020,
      "Ġbudget": 3021,
      "Ġbuilt": 3022,
      "ĠSc": 3023,
      "Ġexisting": 3024,
      "Ġcomes": 3025,
      "Ġflex": 3026,
      "Ġdisplay": 3027,
      "Ġexactly": 3028,
      "Ġreducing": 3029,
      "Ġgrammar": 3030,
      "Ġmatrix": 3031,
      "uations": 3032,
      "Ġconsequences": 3033,
      "Ġliving": 3034,
      ")(": 3035,
      "Ġschedu": 3036,
      "ĠAmeric": 3037,
      "Ġyet": 3038,
      "Ġgeometric": 3039,
      "Ġdemand": 3040,
      "Ġactive": 3041,
      "nSt": 3042,
      "Ġchance": 3043,
      "Ġconnections": 3044,
      "Ġrob": 3045,
      "Ġsurface": 3046,
      "year": 3047,
      "Ġcred": 3048,
      "nG": 3049,
      "orn": 3050,
      "Ġtim": 3051,
      "Ġmatch": 3052,
      "ĠEach": 3053,
      "irt": 3054,
      "plain": 3055,
      "iet": 3056,
      "oney": 3057,
      "Ġaccept": 3058,
      "Ġoutcome": 3059,
      "Ġnote": 3060,
      "Ġsuitable": 3061,
      "Ġdesigned": 3062,
      "Ġlonger": 3063,
      "ged": 3064,
      "Ġcalculated": 3065,
      "Ġimpl": 3066,
      "nTherefore": 3067,
      "Ġemail": 3068,
      "Ġsleep": 3069,
      "Ġoperations": 3070,
      "Ġones": 3071,
      "astic": 3072,
      "Ġatmosphere": 3073,
      "Ġguidance": 3074,
      "Ġancient": 3075,
      "Ġcentral": 3076,
      "rt": 3077,
      "Ġassumptions": 3078,
      "Ġfail": 3079,
      "Ġnavigate": 3080,
      "max": 3081,
      "Ġpractice": 3082,
      "It": 3083,
      "nThese": 3084,
      "cknow": 3085,
      "Ġtal": 3086,
      "assert": 3087,
      "Ġchecks": 3088,
      "Ġlibr": 3089,
      "Ġsustainable": 3090,
      "Ġcore": 3091,
      "Ġconstruct": 3092,
      "Ġsubst": 3093,
      "Ġrelatively": 3094,
      "gen": 3095,
      "class": 3096,
      "Ġrestaur": 3097,
      "ho": 3098,
      "olute": 3099,
      "Ġhab": 3100,
      "Ġessay": 3101,
      "su": 3102,
      "Ġoutside": 3103,
      "Ġcomprehensive": 3104,
      "Ġlack": 3105,
      "abilities": 3106,
      "Ġ13": 3107,
      "Ġproduction": 3108,
      "Ġhypothesis": 3109,
      "Ġvide": 3110,
      "Ġoffers": 3111,
      "Ġchanged": 3112,
      "Ġslight": 3113,
      "care": 3114,
      "left": 3115,
      "idden": 3116,
      "inci": 3117,
      "Ġcompanies": 3118,
      "ork": 3119,
      "Ġdivide": 3120,
      "Ġreson": 3121,
      "log": 3122,
      "Ġgather": 3123,
      "nSince": 3124,
      "Ġconsistent": 3125,
      "Ġnuanced": 3126,
      "Ġprimary": 3127,
      "Ġrevenue": 3128,
      "Ġwond": 3129,
      "17": 3130,
      "elt": 3131,
      "Ġsignificance": 3132,
      "ĠInstead": 3133,
      "Ġroots": 3134,
      "Ġusage": 3135,
      "Ġensuring": 3136,
      "foot": 3137,
      "Ġmemory": 3138,
      "chan": 3139,
      "Ġpu": 3140,
      "Ġsubt": 3141,
      "Ġfra": 3142,
      "Ġcompare": 3143,
      "Ġpressure": 3144,
      "Ġcoffee": 3145,
      "Ġrecord": 3146,
      "urthermore": 3147,
      "Ġtriangle": 3148,
      "plit": 3149,
      "Ġmix": 3150,
      "Ġlives": 3151,
      "Ġremaining": 3152,
      "Ġdise": 3153,
      "Ġdrive": 3154,
      "Ġtruly": 3155,
      "->": 3156,
      "Ġattribut": 3157,
      "ler": 3158,
      "col": 3159,
      "Ġcontribute": 3160,
      "Ġcircle": 3161,
      "ows": 3162,
      "If": 3163,
      "Ġmiddle": 3164,
      "100": 3165,
      "uro": 3166,
      "augh": 3167,
      "Ġfix": 3168,
      "ĠJohn": 3169,
      "alf": 3170,
      "Ġframe": 3171,
      "cript": 3172,
      "Ġexpectations": 3173,
      "iar": 3174,
      "writing": 3175,
      "Ġactivity": 3176,
      "Ġpropos": 3177,
      "encies": 3178,
      "Ġclean": 3179,
      "heck": 3180,
      "Ġinterval": 3181,
      "Ġimmedi": 3182,
      "Ġchart": 3183,
      "Ġremainder": 3184,
      "icial": 3185,
      "Ġ<<": 3186,
      "Ġground": 3187,
      "abel": 3188,
      "nAlternatively": 3189,
      "sp": 3190,
      "Ġparent": 3191,
      "?\\\"": 3192,
      "Ġfamil": 3193,
      "Ġprotect": 3194,
      "Ġlines": 3195,
      "nc": 3196,
      "Ġpolicy": 3197,
      "Ġsource": 3198,
      "da": 3199,
      "Ġitem": 3200,
      "Ġdivided": 3201,
      "verall": 3202,
      "text": 3203,
      "Ġthing": 3204,
      "load": 3205,
      "Ġtechnical": 3206,
      "Ġfavor": 3207,
      "Ġrepe": 3208,
      "Ġanything": 3209,
      "frac": 3210,
      "arth": 3211,
      "ialog": 3212,
      "Ġweak": 3213,
      "Im": 3214,
      "Ġwar": 3215,
      "do": 3216,
      "Ġedit": 3217,
      "Ġwritten": 3218,
      "Ġ\\\"\\\"": 3219,
      "bol": 3220,
      "Ġremains": 3221,
      "Ġobtain": 3222,
      "Ġmissing": 3223,
      "Ġimag": 3224,
      "Ġfocused": 3225,
      "Ġsuff": 3226,
      "Ġfun": 3227,
      "Ġwatch": 3228,
      "Ġresearc": 3229,
      "Ġ14": 3230,
      "Ġshows": 3231,
      "ĠTrue": 3232,
      "man": 3233,
      "Ġrisks": 3234,
      "Ġut": 3235,
      "Ġrecurs": 3236,
      "Ġbroad": 3237,
      "Ġbusinesses": 3238,
      "Ġann": 3239,
      "nRemember": 3240,
      "date": 3241,
      "Ġdynamic": 3242,
      ")`": 3243,
      "Ġstories": 3244,
      "Ġacknow": 3245,
      "ntic": 3246,
      "ĠAt": 3247,
      "cos": 3248,
      "Ġregard": 3249,
      "Ġdu": 3250,
      "ton": 3251,
      "Ġtou": 3252,
      "ls": 3253,
      "ĠIm": 3254,
      "Ġanx": 3255,
      "fl": 3256,
      "80": 3257,
      "Ġencourage": 3258,
      "Ġtu": 3259,
      "Ġapply": 3260,
      "like": 3261,
      "rig": 3262,
      "Ġcover": 3263,
      "Ġincreases": 3264,
      "ordin": 3265,
      "IN": 3266,
      "Ġsatisfaction": 3267,
      "Is": 3268,
      "ĠFalse": 3269,
      "nown": 3270,
      "nConsider": 3271,
      "Ġmill": 3272,
      "Ġdepart": 3273,
      "Ġbreat": 3274,
      "ĠĠĠĠĠĠĠĠĠĠĠĠĠĠĠĠĠĠĠ": 3275,
      "making": 3276,
      "Ġregion": 3277,
      "Ġpaper": 3278,
      "Ġdetailed": 3279,
      "Ġoffering": 3280,
      "Ġremember": 3281,
      "iveness": 3282,
      "Ġmist": 3283,
      "Ġfields": 3284,
      "Ġeverything": 3285,
      "Ġcraft": 3286,
      "Ġconcern": 3287,
      "Ġleg": 3288,
      "Ġmechan": 3289,
      "Ġsus": 3290,
      "hentic": 3291,
      "'\\": 3292,
      "rid": 3293,
      "Ġprinci": 3294,
      "Let": 3295,
      "Ġvariance": 3296,
      "Ġexec": 3297,
      "23": 3298,
      "Ġindicating": 3299,
      "Ġcat": 3300,
      "gebra": 3301,
      "obal": 3302,
      "Ġsuccessful": 3303,
      "Ġsafe": 3304,
      "inations": 3305,
      "place": 3306,
      "Ġanalyzing": 3307,
      "Ġlat": 3308,
      "imens": 3309,
      "ceed": 3310,
      "Ġult": 3311,
      "Ġfindings": 3312,
      "Ġspeak": 3313,
      "Ġprograms": 3314,
      "Ġuncertain": 3315,
      "ĠCl": 3316,
      "Ġrepresentation": 3317,
      "Ġhappy": 3318,
      "Ġmanager": 3319,
      "Ġupon": 3320,
      "Ġbackground": 3321,
      "idth": 3322,
      "Ġassign": 3323,
      "Ġcultural": 3324,
      "ulations": 3325,
      "Ġplant": 3326,
      "Ġ:": 3327,
      "void": 3328,
      "adem": 3329,
      "Ġreality": 3330,
      "Ġlaunch": 3331,
      "aly": 3332,
      "life": 3333,
      "Ġnull": 3334,
      "This": 3335,
      "Ġlive": 3336,
      "Ġdocument": 3337,
      "Ġappears": 3338,
      "ser": 3339,
      "Ġwon": 3340,
      "Ġschedule": 3341,
      "Ġbullet": 3342,
      "Ġexpens": 3343,
      "Ġintegr": 3344,
      "Ġboundaries": 3345,
      "Ġsoftware": 3346,
      "olving": 3347,
      "ĠPer": 3348,
      "48": 3349,
      "ulate": 3350,
      "Ġstatistics": 3351,
      "Ġpractices": 3352,
      "Ġdigital": 3353,
      "nassert": 3354,
      "Ġnoting": 3355,
      "icit": 3356,
      "Ġpremises": 3357,
      "Ġ...": 3358,
      "Ġadvance": 3359,
      "vide": 3360,
      "itation": 3361,
      "Ġgreen": 3362,
      "Ġcarefully": 3363,
      "Ġtesting": 3364,
      "Ġparts": 3365,
      "As": 3366,
      "ĠPl": 3367,
      "nOn": 3368,
      "Ġtests": 3369,
      "Ġreveal": 3370,
      "Ġblack": 3371,
      "Ġhot": 3372,
      "Ġodd": 3373,
      "Ġcontrast": 3374,
      "ured": 3375,
      "Ġediting": 3376,
      "Ġlists": 3377,
      "Ġopp": 3378,
      "fact": 3379,
      "Ġdesired": 3380,
      "Ġproport": 3381,
      "na": 3382,
      "hest": 3383,
      "65": 3384,
      "Ġdead": 3385,
      "veys": 3386,
      "Ġsection": 3387,
      "(\\\\": 3388,
      "Ġlimited": 3389,
      "Ġ40": 3390,
      "Ġillust": 3391,
      "Ġreading": 3392,
      "Ġslips": 3393,
      "imin": 3394,
      "Ġexercise": 3395,
      "Ġspent": 3396,
      "Ġemerg": 3397,
      "Ġlif": 3398,
      "Ġsmooth": 3399,
      "Ġslow": 3400,
      "amed": 3401,
      "Ġfair": 3402,
      "append": 3403,
      "Ġsafety": 3404,
      "oration": 3405,
      "Ġmodern": 3406,
      "Ġcontra": 3407,
      "Ġcut": 3408,
      "Ġinvolved": 3409,
      "bo": 3410,
      "Ġspaces": 3411,
      "Ġweather": 3412,
      "lear": 3413,
      "ception": 3414,
      "qrt": 3415,
      "();\\": 3416,
      "Ġprepared": 3417,
      "Ġcharacteristics": 3418,
      "Ġintent": 3419,
      "}{": 3420,
      "Ġidentity": 3421,
      "Ġefforts": 3422,
      "24": 3423,
      "rect": 3424,
      "Ġinteresting": 3425,
      "Ġstraight": 3426,
      "Ġvisualization": 3427,
      "Ġauthentic": 3428,
      "yond": 3429,
      "miss": 3430,
      "Ġeye": 3431,
      "ialogue": 3432,
      "Ġquickly": 3433,
      "eue": 3434,
      "Ġleave": 3435,
      "Ġdate": 3436,
      "Ġappe": 3437,
      "ĠEarth": 3438,
      "Ġeconomic": 3439,
      "Ġcard": 3440,
      ")$": 3441,
      "Ġtaken": 3442,
      "Ġpreserv": 3443,
      "Ġmass": 3444,
      "ST": 3445,
      "way": 3446,
      "Ġbinary": 3447,
      "Ġdedic": 3448,
      "lusive": 3449,
      "AT": 3450,
      "Ġrequirements": 3451,
      "oud": 3452,
      "Ġstream": 3453,
      "Ġpartner": 3454,
      "Ġste": 3455,
      "ipment": 3456,
      "Ġmagn": 3457,
      "ĠUsing": 3458,
      "61": 3459,
      "ĠInd": 3460,
      "osed": 3461,
      "ĠJava": 3462,
      "Ġdam": 3463,
      "array": 3464,
      "Ġmachine": 3465,
      "Ġfresh": 3466,
      "Ġactual": 3467,
      "iciency": 3468,
      "Ġtopic": 3469,
      "Ġobjective": 3470,
      "Ġord": 3471,
      "Ġprefer": 3472,
      "Ġexpand": 3473,
      "where": 3474,
      "Ġsymmet": 3475,
      "Ġ|\\": 3476,
      "Ġprec": 3477,
      "ternal": 3478,
      "Ġconduct": 3479,
      "Ġaccording": 3480,
      "Ġinfinite": 3481,
      "Ġwalk": 3482,
      "Ġshap": 3483,
      "Ġshared": 3484,
      "otal": 3485,
      "Ġplatforms": 3486,
      "Ġappreci": 3487,
      "Ġant": 3488,
      "Ġ60": 3489,
      "Ġcenter": 3490,
      "Ġhost": 3491,
      "Ġveh": 3492,
      "rics": 3493,
      "Ġcos": 3494,
      "pected": 3495,
      "nLet": 3496,
      "Ġinterview": 3497,
      "Ġbott": 3498,
      "Ġstatements": 3499,
      "Ġspeed": 3500,
      "iversity": 3501,
      "ms": 3502,
      "score": 3503,
      "Ġmultip": 3504,
      "Ġ_": 3505,
      "Ġunit": 3506,
      "Ġstack": 3507,
      "ched": 3508,
      "sub": 3509,
      "Ġalgebra": 3510,
      "Ġmode": 3511,
      "Ġharm": 3512,
      "hich": 3513,
      "Ġstructures": 3514,
      "Ġpotentially": 3515,
      "Ġincome": 3516,
      "Ġpatient": 3517,
      "Ġcountry": 3518,
      "Ġarrange": 3519,
      "Ġhistorical": 3520,
      "Ġwhole": 3521,
      "uild": 3522,
      "np": 3523,
      "Ġdefined": 3524,
      "Ġcreates": 3525,
      "200": 3526,
      "Ġbeyond": 3527,
      "aks": 3528,
      "ĠOr": 3529,
      "alls": 3530,
      "lated": 3531,
      "holders": 3532,
      "Ġengagement": 3533,
      "Ġmoney": 3534,
      "++": 3535,
      "Ġblood": 3536,
      "Ġsorted": 3537,
      "test": 3538,
      "Ġblock": 3539,
      "Ġtransportation": 3540,
      "dent": 3541,
      "Ġpict": 3542,
      "Ġcollaboration": 3543,
      "ighb": 3544,
      "empt": 3545,
      "Ġimplies": 3546,
      "ales": 3547,
      "Ġpercentage": 3548,
      "rad": 3549,
      "Ġhelpful": 3550,
      "Ġinnovative": 3551,
      "ĠEmily": 3552,
      "'(": 3553,
      "Ġadvice": 3554,
      "iful": 3555,
      "We": 3556,
      "Ġperspectives": 3557,
      "Ġfive": 3558,
      "Ġdescriptive": 3559,
      "Ġplease": 3560,
      "ĠRes": 3561,
      "lights": 3562,
      "ban": 3563,
      "Ġadvanced": 3564,
      "Ġremind": 3565,
      "Ġbreath": 3566,
      "75": 3567,
      "0000": 3568,
      "Ġexplicit": 3569,
      "ached": 3570,
      "ewrite": 3571,
      "ynt": 3572,
      "gment": 3573,
      "ying": 3574,
      "rome": 3575,
      "Ġ24": 3576,
      "Ġassert": 3577,
      "Ġhidden": 3578,
      "Ġidentifying": 3579,
      "nOverall": 3580,
      "ativity": 3581,
      "Ġready": 3582,
      "Ġrelax": 3583,
      "ably": 3584,
      "odes": 3585,
      "Ġslightly": 3586,
      "Ġcomponents": 3587,
      "Ġproduce": 3588,
      "Ġtour": 3589,
      "ensity": 3590,
      "Ġcyc": 3591,
      "Ġdeli": 3592,
      "Ġdeveloping": 3593,
      "Ġmid": 3594,
      "Ġhear": 3595,
      "ffic": 3596,
      "char": 3597,
      "Ġnecessarily": 3598,
      "ologies": 3599,
      "Ġdepending": 3600,
      "Ġdialogue": 3601,
      "Ġpassion": 3602,
      "ĠCal": 3603,
      "asons": 3604,
      "An": 3605,
      "Ġtree": 3606,
      "Ġment": 3607,
      ")\\/": 3608,
      "Ġobserved": 3609,
      "Ġvary": 3610,
      "ĠChanged": 3611,
      "Ġbelow": 3612,
      "atory": 3613,
      "Ġtreatment": 3614,
      "wed": 3615,
      "friend": 3616,
      "Ġcolleag": 3617,
      "Ġincred": 3618,
      "Ġoverw": 3619,
      "Ġmeaningful": 3620,
      "Ġfrequency": 3621,
      "Ġseparate": 3622,
      "Ġbooks": 3623,
      "Ġaff": 3624,
      "ĠSp": 3625,
      "ĠRewrite": 3626,
      "isms": 3627,
      "ĠInc": 3628,
      "pelling": 3629,
      "Ġsam": 3630,
      "cur": 3631,
      "Ġrecent": 3632,
      "Ġnames": 3633,
      "ello": 3634,
      "ambda": 3635,
      "Ġplants": 3636,
      "Ġmodule": 3637,
      "ĠSim": 3638,
      "Ġtheorem": 3639,
      "Ġprocesses": 3640,
      "Ġdefine": 3641,
      "Ġestimate": 3642,
      "ened": 3643,
      "Ġcollection": 3644,
      "21": 3645,
      "Ġwaste": 3646,
      "Ġseeking": 3647,
      "oub": 3648,
      "Ġsubtract": 3649,
      "Ch": 3650,
      "Ġwanted": 3651,
      "Ġ+=": 3652,
      "Ġflaw": 3653,
      "atter": 3654,
      "Ġlater": 3655,
      "Ġtax": 3656,
      "Ġcounter": 3657,
      "roup": 3658,
      "Ġoptim": 3659,
      "etime": 3660,
      "ites": 3661,
      "Ġpreferences": 3662,
      "Ġimage": 3663,
      "Ġlink": 3664,
      "Ġ21": 3665,
      "icles": 3666,
      "Ġcop": 3667,
      "olve": 3668,
      "igation": 3669,
      "Ġexperiment": 3670,
      "Ġequipment": 3671,
      "Ġestim": 3672,
      "med": 3673,
      "rees": 3674,
      "Ġdoor": 3675,
      "ĠĠĠĠĠĠ": 3676,
      "Ġscene": 3677,
      "Ġextra": 3678,
      "Ġattract": 3679,
      "Ġfallacy": 3680,
      "lished": 3681,
      "Ġhighly": 3682,
      "Ġstaff": 3683,
      "Ġlost": 3684,
      "size": 3685,
      "Ġlandsc": 3686,
      "Ġplots": 3687,
      "Ġincorporating": 3688,
      "Ġhealthy": 3689,
      "Ġduplic": 3690,
      "Ġmentioned": 3691,
      "Ġmonit": 3692,
      "Ġbelie": 3693,
      "most": 3694,
      "adr": 3695,
      "Ġ90": 3696,
      "ze": 3697,
      "Ġanxiety": 3698,
      "omain": 3699,
      "acies": 3700,
      "Ġoverwhel": 3701,
      "Ġmoving": 3702,
      "Ġremove": 3703,
      "Ġlies": 3704,
      "nEx": 3705,
      "Ġhands": 3706,
      "Ġ80": 3707,
      "ellig": 3708,
      "AR": 3709,
      "}}": 3710,
      "Ġtouch": 3711,
      "['": 3712,
      "world": 3713,
      "Ġdriving": 3714,
      "Ġnotice": 3715,
      "Ġsix": 3716,
      "Ġimmers": 3717,
      "ĠEnglish": 3718,
      "Ġmedical": 3719,
      "Ġapplication": 3720,
      "Ġheat": 3721,
      "Ġacadem": 3722,
      "Ġleaving": 3723,
      "bit": 3724,
      "Ġexcited": 3725,
      "Ġtension": 3726,
      "oyal": 3727,
      "45": 3728,
      "Ġsubtle": 3729,
      "Ġextract": 3730,
      "overy": 3731,
      "icro": 3732,
      "Ġvill": 3733,
      "Ġbasic": 3734,
      "une": 3735,
      "Ġhalf": 3736,
      "ios": 3737,
      "Ġiniti": 3738,
      "Ġhighlights": 3739,
      "Ġfire": 3740,
      "Ġmagic": 3741,
      "Ġsect": 3742,
      "Ġserve": 3743,
      "Ġpriorities": 3744,
      "Ġexhib": 3745,
      "Ġcompelling": 3746,
      "Ġund": 3747,
      "aign": 3748,
      "Ġprivate": 3749,
      "Ġri": 3750,
      "Ġcreated": 3751,
      "Ġinner": 3752,
      "sole": 3753,
      "Ġshift": 3754,
      "`.\\": 3755,
      "alind": 3756,
      "Ġfeature": 3757,
      "irtual": 3758,
      "index": 3759,
      "Ġabsolute": 3760,
      "Ġfoundation": 3761,
      "ĠThat": 3762,
      "Ġcities": 3763,
      "Ġrunning": 3764,
      "ump": 3765,
      "LE": 3766,
      "Ġbeautiful": 3767,
      "06": 3768,
      "alueError": 3769,
      "Ġexplanation": 3770,
      "Ġgovernment": 3771,
      "arrow": 3772,
      "with": 3773,
      "outh": 3774,
      "earch": 3775,
      "Ġglobal": 3776,
      "mon": 3777,
      "Ġrepresented": 3778,
      "Ġspecifically": 3779,
      "Ġadvant": 3780,
      "Ġled": 3781,
      "Ġsituations": 3782,
      "Ġfasc": 3783,
      "Ġsolar": 3784,
      "Ġearlier": 3785,
      "Ġblue": 3786,
      "Ġneighb": 3787,
      "arah": 3788,
      "Ġattempt": 3789,
      "nYour": 3790,
      "Ġid": 3791,
      "Ġmanner": 3792,
      "ĠNow": 3793,
      "Ġbiases": 3794,
      "Ġslip": 3795,
      "Ġcoin": 3796,
      "Ġdouble": 3797,
      "Ġnode": 3798,
      "Ġarch": 3799,
      "Ġmyst": 3800,
      "arg": 3801,
      "Ġwild": 3802,
      "Ġfigure": 3803,
      "Ġcomputer": 3804,
      ":**\\": 3805,
      "Ġdiverse": 3806,
      "orld": 3807,
      "Ġing": 3808,
      "result": 3809,
      "Ġmotivations": 3810,
      "Ġsounds": 3811,
      "def": 3812,
      "Ġopening": 3813,
      "Ġstri": 3814,
      "27": 3815,
      "eks": 3816,
      "Ġminimum": 3817,
      "roduct": 3818,
      "Ġstd": 3819,
      "Ġgiving": 3820,
      "Ġagree": 3821,
      "Ġcatch": 3822,
      "known": 3823,
      "Consider": 3824,
      "Ġchann": 3825,
      "Ġletter": 3826,
      "Ġeffort": 3827,
      "Ġmyself": 3828,
      "agonist": 3829,
      "Ġusually": 3830,
      "nEm": 3831,
      "ĠSe": 3832,
      "Ġdelic": 3833,
      "Ġpromote": 3834,
      "Ġexpon": 3835,
      "Ġletters": 3836,
      "bon": 3837,
      "ĠMay": 3838,
      "Ġtitle": 3839,
      "Ġinteractions": 3840,
      "Ġkeys": 3841,
      "Ġscenario": 3842,
      "Ġsharing": 3843,
      "agn": 3844,
      "Ġhelping": 3845,
      "Ġimproved": 3846,
      "struction": 3847,
      "Ġattend": 3848,
      "Ġlibrary": 3849,
      "Ġsil": 3850,
      "Ġhour": 3851,
      "Ġstrengths": 3852,
      "ints": 3853,
      "_{\\\\": 3854,
      "Ġet": 3855,
      "Ġfeels": 3856,
      "arer": 3857,
      "alle": 3858,
      "ĠDr": 3859,
      "ommod": 3860,
      "Ġquadr": 3861,
      "Ġconfirm": 3862,
      "onom": 3863,
      "Ġbri": 3864,
      "ean": 3865,
      "Ġsess": 3866,
      "oes": 3867,
      "Ġreliable": 3868,
      "Ġcampaign": 3869,
      "Ġcand": 3870,
      "Ġtraffic": 3871,
      "Ġenter": 3872,
      "era": 3873,
      "Ġcircum": 3874,
      "Ġdeveloped": 3875,
      "Ġdegree": 3876,
      "ĠAdd": 3877,
      "Ġscale": 3878,
      "Ġmit": 3879,
      "Ġmanip": 3880,
      "Ġprices": 3881,
      "Ġpron": 3882,
      "ĠUS": 3883,
      "Ġresponsibilities": 3884,
      "Ġultimately": 3885,
      "CT": 3886,
      "},": 3887,
      "Ġdisease": 3888,
      "Ġprogramming": 3889,
      "33": 3890,
      "Ġtalk": 3891,
      "encing": 3892,
      "icing": 3893,
      "28": 3894,
      "Ġgarden": 3895,
      "Ġrestaurant": 3896,
      "Ġcompared": 3897,
      "Ġmath": 3898,
      "Ġintegral": 3899,
      "Ġcross": 3900,
      "Ġappli": 3901,
      "Ġregards": 3902,
      "Ġdevi": 3903,
      "apan": 3904,
      "ifies": 3905,
      "Ġsymbol": 3906,
      "ested": 3907,
      "Ġthr": 3908,
      "Ġattack": 3909,
      "off": 3910,
      "values": 3911,
      "Ġroad": 3912,
      "Ġcommunicate": 3913,
      ".\\\"\",": 3914,
      "Ġworked": 3915,
      "Ġaccom": 3916,
      "eral": 3917,
      "Ġyield": 3918,
      "Ġpractical": 3919,
      "Ġnamed": 3920,
      "type": 3921,
      "Ġhonest": 3922,
      "ibly": 3923,
      "ik": 3924,
      "Ġrules": 3925,
      "Ġlisten": 3926,
      "Ġaccuracy": 3927,
      "Ġmetrics": 3928,
      "Ġweb": 3929,
      "Ġswe": 3930,
      "Ġvideo": 3931,
      "Ġlogic": 3932,
      "En": 3933,
      "ĠMake": 3934,
      "Ġspecies": 3935,
      "omen": 3936,
      "py": 3937,
      "Ġreplace": 3938,
      "Ġorganizations": 3939,
      "']": 3940,
      "Ġquite": 3941,
      "Ġautom": 3942,
      "Ġcontact": 3943,
      "Ġvector": 3944,
      "Ġinsight": 3945,
      "Ġinterse": 3946,
      "Ġfarm": 3947,
      "Ġconclusions": 3948,
      "Ġgenerally": 3949,
      "ull": 3950,
      "atable": 3951,
      "length": 3952,
      "Ġisol": 3953,
      "Ġwhis": 3954,
      "alindrome": 3955,
      "RE": 3956,
      "ĠCo": 3957,
      "Ġclosely": 3958,
      "ocation": 3959,
      "Ġinteractive": 3960,
      "Ġfinds": 3961,
      "iring": 3962,
      "step": 3963,
      "Ġfue": 3964,
      "Ġoccurs": 3965,
      "Ġwoman": 3966,
      "Ġunex": 3967,
      "Ġcomfortable": 3968,
      "\\\".": 3969,
      "\\\")": 3970,
      "Ġverb": 3971,
      "Ġaccommod": 3972,
      "Ġintellig": 3973,
      "{\\": 3974,
      "Ġforest": 3975,
      "Ġoperation": 3976,
      "Ġlimitations": 3977,
      "Ġappreciate": 3978,
      "ĠLe": 3979,
      "rets": 3980,
      "sec": 3981,
      "arter": 3982,
      "ĠOur": 3983,
      "Ġcategories": 3984,
      "mb": 3985,
      "Ġplans": 3986,
      "String": 3987,
      "SE": 3988,
      "Ġgradu": 3989,
      "Ġforce": 3990,
      "Ġhighest": 3991,
      "ried": 3992,
      "ued": 3993,
      "Ġevaluating": 3994,
      "Ġrobust": 3995,
      "cell": 3996,
      "Ġpush": 3997,
      "Ġkn": 3998,
      "Hi": 3999,
      "Ġrain": 4000,
      "Ġchanging": 4001,
      "Ġeasily": 4002,
      "Ġclearly": 4003,
      "nFurthermore": 4004,
      "oon": 4005,
      "Ġboo": 4006,
      "Ġax": 4007,
      "Ġangle": 4008,
      "Ġpatients": 4009,
      "Ġconnected": 4010,
      "Ġoffice": 4011,
      "Ġdevices": 4012,
      "java": 4013,
      "ĠĠĠĠĠĠĠĠĠ": 4014,
      "():\\": 4015,
      "Ġadds": 4016,
      "onic": 4017,
      "ĠEuro": 4018,
      "Ġ(-": 4019,
      "eep": 4020,
      "Ġconfident": 4021,
      "rong": 4022,
      "Ġcontradict": 4023,
      "Ġsin": 4024,
      "Ġcolumn": 4025,
      "friendly": 4026,
      "ĠRet": 4027,
      "Ġpartn": 4028,
      "reg": 4029,
      "Cl": 4030,
      "Ġir": 4031,
      "Ġpros": 4032,
      "Ġpairs": 4033,
      "Ġthreat": 4034,
      "Ġforms": 4035,
      "Ġprotagonist": 4036,
      "Ġacademic": 4037,
      "ĠJapan": 4038,
      "Ġfascin": 4039,
      "ĠReg": 4040,
      "book": 4041,
      "Ġcolors": 4042,
      "')\\": 4043,
      "Ġlargest": 4044,
      "Ġhor": 4045,
      "Ġmemories": 4046,
      "Ġamb": 4047,
      "Ġefficiency": 4048,
      "ĠAmerican": 4049,
      "Ġstudies": 4050,
      "ancing": 4051,
      "umber": 4052,
      "Ġnut": 4053,
      "sort": 4054,
      "90": 4055,
      "Hello": 4056,
      "Ġdemonstrate": 4057,
      "anging": 4058,
      "Ġclearer": 4059,
      "len": 4060,
      "Ġmillion": 4061,
      "Ġequations": 4062,
      "Ġnic": 4063,
      "pha": 4064,
      "Ġspir": 4065,
      "address": 4066,
      "cd": 4067,
      "Ġanim": 4068,
      "67": 4069,
      "Ġdidn": 4070,
      "acing": 4071,
      "Ġaccessible": 4072,
      "32": 4073,
      "Ġplanet": 4074,
      "List": 4075,
      "Ġprofession": 4076,
      "Ġdrawing": 4077,
      "Ġcam": 4078,
      "Ġvariability": 4079,
      "Ġasking": 4080,
      "Ġchoices": 4081,
      "icients": 4082,
      "ians": 4083,
      "Ġtechnologies": 4084,
      "Ġwin": 4085,
      "opt": 4086,
      "Ġcou": 4087,
      "ĠFinally": 4088,
      "Ġenth": 4089,
      "iverse": 4090,
      "ĠBl": 4091,
      "Ġstatic": 4092,
      "Ġ\\\"\\\"\\\"\\": 4093,
      "Ġcapture": 4094,
      "Ġship": 4095,
      "ĠAd": 4096,
      "Ġweeks": 4097,
      "Ġtips": 4098,
      "Ġdependent": 4099,
      "Ġpark": 4100,
      "Ġbottom": 4101,
      "Ġmember": 4102,
      "Ġintu": 4103,
      "Data": 4104,
      "fill": 4105,
      "Ġconveys": 4106,
      "ux": 4107,
      "Ġexploration": 4108,
      "ister": 4109,
      "Ġ[]\\": 4110,
      "Ġchecking": 4111,
      "Ġcomparis": 4112,
      "Ġaddressing": 4113,
      "Ġmov": 4114,
      "Ġexpressed": 4115,
      "Ġexamine": 4116,
      "Ġvariety": 4117,
      "Ġinvestment": 4118,
      "Ġcurve": 4119,
      "Ġmission": 4120,
      "eleb": 4121,
      "ountain": 4122,
      "squ": 4123,
      "ask": 4124,
      "Ġloyal": 4125,
      "Ġcomprehension": 4126,
      "Ġparty": 4127,
      "**\\": 4128,
      "Ġfear": 4129,
      "Ġadvent": 4130,
      "Ġ__": 4131,
      "ithmetic": 4132,
      "ĠApp": 4133,
      "script": 4134,
      "anks": 4135,
      "Ġcoordin": 4136,
      "Ġimmediately": 4137,
      "Ġthemes": 4138,
      "valid": 4139,
      "Ġbeauty": 4140,
      "Ġrelatable": 4141,
      "Ġsuggested": 4142,
      "Ġinterpretation": 4143,
      "imensional": 4144,
      "cking": 4145,
      "Ġign": 4146,
      "Ġdeal": 4147,
      "instance": 4148,
      "Ġlocations": 4149,
      "Ġshop": 4150,
      "Ġperhaps": 4151,
      "Ġpassage": 4152,
      "Ġincorporate": 4153,
      "Ġpersonality": 4154,
      "iding": 4155,
      "Ġworksh": 4156,
      "rm": 4157,
      "ĠEurope": 4158,
      "Ġopin": 4159,
      "2261": 4160,
      "Ġcalls": 4161,
      "')": 4162,
      "!=": 4163,
      "nderstand": 4164,
      "Ġtechnique": 4165,
      "div": 4166,
      "ĠUnited": 4167,
      "uration": 4168,
      "Ġcommand": 4169,
      "Ġrot": 4170,
      "Ġcolleagues": 4171,
      "nesses": 4172,
      "Ġhealthcare": 4173,
      "coming": 4174,
      "Ġsays": 4175,
      "Ġsurvey": 4176,
      "ided": 4177,
      "Ġapplied": 4178,
      "rust": 4179,
      "Ġsmart": 4180,
      "Ġcoefficients": 4181,
      "culate": 4182,
      "ĠPh": 4183,
      "Ġsold": 4184,
      "Ġtook": 4185,
      "oke": 4186,
      "Ġweigh": 4187,
      "Ġarticle": 4188,
      "usi": 4189,
      "Ġcompos": 4190,
      "Ġdiscussion": 4191,
      "Ġnews": 4192,
      "Ġmorning": 4193,
      "Ġintended": 4194,
      "Ġnumerous": 4195,
      "Ġpow": 4196,
      "Ġleaves": 4197,
      "Ġunf": 4198,
      "Ġsurpr": 4199,
      "Ġexperienced": 4200,
      "Ġsecrets": 4201,
      "Ġphone": 4202,
      "ĠNo": 4203,
      "Ġreasons": 4204,
      "Ġadjustments": 4205,
      "ĠData": 4206,
      "Ġseek": 4207,
      "Ġimmersive": 4208,
      "Ġpicture": 4209,
      "Ġvirtual": 4210,
      "ags": 4211,
      "cont": 4212,
      "Ġcauses": 4213,
      "Ġparameter": 4214,
      "Ġmyster": 4215,
      "oming": 4216,
      "rupt": 4217,
      "Ġminimize": 4218,
      "Ġsecure": 4219,
      "Ġdepends": 4220,
      "Ġpan": 4221,
      "order": 4222,
      "Ġroles": 4223,
      "$,": 4224,
      "pid": 4225,
      "Ġgrowing": 4226,
      "number": 4227,
      "Ġclassic": 4228,
      "ansion": 4229,
      "Ġparameters": 4230,
      "Ġwood": 4231,
      "Ġapart": 4232,
      "att": 4233,
      "Ġinsp": 4234,
      "Ġclasses": 4235,
      "Ġpage": 4236,
      "ĠPr": 4237,
      "cosystem": 4238,
      "Ġphen": 4239,
      "Ġjoy": 4240,
      "Ġcreativity": 4241,
      "Ġassume": 4242,
      "ID": 4243,
      "iate": 4244,
      "Ġdevice": 4245,
      "ocol": 4246,
      "Ġpossibilities": 4247,
      "Ġenthusi": 4248,
      "Ġspecified": 4249,
      "necess": 4250,
      "urance": 4251,
      "Ġballs": 4252,
      "Ġutil": 4253,
      "Ġoperator": 4254,
      "$\\\\": 4255,
      "ĠMany": 4256,
      "wness": 4257,
      "though": 4258,
      "222": 4259,
      "Ġdomain": 4260,
      "Ġstronger": 4261,
      "Ġtendency": 4262,
      "Ġdiscover": 4263,
      "Ġsolid": 4264,
      "oding": 4265,
      "ĠFirst": 4266,
      "(\\": 4267,
      "Ġblog": 4268,
      "Ġreplaced": 4269,
      "Ġprepare": 4270,
      "Ġ95": 4271,
      "Ġcausing": 4272,
      "hy": 4273,
      "Ġsigns": 4274,
      "Ġscientific": 4275,
      "Ġexpenses": 4276,
      "Ġice": 4277,
      "Ġburn": 4278,
      "Ġinside": 4279,
      "Ġcontaining": 4280,
      "pass": 4281,
      "iced": 4282,
      "Ġdeviations": 4283,
      "onac": 4284,
      "Ġstage": 4285,
      "works": 4286,
      "Ġinstall": 4287,
      "Ġcountries": 4288,
      "Ġgre": 4289,
      "Ġvolume": 4290,
      "Ġvac": 4291,
      "Ġsoon": 4292,
      "Ġecosystem": 4293,
      "Ġexists": 4294,
      "egin": 4295,
      "Ġcommunities": 4296,
      "Ġgas": 4297,
      "Ġquadratic": 4298,
      "ruct": 4299,
      "([": 4300,
      "Ġmarkdown": 4301,
      "Ġ75": 4302,
      "sm": 4303,
      "lls": 4304,
      "agine": 4305,
      "Ġdescription": 4306,
      "hing": 4307,
      "Ġdepend": 4308,
      "ml": 4309,
      ".\\\")\\": 4310,
      "Ġdegrees": 4311,
      "Ġwal": 4312,
      "Ġrefer": 4313,
      "Ġuniverse": 4314,
      "ev": 4315,
      "onacci": 4316,
      "ĠMr": 4317,
      "ckets": 4318,
      "necessary": 4319,
      "Ġuncertainty": 4320,
      "Ġleads": 4321,
      "Ġradius": 4322,
      "Ġobservations": 4323,
      "Ġvibr": 4324,
      "Ġretain": 4325,
      "Ġsimplify": 4326,
      "Ġpun": 4327,
      "Ġimpactful": 4328,
      "Ġingred": 4329,
      "Ġfloat": 4330,
      "ĠSystem": 4331,
      "ibonacci": 4332,
      "Ġcents": 4333,
      "Ġequival": 4334,
      "Ġwonder": 4335,
      "Ġresearchers": 4336,
      "Ġ(\\": 4337,
      "Ġsea": 4338,
      "Ġintric": 4339,
      "ĠWorld": 4340,
      "Ġconv": 4341,
      "Ġmodify": 4342,
      "Ġarithmetic": 4343,
      "Ġphenomen": 4344,
      "going": 4345,
      "Ġpossibility": 4346,
      "sy": 4347,
      "Ġmovement": 4348,
      "Ġtrees": 4349,
      "Ġgold": 4350,
      "Ġabilities": 4351,
      "ech": 4352,
      "Ġfacilit": 4353,
      "Ġwomen": 4354,
      "Ġqual": 4355,
      "Ġinnovation": 4356,
      "Ġcommitment": 4357,
      "ned": 4358,
      "ĠIdent": 4359,
      "Ġtransformation": 4360,
      "Ġlab": 4361,
      "urt": 4362,
      "Ġelimin": 4363,
      "Ġfast": 4364,
      "ky": 4365,
      "ĠComm": 4366,
      "Ġlatest": 4367,
      "Ġfixed": 4368,
      "Ġliter": 4369,
      "Ġtuple": 4370,
      "Ġchain": 4371,
      "ta": 4372,
      "01": 4373,
      "kay": 4374,
      "Con": 4375,
      "Ġdefault": 4376,
      "Ġbenefit": 4377,
      "Ġprepar": 4378,
      "eta": 4379,
      "Ġspend": 4380,
      "vere": 4381,
      "rans": 4382,
      "Ġcool": 4383,
      "Ġexternal": 4384,
      "ĠAfter": 4385,
      "hand": 4386,
      "cy": 4387,
      "ĠGo": 4388,
      "Ġbrief": 4389,
      "Ġstruggle": 4390,
      "Ġtimel": 4391,
      "Ġstarts": 4392,
      "Ġunnecessary": 4393,
      "Ġeffectiveness": 4394,
      "pling": 4395,
      "Ġdefinition": 4396,
      "ony": 4397,
      "Ġcells": 4398,
      "Ġfant": 4399,
      "Ġmedic": 4400,
      "bl": 4401,
      "Ġmut": 4402,
      "Ġchem": 4403,
      "ulner": 4404,
      "pri": 4405,
      "Ġ->": 4406,
      "Ġexplicitly": 4407,
      "Ġconstra": 4408,
      "Ġemp": 4409,
      "ĠPlease": 4410,
      "ender": 4411,
      "Ġdatasets": 4412,
      "forward": 4413,
      "Ġaligns": 4414,
      "ina": 4415,
      "dis": 4416,
      "orth": 4417,
      "ĠSu": 4418,
      "Ġshad": 4419,
      "Ġpresented": 4420,
      "True": 4421,
      "Ġcapital": 4422,
      "Ġrecently": 4423,
      "044": 4424,
      "Ġfallacies": 4425,
      "Ġ<=": 4426,
      "95": 4427,
      "ĠAss": 4428,
      "Ġwrong": 4429,
      "ography": 4430,
      "Ġdigits": 4431,
      "Ġnovel": 4432,
      "cean": 4433,
      "ĠFr": 4434,
      "Ġbeginning": 4435,
      "Ġroutine": 4436,
      "Ġreceive": 4437,
      "Ġmap": 4438,
      "])\\": 4439,
      "2014": 4440,
      "\\\">": 4441,
      "Ġpurchase": 4442,
      "anges": 4443,
      "Ġbur": 4444,
      "tra": 4445,
      "onsist": 4446,
      "nBut": 4447,
      "Ar": 4448,
      "ctors": 4449,
      "Ġesc": 4450,
      "lean": 4451,
      "Ġunexpected": 4452,
      "Ġedge": 4453,
      "Ġdrawn": 4454,
      "Ġvi": 4455,
      "Ġphysics": 4456,
      "Ġgrand": 4457,
      ":\\/": 4458,
      "Ġtopics": 4459,
      "Ġdamage": 4460,
      "Ġrephrased": 4461,
      "ifications": 4462,
      "Ġclients": 4463,
      "tical": 4464,
      "Ġwidth": 4465,
      "Ġintentions": 4466,
      "lies": 4467,
      "Ġsensitive": 4468,
      "rete": 4469,
      "(-": 4470,
      "cer": 4471,
      "ormal": 4472,
      "Ġmaster": 4473,
      "])": 4474,
      "Ġvision": 4475,
      "26": 4476,
      "Ġceleb": 4477,
      "Ġahead": 4478,
      "Ġmodul": 4479,
      "2018": 4480,
      "ervation": 4481,
      "main": 4482,
      "Ġhighlighting": 4483,
      "'.": 4484,
      "Ġintelligence": 4485,
      "orage": 4486,
      "Ġmindful": 4487,
      "Ġgeometry": 4488,
      "ĠValueError": 4489,
      "ufact": 4490,
      "70": 4491,
      "Ġexception": 4492,
      "ensive": 4493,
      "Ġbrain": 4494,
      "Ġlandscape": 4495,
      "iff": 4496,
      "esc": 4497,
      "Ġshowc": 4498,
      "igned": 4499,
      "Ġhol": 4500,
      "Ġachieved": 4501,
      "Ġstruggling": 4502,
      "adox": 4503,
      "Ġrequest": 4504,
      "Ġkids": 4505,
      "Ġbulb": 4506,
      "Ġrefers": 4507,
      "ĠEn": 4508,
      "vis": 4509,
      "Ġvulner": 4510,
      "Ġflexible": 4511,
      "NA": 4512,
      "Ġconference": 4513,
      "Ġshown": 4514,
      "Ġreaches": 4515,
      "Ġsynt": 4516,
      "ese": 4517,
      "Ġintroduction": 4518,
      "Ġproductivity": 4519,
      "Ġillustrate": 4520,
      "ĠCol": 4521,
      "ĠCreate": 4522,
      "ĠComp": 4523,
      "Ġalgorithms": 4524,
      "Ġstatus": 4525,
      "usion": 4526,
      "Ġclar": 4527,
      "My": 4528,
      "osen": 4529,
      "Ġuns": 4530,
      "Ġprofit": 4531,
      "ĠDon": 4532,
      "ana": 4533,
      "Ġemb": 4534,
      "Ġstake": 4535,
      "itect": 4536,
      "Ġmoments": 4537,
      "Ġmob": 4538,
      "Ġrational": 4539,
      "Ġrecognize": 4540,
      "Ġsquares": 4541,
      "Ġfill": 4542,
      "Ġessence": 4543,
      "anger": 4544,
      "Ġsufficient": 4545,
      "eria": 4546,
      "Ġvisitors": 4547,
      "ael": 4548,
      "Ġwhite": 4549,
      "Ġcombined": 4550,
      "change": 4551,
      "ognitive": 4552,
      "Ġrepresenting": 4553,
      "Ġcurrently": 4554,
      "Ġfully": 4555,
      "espite": 4556,
      "roll": 4557,
      "nJ": 4558,
      "Ġprofound": 4559,
      "Ġremoved": 4560,
      "Ġ22": 4561,
      "Ġteac": 4562,
      "dri": 4563,
      "Ġproof": 4564,
      "ils": 4565,
      "Ġreput": 4566,
      "force": 4567,
      "Ġguests": 4568,
      "Ġ23": 4569,
      "Ġdoll": 4570,
      "ĠSm": 4571,
      "po": 4572,
      "Ġunus": 4573,
      "init": 4574,
      "Ġcoming": 4575,
      "OR": 4576,
      "Ġprints": 4577,
      "inks": 4578,
      "rypt": 4579,
      "nNote": 4580,
      "ny": 4581,
      "Ġparagraphs": 4582,
      "xy": 4583,
      "Ġdividing": 4584,
      "Ġproportion": 4585,
      "Ġstudying": 4586,
      "Ġdistributed": 4587,
      "Ġround": 4588,
      "ĠRem": 4589,
      "erson": 4590,
      "Ġwent": 4591,
      "Ġinval": 4592,
      "Ġisland": 4593,
      "Ġincorrect": 4594,
      "Ġstraightforward": 4595,
      "Ġvariation": 4596,
      "Ġsociety": 4597,
      "Ġimplementing": 4598,
      "dom": 4599,
      "nSome": 4600,
      "Ġcarbon": 4601,
      "active": 4602,
      "Yes": 4603,
      "rist": 4604,
      "Ġinterv": 4605,
      "Ġpresentation": 4606,
      "Ġdream": 4607,
      "Ġcub": 4608,
      "Com": 4609,
      "Ġkit": 4610,
      "Ġcrow": 4611,
      "Ġfront": 4612,
      "Ġapplying": 4613,
      "Name": 4614,
      "\\\",\\": 4615,
      "ĠReturn": 4616,
      "Ġsite": 4617,
      "Ġcomponent": 4618,
      "Ġelectric": 4619,
      "Ġtrain": 4620,
      "Ġmil": 4621,
      "raw": 4622,
      "Ġcloser": 4623,
      "Ġstudied": 4624,
      "Ġcame": 4625,
      "cel": 4626,
      "Ġdeath": 4627,
      "Ġ70": 4628,
      "ĠPerhaps": 4629,
      "Ġpreserving": 4630,
      "Ġpolit": 4631,
      "Ġnarrow": 4632,
      "ĠAvoid": 4633,
      "Ġmagical": 4634,
      "Ġdelicate": 4635,
      "Ġdecor": 4636,
      "Ġpieces": 4637,
      "iling": 4638,
      "Ġallowed": 4639,
      "Ġbrackets": 4640,
      "lst": 4641,
      "Ġthread": 4642,
      "write": 4643,
      "Ġdivisible": 4644,
      "irth": 4645,
      "Ġaltern": 4646,
      "Ġreduced": 4647,
      "Ġsurv": 4648,
      "iors": 4649,
      "nK": 4650,
      "ĠMan": 4651,
      "Ġgent": 4652,
      "Ġasked": 4653,
      "Ġcast": 4654,
      "ĠHer": 4655,
      "overed": 4656,
      "Ġfavorite": 4657,
      "Ġconven": 4658,
      "sych": 4659,
      "Ġbroader": 4660,
      "nUsing": 4661,
      "Ġresponsible": 4662,
      "ĠYork": 4663,
      "Ġrely": 4664,
      "Ġvoid": 4665,
      "oted": 4666,
      "tes": 4667,
      "Ġtang": 4668,
      "item": 4669,
      "Ġregions": 4670,
      "house": 4671,
      "Ġclaims": 4672,
      "ison": 4673,
      "Ġisn": 4674,
      "Ġcards": 4675,
      "Ġresource": 4676,
      "Ġprinciples": 4677,
      "Ġaccompl": 4678,
      "Ġmultiply": 4679,
      "09": 4680,
      "Ġpick": 4681,
      "Ġhabits": 4682,
      "Ġoptimize": 4683,
      "ĠStates": 4684,
      "ocks": 4685,
      "Ġvisualize": 4686,
      "Ġteaching": 4687,
      "Ġpoll": 4688,
      "Ġsaying": 4689,
      "Ġwriter": 4690,
      "Ġmemor": 4691,
      "Ġconclude": 4692,
      "otes": 4693,
      "ading": 4694,
      "ighter": 4695,
      "Ġbeneficial": 4696,
      "Ġmer": 4697,
      "Ġupdates": 4698,
      "Ġkeywords": 4699,
      "Ġdiet": 4700,
      "raft": 4701,
      "Ġshowing": 4702,
      "Ġplays": 4703,
      "tenance": 4704,
      "irect": 4705,
      "bre": 4706,
      "find": 4707,
      "((": 4708,
      "Ġheads": 4709,
      "Ġfascinating": 4710,
      "start": 4711,
      "Ġupdate": 4712,
      "Ġskewed": 4713,
      "Ġalone": 4714,
      "Ġmanufact": 4715,
      "Ġbuy": 4716,
      "asure": 4717,
      "Ġhumans": 4718,
      "ipped": 4719,
      "Ġbeg": 4720,
      "eb": 4721,
      "ief": 4722,
      "Ġdepartment": 4723,
      "Ġinspir": 4724,
      "Ġneighbor": 4725,
      "Ġdatab": 4726,
      "Ġmanageable": 4727,
      "ilos": 4728,
      "Ġspot": 4729,
      "Ġhandling": 4730,
      "Ġupper": 4731,
      "Ġfulfill": 4732,
      "nclass": 4733,
      "Ġjud": 4734,
      "stack": 4735,
      ":\\/\\/": 4736,
      "ogram": 4737,
      "Ġparents": 4738,
      "Ġrapid": 4739,
      "tings": 4740,
      "room": 4741,
      "Ġthri": 4742,
      "Ġanimals": 4743,
      "cut": 4744,
      "Ġcomparing": 4745,
      "Ġcombinations": 4746,
      "neg": 4747,
      "None": 4748,
      "map": 4749,
      "hetic": 4750,
      "uine": 4751,
      "Ġmiles": 4752,
      "****": 4753,
      "Ġreaching": 4754,
      "ogle": 4755,
      "Ġassumption": 4756,
      "Ġprocessing": 4757,
      "Ġiterate": 4758,
      "mut": 4759,
      "bf": 4760,
      "Ġreceived": 4761,
      "related": 4762,
      "Ġprompt": 4763,
      "Ġobjectives": 4764,
      "Ġminor": 4765,
      "Ġingredients": 4766,
      "unc": 4767,
      "ref": 4768,
      "Ġclient": 4769,
      "Ġfilter": 4770,
      "Ġperforming": 4771,
      "Ġresponsibility": 4772,
      "ĠExample": 4773,
      "Ġenable": 4774,
      "Ġgames": 4775,
      "Ġresil": 4776,
      "Ġpuzz": 4777,
      "Ġpolicies": 4778,
      "Ġdates": 4779,
      "Cont": 4780,
      "Ġfish": 4781,
      "Ġscript": 4782,
      "Ġsoil": 4783,
      "Ġacknowled": 4784,
      "Ġtold": 4785,
      "Ġexciting": 4786,
      "Ġsusp": 4787,
      "55": 4788,
      "Ġwit": 4789,
      "Ġvert": 4790,
      "ĠOther": 4791,
      "ĠTheorem": 4792,
      "ĠQu": 4793,
      "Ġinfluenced": 4794,
      "Ġdog": 4795,
      "Ġbalanced": 4796,
      "Ġvict": 4797,
      "Ġengineering": 4798,
      "rates": 4799,
      "Ġresidents": 4800,
      "Ġacqu": 4801,
      "unning": 4802,
      "etimes": 4803,
      "Ġcandid": 4804,
      "Ġintroduce": 4805,
      "Ġtypical": 4806,
      "Ġeducational": 4807,
      "next": 4808,
      "Ġplane": 4809,
      "ding": 4810,
      "Ġgets": 4811,
      "Ġdiscovery": 4812,
      "Ġlayer": 4813,
      "Ġoutdo": 4814,
      "Ġparticipants": 4815,
      "\\\");\\": 4816,
      "Ġdecrease": 4817,
      "ole": 4818,
      "Provide": 4819,
      "rench": 4820,
      "Ġdecide": 4821,
      "agram": 4822,
      "efore": 4823,
      "Ġskewness": 4824,
      "Ġrenew": 4825,
      "rand": 4826,
      "Ġfriendly": 4827,
      "rated": 4828,
      "Ġheard": 4829,
      "board": 4830,
      "bc": 4831,
      "Ġsav": 4832,
      "Ġfiles": 4833,
      "Ġgrav": 4834,
      "500": 4835,
      "Ġrect": 4836,
      "Ġshif": 4837,
      "Ġmystery": 4838,
      "Ġtens": 4839,
      "Ġongoing": 4840,
      "Ġspark": 4841,
      "!\",": 4842,
      "Ġcontinues": 4843,
      "Ġaccurately": 4844,
      "Ġmicro": 4845,
      "written": 4846,
      "ĠAll": 4847,
      "Ġbias": 4848,
      "nEmily": 4849,
      "Em": 4850,
      "Ġdesp": 4851,
      "Ġchat": 4852,
      "Ġquiet": 4853,
      "bal": 4854,
      "Ġkeeping": 4855,
      "Ġadult": 4856,
      "Ġcalculating": 4857,
      "Ġrough": 4858,
      "Ġelif": 4859,
      "ĠĠĠĠĠĠĠĠĠĠĠĠĠĠĠĠĠĠĠĠĠĠĠĠĠĠĠĠĠĠĠĠ": 4860,
      "Ġcognitive": 4861,
      "Ġokay": 4862,
      "ache": 4863,
      "Ġensures": 4864,
      "ĠTe": 4865,
      "orough": 4866,
      "Ġdivision": 4867,
      "Ġtrig": 4868,
      "fit": 4869,
      "Ġvivid": 4870,
      "Ġsurrounding": 4871,
      "lambda": 4872,
      "Ġarri": 4873,
      "Ġhous": 4874,
      "Ġcollege": 4875,
      "fil": 4876,
      "Ġimages": 4877,
      "Ġcrew": 4878,
      "Ġarchitect": 4879,
      "dig": 4880,
      "split": 4881,
      "ĠSet": 4882,
      "Ġsustainability": 4883,
      "ĠSarah": 4884,
      "args": 4885,
      ",\\\\": 4886,
      "Ġframework": 4887,
      "arp": 4888,
      "Ġmountain": 4889,
      "ley": 4890,
      "Ġfamiliar": 4891,
      "Ġlearned": 4892,
      "Ġchosen": 4893,
      "Ġvast": 4894,
      "RO": 4895,
      "Ġsometimes": 4896,
      "nal": 4897,
      "ractions": 4898,
      "Ġcoins": 4899,
      "Ġgenuine": 4900,
      "Ġcircumst": 4901,
      "Ġple": 4902,
      "Ġfelt": 4903,
      "Ġrise": 4904,
      "Ġstorage": 4905,
      "Ġcategory": 4906,
      "yl": 4907,
      "Ġsmallest": 4908,
      "====": 4909,
      "Ġreverse": 4910,
      "Ġsummer": 4911,
      "Ġartists": 4912,
      "Ġmitigate": 4913,
      "Ġtrade": 4914,
      "Ġattribute": 4915,
      "CD": 4916,
      "queue": 4917,
      "Ġdigit": 4918,
      "quality": 4919,
      "ĠWill": 4920,
      "Ġmort": 4921,
      "Ġotherwise": 4922,
      "eter": 4923,
      "[]": 4924,
      "stract": 4925,
      "Ġpossess": 4926,
      "axis": 4927,
      "orter": 4928,
      "using": 4929,
      "ĠInt": 4930,
      "Ġboard": 4931,
      "ww": 4932,
      "iver": 4933,
      "ae": 4934,
      "Ġfollowed": 4935,
      "Ġpod": 4936,
      "Ġwatching": 4937,
      "Ġ@": 4938,
      "Ġrele": 4939,
      "ruit": 4940,
      "Ġimproving": 4941,
      "iner": 4942,
      "nAnd": 4943,
      "Ġmistakes": 4944,
      "Ġconversations": 4945,
      "Ġwra": 4946,
      "Ġoverl": 4947,
      ".'": 4948,
      "ED": 4949,
      "rown": 4950,
      "Ġstation": 4951,
      "items": 4952,
      "Ġslope": 4953,
      "ĠCity": 4954,
      "Ġfa": 4955,
      "ĠHis": 4956,
      "Ġhar": 4957,
      "igu": 4958,
      "Ġinequ": 4959,
      "istance": 4960,
      "Ġcompletely": 4961,
      "Ġdedicated": 4962,
      "Ġolder": 4963,
      "Ġcorresponds": 4964,
      "Ġpeace": 4965,
      "Ġurg": 4966,
      "Ġsend": 4967,
      "ores": 4968,
      "Ġexpressions": 4969,
      "Enter": 4970,
      "Ġrare": 4971,
      "Ġestablished": 4972,
      "34": 4973,
      "?\\\"\\": 4974,
      "fting": 4975,
      "Ġengaged": 4976,
      "Ġdealing": 4977,
      "onto": 4978,
      "Ġphilos": 4979,
      "85": 4980,
      "Ġeager": 4981,
      "Ġlate": 4982,
      "requ": 4983,
      "Ġdensity": 4984,
      "Ġmaintenance": 4985,
      "Ġcold": 4986,
      "alpha": 4987,
      "acity": 4988,
      "ouns": 4989,
      "Ġunusual": 4990,
      "dimensional": 4991,
      "eterm": 4992,
      "ĠStart": 4993,
      "Ġinternal": 4994,
      "label": 4995,
      "Ġhosp": 4996,
      "ĠAsk": 4997,
      "rical": 4998,
      "Ġnp": 4999,
      "Ġtap": 5000,
      "Ġcomparison": 5001,
      ").\",": 5002,
      "Ġconcent": 5003,
      "Ġdiscount": 5004,
      "Ġsuggesting": 5005,
      "Ġcycle": 5006,
      "ingu": 5007,
      "AN": 5008,
      "LL": 5009,
      "join": 5010,
      "----------------": 5011,
      "Ġrh": 5012,
      "Ġmanaging": 5013,
      "Ġep": 5014,
      "ament": 5015,
      "Ġreturned": 5016,
      "othing": 5017,
      "Ġpsych": 5018,
      "Ġpursu": 5019,
      "Ġmemorable": 5020,
      "Ġsho": 5021,
      "Ġhabit": 5022,
      "Ġadopt": 5023,
      "Ġtherap": 5024,
      "Ġtransp": 5025,
      "Ġjoin": 5026,
      "Ġaffected": 5027,
      "ĠSoc": 5028,
      "Ġnothing": 5029,
      "ĠMark": 5030,
      "ln": 5031,
      "Ġscatter": 5032,
      "ructure": 5033,
      "Ġplaces": 5034,
      "Ġpowers": 5035,
      "Ġcloud": 5036,
      "fix": 5037,
      "Ġemphasize": 5038,
      "Ġconflicts": 5039,
      "fig": 5040,
      "Ġselection": 5041,
      "htt": 5042,
      "Ġrealistic": 5043,
      "Ġstability": 5044,
      "Ġbegan": 5045,
      "cious": 5046,
      "Ġcalculation": 5047,
      "Ġplayer": 5048,
      "Ġurban": 5049,
      "Ġdiscussing": 5050,
      "Ġ45": 5051,
      "airs": 5052,
      "ĠParis": 5053,
      "level": 5054,
      "used": 5055,
      "Ġcrowd": 5056,
      "}\\\")\\": 5057,
      "Ġholds": 5058,
      "gra": 5059,
      "lement": 5060,
      "$.": 5061,
      "ĠType": 5062,
      "Ġobserve": 5063,
      "Ġfilm": 5064,
      "Ġrating": 5065,
      "Ġbad": 5066,
      "Ġgentle": 5067,
      "Ġstatistically": 5068,
      "Ġwidely": 5069,
      "ĠHigh": 5070,
      "Ġcalculates": 5071,
      "ounding": 5072,
      "nums": 5073,
      "igating": 5074,
      "working": 5075,
      "fraid": 5076,
      "Ġ35": 5077,
      "Res": 5078,
      "lib": 5079,
      "Ġdecimal": 5080,
      "Type": 5081,
      "linear": 5082,
      "igen": 5083,
      "Ġlooks": 5084,
      "Ġpub": 5085,
      "Ġtransfer": 5086,
      "ups": 5087,
      "$$": 5088,
      "Ġheavier": 5089,
      "Ġprofessionals": 5090,
      "Ġthorough": 5091,
      "ams": 5092,
      "Ġfreed": 5093,
      "ographic": 5094,
      "SS": 5095,
      "uing": 5096,
      "llo": 5097,
      "ums": 5098,
      "lations": 5099,
      "Ġ(`": 5100,
      "ourses": 5101,
      "Ġpolished": 5102,
      "kel": 5103,
      "Ġexistence": 5104,
      "Ġbackst": 5105,
      "Ġsupporting": 5106,
      "Ġwhereas": 5107,
      "Ġoccurre": 5108,
      "ĠTra": 5109,
      "ung": 5110,
      "Ġdetermined": 5111,
      "Ġstop": 5112,
      "Ġsecret": 5113,
      "SON": 5114,
      "Ġfamous": 5115,
      "Th": 5116,
      "ht": 5117,
      "ipping": 5118,
      "Ġhowever": 5119,
      "Ġafraid": 5120,
      "Ġocean": 5121,
      "Ġalloc": 5122,
      "Ġcalm": 5123,
      "uting": 5124,
      "asm": 5125,
      "Ġequivalent": 5126,
      "lower": 5127,
      "Ġtemperatures": 5128,
      "dep": 5129,
      "rep": 5130,
      "Ġdistributions": 5131,
      "ĠBrit": 5132,
      "Ġunknown": 5133,
      "solving": 5134,
      "iter": 5135,
      "Ġcohes": 5136,
      "Ġsupportive": 5137,
      "Ġpersonalized": 5138,
      "Ġlanguages": 5139,
      "Ġwants": 5140,
      "ĠCont": 5141,
      "35": 5142,
      "Ġspending": 5143,
      "Ġrecursive": 5144,
      "this": 5145,
      "Ġmuse": 5146,
      "Ġsaw": 5147,
      "Ġnearby": 5148,
      "Ġdespite": 5149,
      "Ġspirit": 5150,
      "Ġcorrectly": 5151,
      "from": 5152,
      "ancy": 5153,
      "lor": 5154,
      "ĠNot": 5155,
      "uilding": 5156,
      "Ġefficiently": 5157,
      "())": 5158,
      "table": 5159,
      "no": 5160,
      "Ġadvantage": 5161,
      "Ġflexibility": 5162,
      "Ġneut": 5163,
      "ichael": 5164,
      "Ġdescribed": 5165,
      "driven": 5166,
      "Ġisinstance": 5167,
      "Ġprecision": 5168,
      "Ġcircumstances": 5169,
      "Ġstock": 5170,
      "ivil": 5171,
      "wo": 5172,
      "ĠFrench": 5173,
      "Ġsections": 5174,
      "Ġstakeholders": 5175,
      "Ġgoes": 5176,
      "Ġanyone": 5177,
      "duc": 5178,
      "arant": 5179,
      "ename": 5180,
      "Ġwel": 5181,
      "Ġcombining": 5182,
      "Ġplaying": 5183,
      "Ġreward": 5184,
      "avors": 5185,
      "Ġdesire": 5186,
      "Ġpunct": 5187,
      "Ġcharts": 5188,
      "EN": 5189,
      "Ġmodulo": 5190,
      "29": 5191,
      "Ġproced": 5192,
      "Ġonto": 5193,
      "strings": 5194,
      "Ġviews": 5195,
      "Ġrepeated": 5196,
      "QL": 5197,
      "Ġserious": 5198,
      "Ġter": 5199,
      "Ġbrings": 5200,
      "nAlso": 5201,
      "Explain": 5202,
      "Ġannual": 5203,
      "Ġintegration": 5204,
      "Ġintrig": 5205,
      "Ġearth": 5206,
      "unte": 5207,
      "Ġintricate": 5208,
      "Ġvibrant": 5209,
      "Ġdeliver": 5210,
      "Ġturned": 5211,
      "Ġ28": 5212,
      "Ġpromoting": 5213,
      "Ġsqrt": 5214,
      "Ġbed": 5215,
      "Ġfinally": 5216,
      "rie": 5217,
      "For": 5218,
      "pi": 5219,
      "}(": 5220,
      "uries": 5221,
      "Ġtick": 5222,
      "Ġafford": 5223,
      "Ġfem": 5224,
      "\":\"```": 5225,
      "Ġsty": 5226,
      "Ġsalaries": 5227,
      "Ġgir": 5228,
      "ĠTV": 5229,
      "OV": 5230,
      "nOnce": 5231,
      "mathcal": 5232,
      "Ġindustries": 5233,
      "Ġconsistency": 5234,
      ")\",": 5235,
      "Ġmeets": 5236,
      "const": 5237,
      "Ġlogically": 5238,
      "68": 5239,
      "Ġbird": 5240,
      "Ġmysterious": 5241,
      "Ġempath": 5242,
      "Ġexponential": 5243,
      "nx": 5244,
      "Ġquarter": 5245,
      "Ġreject": 5246,
      "Ġcreation": 5247,
      "Ġjo": 5248,
      "),\\": 5249,
      "Ġ!=": 5250,
      "Ġcook": 5251,
      "Ġparadox": 5252,
      "inf": 5253,
      "Ġscenarios": 5254,
      "Ġdow": 5255,
      "ades": 5256,
      "Ġacknowledge": 5257,
      "Ġvalidity": 5258,
      "Ġcourses": 5259,
      "Ġconsult": 5260,
      "Ġuncover": 5261,
      "oreover": 5262,
      "Ġquery": 5263,
      "Ġfinite": 5264,
      "Ġadventure": 5265,
      "Ġ85": 5266,
      "Ġwat": 5267,
      "Ġsubstit": 5268,
      "che": 5269,
      "ris": 5270,
      "Ġremote": 5271,
      "Ġ--": 5272,
      "Ġexcite": 5273,
      "Ġincluded": 5274,
      "Ġconsumption": 5275,
      "lim": 5276,
      "Ġdie": 5277,
      "Ġ=>": 5278,
      "Ġchannels": 5279,
      "Ġstorm": 5280,
      "rastructure": 5281,
      "ĠGiven": 5282,
      "ara": 5283,
      "ĠBen": 5284,
      "Ġ$$\\\\": 5285,
      "Ġcarry": 5286,
      "Ġrecommendations": 5287,
      "Ġ1000": 5288,
      "Ġhappen": 5289,
      "Ġpackage": 5290,
      "Ġbirth": 5291,
      "Ġmoves": 5292,
      "Ġresponses": 5293,
      "include": 5294,
      "Ġconstruction": 5295,
      "ĠWould": 5296,
      "Ġantic": 5297,
      "Ġassistance": 5298,
      "Ġmenu": 5299,
      "Ġchoosing": 5300,
      ")\\\\": 5301,
      "Ġaccordingly": 5302,
      "ipp": 5303,
      "Ġrent": 5304,
      "Ġveget": 5305,
      "Ġadvert": 5306,
      "pon": 5307,
      "Ġneighborhood": 5308,
      "Ġvehicle": 5309,
      "Ġfest": 5310,
      "Ġunivers": 5311,
      "Ġfilled": 5312,
      "Ġsolving": 5313,
      "Ġinfinity": 5314,
      "Al": 5315,
      "aint": 5316,
      "ĠCheck": 5317,
      "ounds": 5318,
      "Ġintuitive": 5319,
      "Ġmultiplic": 5320,
      "Ġpreviously": 5321,
      "ifact": 5322,
      "otic": 5323,
      "Ġago": 5324,
      "Ġweaknesses": 5325,
      "what": 5326,
      "Ġwindow": 5327,
      "Ġrespectively": 5328,
      "ĠĠĠĠĠĠĠĠĠĠĠĠĠĠĠĠĠĠĠĠĠĠĠ": 5329,
      "atur": 5330,
      "Ġpodcast": 5331,
      "mission": 5332,
      "2248": 5333,
      "nfrom": 5334,
      "nPlease": 5335,
      "ĠJack": 5336,
      "Ġexcell": 5337,
      "Ġinitially": 5338,
      "ĠSpec": 5339,
      "Ġdisapp": 5340,
      "backs": 5341,
      "Ġincredible": 5342,
      "Ġpartnership": 5343,
      "effect": 5344,
      "Ġupdated": 5345,
      "Ġexamining": 5346,
      "Ġhimself": 5347,
      "Ġleadership": 5348,
      "Ġhyd": 5349,
      "ĠRec": 5350,
      "Ġpoor": 5351,
      "Ġ27": 5352,
      "ĠPar": 5353,
      "obj": 5354,
      "Ġprove": 5355,
      "ously": 5356,
      "Ġreduction": 5357,
      "ands": 5358,
      "Ġbegins": 5359,
      "valu": 5360,
      "Ġdoub": 5361,
      "Ġinsurance": 5362,
      "Ġseemed": 5363,
      "Ġregardless": 5364,
      "Ġflu": 5365,
      "Ġcater": 5366,
      "Ġ32": 5367,
      "Ġq": 5368,
      "ok": 5369,
      "Ġye": 5370,
      "ION": 5371,
      "Ġrecognizing": 5372,
      "Ġspeaking": 5373,
      "ĠThink": 5374,
      "Ġfather": 5375,
      "asy": 5376,
      "Ġfrust": 5377,
      "Ġbreaking": 5378,
      "Ġwealth": 5379,
      "Ġalmost": 5380,
      "Ġserves": 5381,
      "Ġfreedom": 5382,
      "ĠNational": 5383,
      "Ġsole": 5384,
      "isc": 5385,
      "Ġextremely": 5386,
      "Ġlowercase": 5387,
      "Ġshowcase": 5388,
      "ague": 5389,
      "Ġpassive": 5390,
      "Ġexplanations": 5391,
      "Ġrewritten": 5392,
      "Ġresonates": 5393,
      "Ġstars": 5394,
      "Ġcentury": 5395,
      "cks": 5396,
      "Ġfine": 5397,
      "ai": 5398,
      "Ġcontributing": 5399,
      "Ġrock": 5400,
      "field": 5401,
      "Ġer": 5402,
      "ocal": 5403,
      "Ġdestination": 5404,
      "Ġtempor": 5405,
      "Ġstable": 5406,
      "Ġremoving": 5407,
      "False": 5408,
      "nif": 5409,
      "Ġguarant": 5410,
      "Ġimprovements": 5411,
      "._": 5412,
      "function": 5413,
      "Ġanticip": 5414,
      "herence": 5415,
      "Ġmole": 5416,
      "Script": 5417,
      "Ġinfrastructure": 5418,
      "Ġskin": 5419,
      "position": 5420,
      "98": 5421,
      "squared": 5422,
      "Ġorigin": 5423,
      "Ġimply": 5424,
      "node": 5425,
      "ĠRom": 5426,
      "ĠRep": 5427,
      "telling": 5428,
      "36": 5429,
      "Create": 5430,
      "....": 5431,
      "structions": 5432,
      "ressive": 5433,
      "Ġpronouns": 5434,
      "Ġcream": 5435,
      "cho": 5436,
      "Ġcomplement": 5437,
      "ĠThom": 5438,
      "Ġcomplexities": 5439,
      "Ġplayers": 5440,
      "ĠCor": 5441,
      "Ġconfront": 5442,
      "ners": 5443,
      "Ġreputation": 5444,
      "Ġcert": 5445,
      "Ġglass": 5446,
      "vest": 5447,
      "inner": 5448,
      "Ġclosed": 5449,
      "That": 5450,
      "Ġ['": 5451,
      "Ġsignal": 5452,
      "Ġgrammat": 5453,
      "Ġavoiding": 5454,
      "Ġdecline": 5455,
      "Ġoppos": 5456,
      "Ġdenomin": 5457,
      "Ġforces": 5458,
      "Ġbecoming": 5459,
      "Ġsympt": 5460,
      "orial": 5461,
      "ĠTest": 5462,
      "Ġvital": 5463,
      "Ġgenerated": 5464,
      "Ġnoticed": 5465,
      "Ġcritic": 5466,
      "iosity": 5467,
      "Ġgal": 5468,
      "osis": 5469,
      "Ġcareful": 5470,
      "Ġcouple": 5471,
      "Ġscope": 5472,
      "96": 5473,
      "Ġwaiting": 5474,
      "Ġrecip": 5475,
      "Ġpassed": 5476,
      "ball": 5477,
      "person": 5478,
      "Ġfirm": 5479,
      "roud": 5480,
      "td": 5481,
      "sqrt": 5482,
      "Ġfab": 5483,
      "std": 5484,
      "df": 5485,
      "Ġstandards": 5486,
      "Qu": 5487,
      "Ġideal": 5488,
      "flow": 5489,
      "Ġintervals": 5490,
      "wood": 5491,
      "Ġexcitement": 5492,
      "prime": 5493,
      "Ġaspir": 5494,
      "ener": 5495,
      "Ġsem": 5496,
      "Ġemiss": 5497,
      "Ġdriven": 5498,
      "Ġrevers": 5499,
      "tics": 5500,
      "Ġexclusive": 5501,
      "Ġcategorical": 5502,
      "Ġconstraints": 5503,
      "nIm": 5504,
      "Ġinitiatives": 5505,
      "nCom": 5506,
      "Ġdatabase": 5507,
      "chen": 5508,
      "strict": 5509,
      "Ġwait": 5510,
      "Ġartist": 5511,
      "rem": 5512,
      "Ġshorter": 5513,
      "organ": 5514,
      "Ġstaying": 5515,
      "Ġauthority": 5516,
      "json": 5517,
      "Ġcompetitive": 5518,
      "Ġnickel": 5519,
      "Ġconj": 5520,
      "Ġinvestigation": 5521,
      "var": 5522,
      "range": 5523,
      "Ġalt": 5524,
      "Ġinconsist": 5525,
      "igma": 5526,
      "Ġresidual": 5527,
      "ML": 5528,
      "Ġsell": 5529,
      "ros": 5530,
      "izz": 5531,
      "Ġbin": 5532,
      "water": 5533,
      "Ġoil": 5534,
      "Ġoutdoor": 5535,
      "Ġhom": 5536,
      "ĠInclude": 5537,
      "Dear": 5538,
      "des": 5539,
      "lihood": 5540,
      "Ġbehaviors": 5541,
      "Ġrows": 5542,
      "\\/\\": 5543,
      "Ġsplit": 5544,
      "Ġhint": 5545,
      "SA": 5546,
      "Ġinverse": 5547,
      "Ġdynamics": 5548,
      "Ġovercome": 5549,
      "ĠMed": 5550,
      "Ġvehicles": 5551,
      "Ġansw": 5552,
      "Ġinequality": 5553,
      "Ġrelease": 5554,
      "Ġmotivation": 5555,
      "urb": 5556,
      "Ġparalle": 5557,
      "__(": 5558,
      "Ġmaybe": 5559,
      "Ġrelies": 5560,
      "Ġregarding": 5561,
      "Ġ<\\/": 5562,
      "Ġsizes": 5563,
      "}^": 5564,
      "Given": 5565,
      "Ġbackstory": 5566,
      "agers": 5567,
      "empty": 5568,
      "Ġ500": 5569,
      "Ġformer": 5570,
      "elta": 5571,
      "Ġsave": 5572,
      "Ġinputs": 5573,
      "97": 5574,
      "Ġhop": 5575,
      "Ġcaused": 5576,
      "ĠAN": 5577,
      "Ġgreatly": 5578,
      "Ġoverwhelming": 5579,
      "Ġhousehold": 5580,
      "Ġteams": 5581,
      "QR": 5582,
      "Ġambigu": 5583,
      "Ġfuel": 5584,
      "}_": 5585,
      "ĠStud": 5586,
      "Ġreached": 5587,
      "minist": 5588,
      "ĠList": 5589,
      "Ġprinciple": 5590,
      "Ġworkshops": 5591,
      "Ġprote": 5592,
      "Ġentertain": 5593,
      "Ġtargeted": 5594,
      "pat": 5595,
      "ĠFibonacci": 5596,
      "Ġcuriosity": 5597,
      "Ġpresenting": 5598,
      "Ġtalking": 5599,
      "ronic": 5600,
      "CA": 5601,
      "Ġ($": 5602,
      "Ġfactorial": 5603,
      "aughter": 5604,
      "Ġsupply": 5605,
      "Ġmother": 5606,
      "Ġrhyth": 5607,
      "ishes": 5608,
      "Ġlie": 5609,
      "Ġgall": 5610,
      "Ġsampling": 5611,
      "Ġfaster": 5612,
      "Ġvolunte": 5613,
      "Ġlinked": 5614,
      "can": 5615,
      "ĠIdentify": 5616,
      "Ġdetective": 5617,
      "Ġtracking": 5618,
      "Ġcolumns": 5619,
      "rs": 5620,
      "][": 5621,
      "Ġlengths": 5622,
      "MA": 5623,
      "Ġinstr": 5624,
      "Ġ36": 5625,
      "Ġexperim": 5626,
      "Ġconservation": 5627,
      "Ġequals": 5628,
      "Ġenvironments": 5629,
      "Ġboost": 5630,
      "tering": 5631,
      "Ġobservation": 5632,
      "Ġcorrelations": 5633,
      "Ġguess": 5634,
      "Ġquantum": 5635,
      "Ġcommonly": 5636,
      "Ġlifest": 5637,
      "Ġfloor": 5638,
      "Ġwalls": 5639,
      "Ġdecl": 5640,
      "Ġforecast": 5641,
      "Ġconsideration": 5642,
      "Ġpunctuation": 5643,
      "Ġlighter": 5644,
      "iny": 5645,
      "Ġawareness": 5646,
      "rought": 5647,
      "Ġgreatest": 5648,
      "Ġfacing": 5649,
      "Ġbelong": 5650,
      "Ġinj": 5651,
      "Ġfamilies": 5652,
      "rays": 5653,
      "itative": 5654,
      "Ġstrategic": 5655,
      "Ġfost": 5656,
      "ificial": 5657,
      "oll": 5658,
      "He": 5659,
      "Ġrenewable": 5660,
      "Ġavailability": 5661,
      "Ġconstructive": 5662,
      "ucl": 5663,
      "Ġjobs": 5664,
      "Ġreviews": 5665,
      "Ġdenoted": 5666,
      "Ġscreen": 5667,
      "ĠUniversity": 5668,
      "Ġmeal": 5669,
      "Ġviol": 5670,
      "Ġcapacity": 5671,
      "Ġchemical": 5672,
      "ĠResearch": 5673,
      "Ġshall": 5674,
      "IT": 5675,
      "Ġduplicate": 5676,
      "Hey": 5677,
      "Ġexperts": 5678,
      "poses": 5679,
      "Ġseeing": 5680,
      "Ġestablishing": 5681,
      "ĠDevelop": 5682,
      "Ġcontract": 5683,
      "ĠJSON": 5684,
      "Ġpersu": 5685,
      "Ġartifact": 5686,
      "Ġfacilitate": 5687,
      "John": 5688,
      "Ġreliability": 5689,
      "Ġdivers": 5690,
      "Ġtimeline": 5691,
      "ĠWest": 5692,
      "Ġfaced": 5693,
      "31": 5694,
      "amma": 5695,
      "ilarly": 5696,
      "Ġconcerned": 5697,
      "Ġstar": 5698,
      "nGiven": 5699,
      "nderstanding": 5700,
      "Ġexpansion": 5701,
      "acking": 5702,
      "02": 5703,
      "Ġpaths": 5704,
      "Ġguidelines": 5705,
      "Ġspecialized": 5706,
      "Ġexcess": 5707,
      "Ġdict": 5708,
      "Ġworry": 5709,
      "nel": 5710,
      "ought": 5711,
      "Ġlabor": 5712,
      "Ġcollected": 5713,
      "Ġloyalty": 5714,
      "Ġmeditation": 5715,
      "ĠGe": 5716,
      "asive": 5717,
      "vable": 5718,
      "ĠGoogle": 5719,
      "Ġaccomplish": 5720,
      "Ġcounts": 5721,
      "Ġmobile": 5722,
      "Ġentry": 5723,
      "Ġlocated": 5724,
      "Ġstores": 5725,
      "Ġperiods": 5726,
      "Ġinstit": 5727,
      "auses": 5728,
      "fall": 5729,
      "Ġrepresentative": 5730,
      "Ġpi": 5731,
      "Ġdesires": 5732,
      "Ġhoriz": 5733,
      "Ġnoise": 5734,
      "Re": 5735,
      "ĠChrist": 5736,
      "Ġformed": 5737,
      "Ġreaction": 5738,
      "roid": 5739,
      "Ġsubse": 5740,
      "Ġrom": 5741,
      "begin": 5742,
      "Ġinvent": 5743,
      "Ġexpos": 5744,
      "Ġnormally": 5745,
      "Ġlistening": 5746,
      "Ġconsistently": 5747,
      "ĠEns": 5748,
      "Ġdollars": 5749,
      "Ġflavor": 5750,
      "Ġdrink": 5751,
      "Ġsou": 5752,
      "entence": 5753,
      "Ġeleg": 5754,
      "Ġoverly": 5755,
      "random": 5756,
      "Ġrig": 5757,
      "Ġbeach": 5758,
      "Ġstorytelling": 5759,
      "Use": 5760,
      "Ġalgebraic": 5761,
      "Ġiterates": 5762,
      "how": 5763,
      "Ġcm": 5764,
      "Ġphotos": 5765,
      "Ġflat": 5766,
      "Ġcars": 5767,
      "ĠSub": 5768,
      "Ġreported": 5769,
      "Ġsensory": 5770,
      "]`": 5771,
      "Ġaffects": 5772,
      "Ġselected": 5773,
      "rec": 5774,
      "Ġdish": 5775,
      "Ġmovie": 5776,
      "94": 5777,
      "Ġhistogram": 5778,
      "Ġkitchen": 5779,
      "Ġmatches": 5780,
      "angles": 5781,
      "ĠTake": 5782,
      "Ġbulbs": 5783,
      "avid": 5784,
      "Ġtwist": 5785,
      "Ġthrow": 5786,
      "Ġinteraction": 5787,
      "Ind": 5788,
      "npublic": 5789,
      "Ġempathy": 5790,
      "Ġsymptoms": 5791,
      "Ġrein": 5792,
      "Ġflaws": 5793,
      "ET": 5794,
      "Ġloved": 5795,
      "Ġbond": 5796,
      "Ġhotel": 5797,
      "Ġhun": 5798,
      "Ġsessions": 5799,
      "There": 5800,
      "Ġsamples": 5801,
      "ĠJust": 5802,
      "pes": 5803,
      "nWhile": 5804,
      "Ġvisualizations": 5805,
      "rating": 5806,
      "Ġstruggles": 5807,
      "Ġanimal": 5808,
      "Ġbecame": 5809,
      "ES": 5810,
      "Id": 5811,
      "Ġpret": 5812,
      "Ġinspect": 5813,
      "Ġangles": 5814,
      "nfor": 5815,
      "itely": 5816,
      "inked": 5817,
      "Ġmodified": 5818,
      "ressed": 5819,
      "Ġfight": 5820,
      "Ġretaining": 5821,
      "Ġfunding": 5822,
      "frame": 5823,
      "Ġseasonal": 5824,
      "*\\": 5825,
      "Ġregularly": 5826,
      "Ġtried": 5827,
      "192": 5828,
      "Ġassumes": 5829,
      "Ġpositions": 5830,
      "Ġpolice": 5831,
      "^(-": 5832,
      "trans": 5833,
      "rest": 5834,
      "mu": 5835,
      "Ġfears": 5836,
      "Ġpen": 5837,
      "Ġpurposes": 5838,
      "Ġskill": 5839,
      "Ġowner": 5840,
      "Ġpredictions": 5841,
      "Ġproperly": 5842,
      "Ġintersection": 5843,
      "amples": 5844,
      "Ġbill": 5845,
      "abol": 5846,
      "Ġfriendship": 5847,
      "Ġfaith": 5848,
      "bject": 5849,
      "which": 5850,
      "Ġraised": 5851,
      "Ġqueue": 5852,
      "herent": 5853,
      "Ġking": 5854,
      "Ġentirely": 5855,
      "ĠCent": 5856,
      "Ġsweet": 5857,
      "Ġdx": 5858,
      "Ġconfig": 5859,
      "Ġexerc": 5860,
      "Ġrealm": 5861,
      "Ġwalking": 5862,
      "abling": 5863,
      "Ġbrid": 5864,
      "while": 5865,
      "ĠRed": 5866,
      "Ġpricing": 5867,
      "Ġvillage": 5868,
      "Ġleader": 5869,
      "ien": 5870,
      "ira": 5871,
      "Ġcredit": 5872,
      "Ġabstract": 5873,
      "top": 5874,
      "Ġincredibly": 5875,
      "ourage": 5876,
      "Ġson": 5877,
      "leg": 5878,
      "Ġclub": 5879,
      "ĠAlso": 5880,
      "ails": 5881,
      "Ġlimits": 5882,
      "Ġinh": 5883,
      "Ġlabel": 5884,
      "Ġfluct": 5885,
      "Ġcopy": 5886,
      "PI": 5887,
      "Ġcollaborative": 5888,
      "atically": 5889,
      "Ġcapabilities": 5890,
      "Ġcrime": 5891,
      "Ġcit": 5892,
      "Ġlifestyle": 5893,
      "aten": 5894,
      "Ġbreaks": 5895,
      ",'": 5896,
      "ĠCalculate": 5897,
      "udf": 5898,
      "group": 5899,
      "ĠCar": 5900,
      "Ġfat": 5901,
      "Ġappeal": 5902,
      "Ġfailure": 5903,
      "Ġexchange": 5904,
      "...\\": 5905,
      "Ġpet": 5906,
      "Ġdiscovered": 5907,
      "Ġhappiness": 5908,
      "86": 5909,
      ");": 5910,
      "Ġfoster": 5911,
      "ĠAm": 5912,
      "Ġdro": 5913,
      "Ġtheme": 5914,
      "free": 5915,
      "Ġtough": 5916,
      "Ġincreasingly": 5917,
      "Ġwhose": 5918,
      "Ġmessages": 5919,
      "Ġpace": 5920,
      "Ġsevere": 5921,
      "format": 5922,
      "Ġimplemented": 5923,
      "='": 5924,
      "evelop": 5925,
      "Ġrestrict": 5926,
      "Ġmotion": 5927,
      "aught": 5928,
      "ĠMe": 5929,
      "Ġcooking": 5930,
      "Ġdictionaries": 5931,
      "Ġedits": 5932,
      "olved": 5933,
      "Ġmargin": 5934,
      "Ġessentially": 5935,
      "Ġaims": 5936,
      "Ġcompetition": 5937,
      "bar": 5938,
      "Ġcoherence": 5939,
      "Ġexperiencing": 5940,
      "77": 5941,
      "Ġraises": 5942,
      "Ġexhibit": 5943,
      "Ġabsor": 5944,
      "Ġreadability": 5945,
      "Ġinternational": 5946,
      "Ġorganic": 5947,
      "Ġeconomy": 5948,
      "Ġvisiting": 5949,
      "Ġevening": 5950,
      "Ġappropri": 5951,
      "Ġsubset": 5952,
      "];\\": 5953,
      "Ġscan": 5954,
      "ĠGerm": 5955,
      "ester": 5956,
      "Ġexcellent": 5957,
      "nExample": 5958,
      "anch": 5959,
      "Ġsubstant": 5960,
      "Ġheavy": 5961,
      "Ġaspirations": 5962,
      "Ġsli": 5963,
      "ferent": 5964,
      "Ġmajority": 5965,
      "Ġrewrite": 5966,
      "ĠPe": 5967,
      "nV": 5968,
      "Ġcredibility": 5969,
      "ĠChar": 5970,
      "Ġdetermining": 5971,
      "Int": 5972,
      "ĠMod": 5973,
      "Ġlikelihood": 5974,
      "idents": 5975,
      "eries": 5976,
      "Ġscal": 5977,
      "Ġpaint": 5978,
      "Ġexecut": 5979,
      "long": 5980,
      "Ġroll": 5981,
      "Ġwillingness": 5982,
      "Ġsky": 5983,
      "orrow": 5984,
      "Ġdiscussions": 5985,
      "Ġreferred": 5986,
      "Ġmodeling": 5987,
      "ĠOnce": 5988,
      "2264": 5989,
      "Ġcompleted": 5990,
      "Ġchef": 5991,
      "Ġtraits": 5992,
      "Ġhospital": 5993,
      "Ġencounter": 5994,
      "Ġschools": 5995,
      "DE": 5996,
      "Ġload": 5997,
      "Ġmindset": 5998,
      "Ġhappens": 5999,
      "azing": 6000,
      "Ġ(\\\"": 6001,
      "Ġoffic": 6002,
      "Ġverify": 6003,
      "sit": 6004,
      "Ġcy": 6005,
      "While": 6006,
      "gy": 6007,
      "Ġreference": 6008,
      "cs": 6009,
      "Ġarrive": 6010,
      "Ġnumerical": 6011,
      "nMy": 6012,
      "Ġorg": 6013,
      "Ġmoral": 6014,
      "Ġcivil": 6015,
      "Ġguard": 6016,
      "Ġagreement": 6017,
      "ĠJavaScript": 6018,
      "\":\"(": 6019,
      "Ġcollaborate": 6020,
      "pow": 6021,
      "Ġarise": 6022,
      "reaching": 6023,
      "Ġbak": 6024,
      "Find": 6025,
      "flo": 6026,
      "Ġstructured": 6027,
      "gence": 6028,
      "den": 6029,
      "mber": 6030,
      "Ġmonitoring": 6031,
      "jav": 6032,
      "Ġnotes": 6033,
      "Ġdishes": 6034,
      "Ġfraction": 6035,
      "arithm": 6036,
      "gram": 6037,
      "Ġemissions": 6038,
      "Ġfabric": 6039,
      "Ġmusc": 6040,
      "negative": 6041,
      "nAfter": 6042,
      "44": 6043,
      "stit": 6044,
      "Ġmotivated": 6045,
      "nWith": 6046,
      "gar": 6047,
      "antic": 6048,
      "Ġphase": 6049,
      "Ġfrequently": 6050,
      "Ġdeeply": 6051,
      "\\\">\\": 6052,
      "Ġtwice": 6053,
      "ĠUs": 6054,
      "Ġimpacts": 6055,
      "Ġmonitor": 6056,
      "gments": 6057,
      "Ġpuzzle": 6058,
      "ĠGree": 6059,
      "Ġstrange": 6060,
      "Ġobtained": 6061,
      "By": 6062,
      "Ġstreet": 6063,
      "Ġofficial": 6064,
      "Ġdenominator": 6065,
      "Ġseconds": 6066,
      "Ġalternatives": 6067,
      "Ġdiss": 6068,
      "Ġscientists": 6069,
      "Ġcontributions": 6070,
      "Ġenables": 6071,
      "Ġcombine": 6072,
      "\":\"*": 6073,
      ">>": 6074,
      "ĠLook": 6075,
      "instorm": 6076,
      "Ġetc": 6077,
      "reet": 6078,
      "Ġ26": 6079,
      "first": 6080,
      "Ġrecyc": 6081,
      "Ġphilosoph": 6082,
      "Ġwife": 6083,
      "Ġcohesive": 6084,
      "lock": 6085,
      "\\/(": 6086,
      "Ġnerv": 6087,
      "Ġsquared": 6088,
      "matrix": 6089,
      "Ġgrant": 6090,
      "paramet": 6091,
      "Ġmonthly": 6092,
      "ĠFrom": 6093,
      "Ġrepet": 6094,
      "gon": 6095,
      "pace": 6096,
      "Ġknew": 6097,
      "Ġinvested": 6098,
      "Ġsupports": 6099,
      "Ġvictim": 6100,
      "No": 6101,
      "ashion": 6102,
      "56": 6103,
      "Ġclarify": 6104,
      "Ġinvolving": 6105,
      "ĠAf": 6106,
      "points": 6107,
      "Ġupcoming": 6108,
      "Ġevaluation": 6109,
      "Ġdirectory": 6110,
      "Ġbank": 6111,
      "Ġmood": 6112,
      "ĠSec": 6113,
      "Ġhistor": 6114,
      "Ġsolely": 6115,
      "Ġnuc": 6116,
      "asp": 6117,
      "Ġcommitted": 6118,
      "Ġlaws": 6119,
      "Ġproceed": 6120,
      "Sc": 6121,
      "Ġsched": 6122,
      "Ġresilience": 6123,
      "Ġconveying": 6124,
      "Ġworkers": 6125,
      "Ġminim": 6126,
      "Ġadults": 6127,
      "Ġenabling": 6128,
      "Ġdraft": 6129,
      "Ġsmell": 6130,
      "Ġtalent": 6131,
      "Ġteacher": 6132,
      "Ġrelaxation": 6133,
      "Ġpremise": 6134,
      "Ġdram": 6135,
      "redict": 6136,
      "connect": 6137,
      "Ġselecting": 6138,
      "digit": 6139,
      "reshold": 6140,
      "ĠHT": 6141,
      "Ġflavors": 6142,
      "Ġbasis": 6143,
      "Implement": 6144,
      "Ġacknowledging": 6145,
      "Ġbatter": 6146,
      "Ġrecords": 6147,
      "Ġresearcher": 6148,
      "Based": 6149,
      "Ġprobabilities": 6150,
      "Ġcrypt": 6151,
      "Ġunp": 6152,
      "Ġrelying": 6153,
      "Ġcalculations": 6154,
      "Ġhit": 6155,
      "phi": 6156,
      "Ġsimplifies": 6157,
      "Ġpalindrome": 6158,
      "ĠGod": 6159,
      "Ġimpression": 6160,
      "Ġunfold": 6161,
      "Ġoutline": 6162,
      "Ġparticipate": 6163,
      "Ġforced": 6164,
      "Ġencount": 6165,
      "Ġescape": 6166,
      "rat": 6167,
      "Ġinternet": 6168,
      "check": 6169,
      "Ġanswers": 6170,
      "pson": 6171,
      "aligned": 6172,
      "Ġheld": 6173,
      "Ġpul": 6174,
      "Ġmur": 6175,
      "Ġemergency": 6176,
      "Ġforget": 6177,
      "Ġperformed": 6178,
      "Ġemotion": 6179,
      "Ġgalax": 6180,
      "Ġjustify": 6181,
      "Ġstunning": 6182,
      "mathbb": 6183,
      "Ġranges": 6184,
      "error": 6185,
      "Ġcomposition": 6186,
      "Ġdiscussed": 6187,
      "PA": 6188,
      "Ġspect": 6189,
      "Ġyields": 6190,
      "Line": 6191,
      "stat": 6192,
      "aming": 6193,
      "icians": 6194,
      "89": 6195,
      "Ġpermut": 6196,
      "Ġfiction": 6197,
      "ulating": 6198,
      "spec": 6199,
      "Ġcoast": 6200,
      "Ġic": 6201,
      "Ġ{'": 6202,
      "ĠString": 6203,
      "rial": 6204,
      "Ġintegrate": 6205,
      "ĠPart": 6206,
      "ĠEl": 6207,
      "andard": 6208,
      "Ġevolution": 6209,
      "[\\\"": 6210,
      "eric": 6211,
      "Ġstret": 6212,
      "ruits": 6213,
      "relation": 6214,
      "Ġmechanisms": 6215,
      "Ġvectors": 6216,
      "Ġnested": 6217,
      "unic": 6218,
      "Ġpainting": 6219,
      "Ġstanding": 6220,
      "Ġstreets": 6221,
      "Ġagg": 6222,
      "nint": 6223,
      "Ġassuming": 6224,
      "Ġpreserve": 6225,
      "late": 6226,
      "Ġcalculus": 6227,
      "Ġlasting": 6228,
      "Ġlogarithm": 6229,
      "Ġdiagn": 6230,
      "Ġrewards": 6231,
      "Ġadvertising": 6232,
      "Ġmagnitude": 6233,
      "ĠBar": 6234,
      "Ġtech": 6235,
      "que": 6236,
      "####": 6237,
      "=\\\\": 6238,
      "quent": 6239,
      "ĠAcc": 6240,
      "Ġcomprom": 6241,
      "Ġastr": 6242,
      "Ġfaces": 6243,
      "Ġdrives": 6244,
      "Ġestimates": 6245,
      "ĠSouth": 6246,
      "Ġsegment": 6247,
      "Ġadminist": 6248,
      "ĠTheir": 6249,
      "Ġeventually": 6250,
      "then": 6251,
      "Ġcoun": 6252,
      "Ġresolve": 6253,
      "Ġpeak": 6254,
      "eq": 6255,
      "taking": 6256,
      "Ġcompute": 6257,
      "Ġsession": 6258,
      "Ġdomin": 6259,
      "Ġwaves": 6260,
      "II": 6261,
      "Ġinstructions": 6262,
      "\\/\\/\\/\\/": 6263,
      "ossible": 6264,
      "inction": 6265,
      "Ġstead": 6266,
      "Ġprioritizing": 6267,
      "leading": 6268,
      "Ġenum": 6269,
      "Ġinvalid": 6270,
      "ondon": 6271,
      "Ġmel": 6272,
      "ĠDep": 6273,
      "ribe": 6274,
      "%\\": 6275,
      "Ġcup": 6276,
      "Ġeth": 6277,
      "see": 6278,
      "ĠSmith": 6279,
      "Ġsyntax": 6280,
      "umn": 6281,
      "Ġtells": 6282,
      "Ġproposal": 6283,
      "icks": 6284,
      "tex": 6285,
      "Ġopinions": 6286,
      "semb": 6287,
      "Ġplayed": 6288,
      "Ġnetworks": 6289,
      "ĠEucl": 6290,
      "Ġmeasured": 6291,
      "Ġstyles": 6292,
      "cutive": 6293,
      "Ġrecognition": 6294,
      "Ġsettings": 6295,
      "Ġsong": 6296,
      "})": 6297,
      "Ġtends": 6298,
      "Ġselling": 6299,
      "Ġidentified": 6300,
      "Ġreminder": 6301,
      "Ġduplicates": 6302,
      "Class": 6303,
      "Ġskilled": 6304,
      "Ġdivisor": 6305,
      "With": 6306,
      "ervice": 6307,
      "iam": 6308,
      "Ġrolling": 6309,
      "Ġquart": 6310,
      "Ġgenerating": 6311,
      "Ġwriters": 6312,
      "Ġdry": 6313,
      "\\\\\\\\": 6314,
      "IS": 6315,
      "Ġcultiv": 6316,
      "front": 6317,
      "nswer": 6318,
      "Ġbrainstorm": 6319,
      "Ġshopping": 6320,
      "iform": 6321,
      "ĠRemember": 6322,
      "Ġmetal": 6323,
      "88": 6324,
      "Ġblend": 6325,
      "Ġfewer": 6326,
      "Ġsymmetry": 6327,
      "Ġneutral": 6328,
      "Ġvalidate": 6329,
      "eness": 6330,
      "Ġsupported": 6331,
      "Ġcaught": 6332,
      "lin": 6333,
      "dat": 6334,
      "sorted": 6335,
      "tu": 6336,
      "Ġintense": 6337,
      "endence": 6338,
      "code": 6339,
      "Ġopposite": 6340,
      "`.\",": 6341,
      "la": 6342,
      "Ġhair": 6343,
      "37": 6344,
      "Ġconcision": 6345,
      "iers": 6346,
      "Ġidi": 6347,
      "gl": 6348,
      "keys": 6349,
      "ĠEnsure": 6350,
      "uge": 6351,
      "Ġinfer": 6352,
      "nb": 6353,
      "Ġdelivery": 6354,
      "\":\"\\\"": 6355,
      "impl": 6356,
      "Ġwear": 6357,
      "Ġlowest": 6358,
      "iance": 6359,
      "Ġapps": 6360,
      "Ġdemonstrates": 6361,
      "Ġsearching": 6362,
      "ĠĠĠĠĠĠĠĠĠĠ": 6363,
      "Ġten": 6364,
      "ĠMar": 6365,
      ":\",": 6366,
      "Ġinvesting": 6367,
      "uis": 6368,
      "Ġinspiration": 6369,
      "Ġdim": 6370,
      "Ġreflection": 6371,
      "Ġcandidate": 6372,
      "Ġcorner": 6373,
      "Ġenjoyable": 6374,
      "ĠEd": 6375,
      "iant": 6376,
      "Ġcultures": 6377,
      "Ġcancer": 6378,
      "Ġemphasis": 6379,
      "Ġachieving": 6380,
      "']\\": 6381,
      "-\\\\": 6382,
      "Ġsac": 6383,
      "idean": 6384,
      "Ġrephrase": 6385,
      "Ġlux": 6386,
      "ĠIntern": 6387,
      "formation": 6388,
      "ĠBritish": 6389,
      "Ġmentors": 6390,
      "Ġrank": 6391,
      "ĠMichael": 6392,
      "Ġreact": 6393,
      "Ġperce": 6394,
      "Ġ120": 6395,
      "heses": 6396,
      "mitted": 6397,
      "().": 6398,
      "App": 6399,
      "Ġtailored": 6400,
      "Ġartificial": 6401,
      "ablish": 6402,
      "nes": 6403,
      "Ġrevealing": 6404,
      "ricult": 6405,
      "Ġamounts": 6406,
      "Ġeco": 6407,
      "ascript": 6408,
      "Ġworkload": 6409,
      "plete": 6410,
      "Ġecosystems": 6411,
      "Ph": 6412,
      "Ġhelped": 6413,
      "Ġprotection": 6414,
      "nStart": 6415,
      "Ġmale": 6416,
      "Ġrestaurants": 6417,
      "\\\".\\": 6418,
      "Ġ150": 6419,
      "Ġcorpor": 6420,
      "Ġremark": 6421,
      "Ġunlike": 6422,
      "Ġmeetings": 6423,
      "RL": 6424,
      ":\\\",": 6425,
      "ĠDef": 6426,
      "eted": 6427,
      "66": 6428,
      "uary": 6429,
      "Ġnotable": 6430,
      "xygen": 6431,
      "Ġconvenient": 6432,
      "Ġboy": 6433,
      "Ġtack": 6434,
      "host": 6435,
      "mark": 6436,
      "cons": 6437,
      "idget": 6438,
      "Ġperp": 6439,
      "Ġarrangements": 6440,
      "Ġarchitecture": 6441,
      "Ġclus": 6442,
      "Ġcontexts": 6443,
      "ĠAct": 6444,
      "Ġdefining": 6445,
      "Ġcoordinates": 6446,
      "Ġnational": 6447,
      "ĠBob": 6448,
      "heit": 6449,
      "Ġseam": 6450,
      "ĠMain": 6451,
      "hern": 6452,
      "pring": 6453,
      "AL": 6454,
      "Ġtaste": 6455,
      "Ġbrought": 6456,
      "rier": 6457,
      "txt": 6458,
      "ĠPark": 6459,
      "ĠNorth": 6460,
      "url": 6461,
      "Ġparallel": 6462,
      "nKeep": 6463,
      "Ġexceed": 6464,
      "ĠWar": 6465,
      "Ġhomes": 6466,
      "nAlex": 6467,
      "Ġseparated": 6468,
      "Ġequipped": 6469,
      "ĠMars": 6470,
      "ahren": 6471,
      "state": 6472,
      "Ġmultiples": 6473,
      "Ġoptimal": 6474,
      "ishing": 6475,
      "Ġcong": 6476,
      "Ġglow": 6477,
      "Ġli": 6478,
      "Ġcontinued": 6479,
      "rote": 6480,
      "Ġpollution": 6481,
      "uler": 6482,
      "ĠJames": 6483,
      "run": 6484,
      "uming": 6485,
      "Ġpassing": 6486,
      "ahrenheit": 6487,
      "Ġhesit": 6488,
      "Ġcaptiv": 6489,
      "zing": 6490,
      "Ġgoods": 6491,
      "onnect": 6492,
      "ulated": 6493,
      "ĠRoman": 6494,
      "Ġmyth": 6495,
      "Ġpal": 6496,
      "Ġsand": 6497,
      "Ġdescribing": 6498,
      "Set": 6499,
      "Ġguest": 6500,
      "ĠTrans": 6501,
      "Ġopinion": 6502,
      "ĠRegular": 6503,
      "Ġdeadlines": 6504,
      "Ġkill": 6505,
      "Ġrectangle": 6506,
      "Ġgar": 6507,
      "Ġanalyst": 6508,
      "Ġsuccessfully": 6509,
      "Ġlever": 6510,
      "Ġsupervis": 6511,
      "Ġplaceholders": 6512,
      "ĠLondon": 6513,
      "Ġappropriate": 6514,
      "aust": 6515,
      "Ġimpossible": 6516,
      "Ġcrafting": 6517,
      "Ġdocuments": 6518,
      "Frame": 6519,
      "Ġwis": 6520,
      "Ġgeneration": 6521,
      "Ġfib": 6522,
      "javascript": 6523,
      "\\\":\\": 6524,
      "Ġregulations": 6525,
      "Ġenthusiasm": 6526,
      "Ġintroducing": 6527,
      "itor": 6528,
      "Ġembra": 6529,
      "pop": 6530,
      "Ġattending": 6531,
      "rip": 6532,
      "Ġownership": 6533,
      "Ġpretty": 6534,
      "px": 6535,
      "onomy": 6536,
      "Ġreduces": 6537,
      "Ġinsert": 6538,
      "sin": 6539,
      "Ġknowing": 6540,
      "Ġphenomenon": 6541,
      "}^{": 6542,
      "odies": 6543,
      "Ġsmile": 6544,
      "urch": 6545,
      "Ġconversion": 6546,
      "Ġactively": 6547,
      "Ġrelation": 6548,
      "mp": 6549,
      "Ġsen": 6550,
      "Ġmilit": 6551,
      "html": 6552,
      "Ġvideos": 6553,
      "87": 6554,
      "AM": 6555,
      "Ġconsecutive": 6556,
      "Ġpit": 6557,
      "Ġeat": 6558,
      "Ġorganized": 6559,
      "Un": 6560,
      "Ġitiner": 6561,
      "Ġpayment": 6562,
      "box": 6563,
      "abet": 6564,
      "Ġwine": 6565,
      "Ġwall": 6566,
      "ĠID": 6567,
      "current": 6568,
      "Ġgrammatical": 6569,
      "ql": 6570,
      "enty": 6571,
      "zero": 6572,
      "opy": 6573,
      "Ġleaders": 6574,
      "EM": 6575,
      "Ġsavings": 6576,
      "ĠFocus": 6577,
      "Ġmoon": 6578,
      "Ġparticles": 6579,
      "ĠNode": 6580,
      "Ġpostscript": 6581,
      "AC": 6582,
      "ĠOver": 6583,
      "Ġmeasurement": 6584,
      "2192": 6585,
      "amm": 6586,
      "Col": 6587,
      "Ġtrad": 6588,
      "Ġbright": 6589,
      "Ġbrow": 6590,
      "stac": 6591,
      "ĠReturns": 6592,
      "Ġspeech": 6593,
      "object": 6594,
      "eger": 6595,
      "wide": 6596,
      "oad": 6597,
      "Ġcomments": 6598,
      "Ġorders": 6599,
      "nLooking": 6600,
      "Ġtails": 6601,
      "nCan": 6602,
      "Ġmeta": 6603,
      "Ġincent": 6604,
      "nnumbers": 6605,
      "izer": 6606,
      "Ġegg": 6607,
      "Pr": 6608,
      "Ġfol": 6609,
      "Ġdoors": 6610,
      "efficient": 6611,
      "Ġgathering": 6612,
      "Ġmuseum": 6613,
      "Ġsubstantial": 6614,
      "Ġinfluenc": 6615,
      "Ġcreatures": 6616,
      "Ġoxygen": 6617,
      "Ġhash": 6618,
      "Ġnegot": 6619,
      "lder": 6620,
      "estion": 6621,
      "Ġheavily": 6622,
      "0435": 6623,
      "Ġrecall": 6624,
      "Ġhappened": 6625,
      "Ġurgency": 6626,
      "ĠProvide": 6627,
      "Ġrandomly": 6628,
      "names": 6629,
      "Ġevolve": 6630,
      "Ġcul": 6631,
      "Time": 6632,
      "dy": 6633,
      "Ġconcrete": 6634,
      "Ġelev": 6635,
      "Ġmoderate": 6636,
      "Ġoverwhelmed": 6637,
      "dec": 6638,
      "Ġscored": 6639,
      "Ġdispl": 6640,
      "Please": 6641,
      "Ġimmediate": 6642,
      "Ġoccup": 6643,
      "Ġaf": 6644,
      "Ġvoc": 6645,
      "Ġmaps": 6646,
      "peration": 6647,
      "duplic": 6648,
      "eds": 6649,
      "Ġfing": 6650,
      "Ġformation": 6651,
      "Ġprotocol": 6652,
      "matic": 6653,
      "ĠAb": 6654,
      "Ġeating": 6655,
      "Ġnutri": 6656,
      "Ġthrive": 6657,
      "Ġstone": 6658,
      "org": 6659,
      "Ġreports": 6660,
      "Ġmeant": 6661,
      "ĠGen": 6662,
      "span": 6663,
      "Ġband": 6664,
      "Ġtherefore": 6665,
      "Ġprop": 6666,
      "luding": 6667,
      "ĠUser": 6668,
      "Ġdescriptions": 6669,
      "Ġfluctuations": 6670,
      "Ġproud": 6671,
      "84": 6672,
      "Ġlessons": 6673,
      "Ġ((": 6674,
      "Ġwitness": 6675,
      "Ġtelling": 6676,
      "ducation": 6677,
      "rain": 6678,
      "Ġconsists": 6679,
      "ĠAB": 6680,
      "Ġjournal": 6681,
      "ometimes": 6682,
      "Ġattacks": 6683,
      "alysis": 6684,
      "Ġsunlight": 6685,
      "Ġseamless": 6686,
      "Ġdescribes": 6687,
      "Ġmachines": 6688,
      "Ġnums": 6689,
      "orous": 6690,
      "Ġproduced": 6691,
      "Ġinclusive": 6692,
      "Ġtransformations": 6693,
      "erc": 6694,
      "Ġobstac": 6695,
      "ingly": 6696,
      "Ġhiring": 6697,
      "Ġcharge": 6698,
      "Ġproposed": 6699,
      "ĠThompson": 6700,
      "Ġstrict": 6701,
      "Ġjoint": 6702,
      "ĠOff": 6703,
      "phone": 6704,
      "Ġattractions": 6705,
      "stablish": 6706,
      "powered": 6707,
      "gypt": 6708,
      "Ġeveryday": 6709,
      "Ġdeadline": 6710,
      "AB": 6711,
      "Ġconsole": 6712,
      "Ġfunctional": 6713,
      "ĠMin": 6714,
      "}$$": 6715,
      "Ġpassions": 6716,
      "Ġpreferred": 6717,
      "Ġboss": 6718,
      "Ġmatters": 6719,
      "ission": 6720,
      "Ġstored": 6721,
      "Ġmodular": 6722,
      "Ġrelate": 6723,
      "Ġimagine": 6724,
      "Ġwider": 6725,
      "Ġdistingu": 6726,
      "rolling": 6727,
      "One": 6728,
      "Ġbusy": 6729,
      "ĠDavid": 6730,
      "Ġ55": 6731,
      "Ġshel": 6732,
      "rew": 6733,
      "Ġpopulations": 6734,
      "Ġexceptional": 6735,
      "Ġanswering": 6736,
      "ĠAh": 6737,
      "Ġmisleading": 6738,
      "asts": 6739,
      "Ġflawed": 6740,
      "]:\\": 6741,
      "Ġasc": 6742,
      "ube": 6743,
      "rons": 6744,
      "Ġvel": 6745,
      "Ġanalytics": 6746,
      "Ġpaid": 6747,
      "Ġlock": 6748,
      "Ġstim": 6749,
      "Ġgenetic": 6750,
      "rict": 6751,
      "omatic": 6752,
      "ĠInter": 6753,
      "unk": 6754,
      "Ġfitness": 6755,
      "Ġthreshold": 6756,
      "rich": 6757,
      "earson": 6758,
      "ĠSQL": 6759,
      "Ġprocedures": 6760,
      "93": 6761,
      "Ġvent": 6762,
      "Ġeigen": 6763,
      "Ġattributes": 6764,
      "roph": 6765,
      "Ġdisrupt": 6766,
      "ĠAlternatively": 6767,
      "pm": 6768,
      "Ġcris": 6769,
      "Ġpurs": 6770,
      "process": 6771,
      "Ġthick": 6772,
      "Ġexercises": 6773,
      "ĠDoes": 6774,
      "Ext": 6775,
      "Ġcontrolled": 6776,
      "Ġ||": 6777,
      "PS": 6778,
      "Ġreb": 6779,
      "Ġdistinction": 6780,
      "Ġanom": 6781,
      "Ġcampaigns": 6782,
      "println": 6783,
      "ĠEuropean": 6784,
      "Ġlst": 6785,
      "Ġaccounts": 6786,
      "Ġpurchasing": 6787,
      "Ġvar": 6788,
      "Ġportion": 6789,
      "Ġunw": 6790,
      "Ġmetric": 6791,
      "Ġmassive": 6792,
      "hello": 6793,
      "Ġcas": 6794,
      "Ġgrid": 6795,
      "ician": 6796,
      "Ġexpensive": 6797,
      "220": 6798,
      "Ġretrie": 6799,
      "ĠFurthermore": 6800,
      "iable": 6801,
      "Ġdarkness": 6802,
      "Ġmomentum": 6803,
      "_\\\\": 6804,
      "ĠAg": 6805,
      "Ġrequests": 6806,
      "Ġmilest": 6807,
      "ama": 6808,
      "theta": 6809,
      "Ġchannel": 6810,
      "ĠTime": 6811,
      "`:": 6812,
      "Ġinches": 6813,
      "Ġforg": 6814,
      "ait": 6815,
      "iences": 6816,
      "ĠAust": 6817,
      "Ġresolution": 6818,
      "ĠFace": 6819,
      "Ġvertex": 6820,
      "uce": 6821,
      "Ġoccurred": 6822,
      "Ġtuples": 6823,
      "nUse": 6824,
      "Ġfemale": 6825,
      "width": 6826,
      "amin": 6827,
      "ulum": 6828,
      "Ġ[\\\"": 6829,
      "Ġfalls": 6830,
      "Ġsatisfy": 6831,
      "roughout": 6832,
      "Ġcomma": 6833,
      "Ġserving": 6834,
      "Ġrepeat": 6835,
      "Ġshowcases": 6836,
      "vious": 6837,
      "Ġlights": 6838,
      "Ġriver": 6839,
      "tem": 6840,
      "Ġgaps": 6841,
      "Ġwasn": 6842,
      "Pl": 6843,
      "Ġmultiplying": 6844,
      "umble": 6845,
      "ounce": 6846,
      "Ġhousing": 6847,
      "Ġscent": 6848,
      "Ġdiseases": 6849,
      "Ġitinerary": 6850,
      "Ġgod": 6851,
      "300": 6852,
      "Ġarm": 6853,
      "Ġsequences": 6854,
      "AD": 6855,
      "real": 6856,
      "Ġthrilled": 6857,
      "Ġ48": 6858,
      "Ġtrouble": 6859,
      "abul": 6860,
      "Ġbrother": 6861,
      "ĠFin": 6862,
      "ĠDespite": 6863,
      "oe": 6864,
      "Ġherself": 6865,
      "vari": 6866,
      "Ġyounger": 6867,
      "ĠSimilarly": 6868,
      "Ġpreparing": 6869,
      "Ġcow": 6870,
      "Ġtables": 6871,
      "Ġinspired": 6872,
      "Ġadvantages": 6873,
      "Ġshapes": 6874,
      "Ġthous": 6875,
      "Ġperfectly": 6876,
      "Ġmess": 6877,
      "Ġruns": 6878,
      "ĠEgypt": 6879,
      "Ġune": 6880,
      "Ġwed": 6881,
      "ĠProduct": 6882,
      "search": 6883,
      "OT": 6884,
      "raction": 6885,
      "Ġpursue": 6886,
      "Ġcriteria": 6887,
      "Ġaxis": 6888,
      "Ġwildlife": 6889,
      "Ġshaping": 6890,
      "Ġsimpler": 6891,
      "Ġlayout": 6892,
      "Ġ300": 6893,
      "Ġtight": 6894,
      "Ġcharacteristic": 6895,
      "Ġchances": 6896,
      "nwhere": 6897,
      "Ġposts": 6898,
      "Ġdecided": 6899,
      "ipl": 6900,
      "Ġconverts": 6901,
      "Comm": 6902,
      "Ġgolden": 6903,
      "Ġnice": 6904,
      "nmy": 6905,
      "Ġlighting": 6906,
      "Ġdinner": 6907,
      "ene": 6908,
      "Ġunders": 6909,
      "mathbf": 6910,
      "Ġtriangles": 6911,
      "Ġedited": 6912,
      "imp": 6913,
      "Ġrephrasing": 6914,
      "ĠJoh": 6915,
      "craft": 6916,
      "Ġearn": 6917,
      "Ġinspire": 6918,
      "Ġthoughtful": 6919,
      "Ġflowers": 6920,
      "Ġ65": 6921,
      "Ġoverview": 6922,
      "Ġclues": 6923,
      "lusion": 6924,
      "Ġtact": 6925,
      "Ġfashion": 6926,
      "ĠNe": 6927,
      "Ġdatetime": 6928,
      "Ġflight": 6929,
      "oved": 6930,
      "Ġbuildings": 6931,
      "Ġrights": 6932,
      "Ġplus": 6933,
      "Ġimper": 6934,
      "ĠJan": 6935,
      "comp": 6936,
      "Ġhi": 6937,
      "output": 6938,
      "ĠChe": 6939,
      "Ġ34": 6940,
      "Ġentertainment": 6941,
      "Ġimagination": 6942,
      "Ġturning": 6943,
      "Ġdance": 6944,
      "common": 6945,
      "Ġaccommodations": 6946,
      "Ġholding": 6947,
      "Ġgenerations": 6948,
      "Ġdesk": 6949,
      "Ġburnout": 6950,
      "Ġkeeps": 6951,
      "pen": 6952,
      "Ġknows": 6953,
      "element": 6954,
      "Ġera": 6955,
      "cor": 6956,
      "Ġreasonable": 6957,
      "Add": 6958,
      "Ġdiffer": 6959,
      "fe": 6960,
      "Ġagricult": 6961,
      "float": 6962,
      "stood": 6963,
      "nThank": 6964,
      "Ġfantasy": 6965,
      "low": 6966,
      "Ġamazing": 6967,
      "Array": 6968,
      "Exception": 6969,
      "Ġindices": 6970,
      "Ġclust": 6971,
      "Ġsimplified": 6972,
      "Ġfocuses": 6973,
      "IC": 6974,
      "Ġsports": 6975,
      "imeter": 6976,
      "Ġstick": 6977,
      "Ġdiversity": 6978,
      "Ġplaced": 6979,
      "aped": 6980,
      "plot": 6981,
      "Ġhero": 6982,
      "Ġtherapy": 6983,
      "Ġshadows": 6984,
      "Ġwelcome": 6985,
      "],\\": 6986,
      "ĠVis": 6987,
      "Ġoccurring": 6988,
      "Ġserver": 6989,
      "dx": 6990,
      "Ġcenturies": 6991,
      "Ġkid": 6992,
      "Ġappearance": 6993,
      "Ġsyn": 6994,
      "Ġelegant": 6995,
      "Ġutilize": 6996,
      "nReg": 6997,
      "nCh": 6998,
      "Ġcuis": 6999,
      "Ġgro": 7000,
      "ĠTom": 7001,
      "ĠPres": 7002,
      "Ġencouraging": 7003,
      "Invalid": 7004,
      "Ġinventory": 7005,
      "07": 7006,
      "ĠGreen": 7007,
      "ĠJapanese": 7008,
      "All": 7009,
      "Ġappealing": 7010,
      "zy": 7011,
      "Ġhaven": 7012,
      "Ġpred": 7013,
      "Ġages": 7014,
      "comm": 7015,
      "color": 7016,
      "Ġleverage": 7017,
      "abulary": 7018,
      "Ġproactive": 7019,
      "57": 7020,
      "Ġwrapped": 7021,
      "Ġintroduced": 7022,
      "Ġreferr": 7023,
      "Ġnetworking": 7024,
      "Ġsurroundings": 7025,
      "Ġreflecting": 7026,
      "tered": 7027,
      "Ġphenomena": 7028,
      "Ġprimarily": 7029,
      "olic": 7030,
      "icking": 7031,
      "Ġbringing": 7032,
      "Ġasks": 7033,
      "ĠSpecifically": 7034,
      "Ġexposure": 7035,
      "celer": 7036,
      "Ġdedication": 7037,
      "Ġhex": 7038,
      "Ġshaped": 7039,
      "root": 7040,
      "Ġextension": 7041,
      "OU": 7042,
      "Ġrhythm": 7043,
      "Ġdispers": 7044,
      "Ġoccas": 7045,
      "Ġ`[": 7046,
      "Ġroute": 7047,
      "sis": 7048,
      "ino": 7049,
      "Ġrapidly": 7050,
      "faces": 7051,
      "Ġ68": 7052,
      "fol": 7053,
      "icious": 7054,
      "Ġgear": 7055,
      "Of": 7056,
      "Ġregist": 7057,
      "Ġsurprise": 7058,
      "Ġcleaning": 7059,
      "Ġrespectful": 7060,
      "Ġmir": 7061,
      "ĠEuclidean": 7062,
      "Ġsummar": 7063,
      "ĠGu": 7064,
      "ether": 7065,
      "Ġcitiz": 7066,
      "erts": 7067,
      "owels": 7068,
      "Ġcollaborating": 7069,
      "Ġdebt": 7070,
      "ĠState": 7071,
      "oper": 7072,
      "Value": 7073,
      "Ġreflects": 7074,
      "Ġexceptions": 7075,
      "Ġvalidation": 7076,
      "Ġtraveling": 7077,
      "Ġyes": 7078,
      "Ġrevolution": 7079,
      "Ġhearing": 7080,
      "cket": 7081,
      "Ġgenerator": 7082,
      "Ġ31": 7083,
      "ĠAfric": 7084,
      "Ġconverted": 7085,
      "ĠFacebook": 7086,
      "Ġinvestigate": 7087,
      "Ġsteady": 7088,
      "Ġmilitary": 7089,
      "Ġcontem": 7090,
      "Ġintersect": 7091,
      "Ġfacts": 7092,
      "eath": 7093,
      "Input": 7094,
      "Ġpand": 7095,
      "gu": 7096,
      "Ġrewarding": 7097,
      "Ġproductive": 7098,
      "arian": 7099,
      "ĠCould": 7100,
      "Ġrecursion": 7101,
      "Ġtrial": 7102,
      "Ġdust": 7103,
      "Ġhob": 7104,
      "52": 7105,
      "Ġbread": 7106,
      "Ġintegrating": 7107,
      "chol": 7108,
      "ĠLinked": 7109,
      "Ġlongest": 7110,
      "ĠSam": 7111,
      "Ġderived": 7112,
      "ĠMaybe": 7113,
      "aper": 7114,
      "Ġride": 7115,
      "akers": 7116,
      "valuate": 7117,
      "Ġradiation": 7118,
      "ĠKeep": 7119,
      "Ġquot": 7120,
      "Ġalthough": 7121,
      "Ġcompact": 7122,
      "Ġreviewing": 7123,
      "Ġnearly": 7124,
      "nStep": 7125,
      "Ġadj": 7126,
      "Ġoptimization": 7127,
      "Ġdownt": 7128,
      "verb": 7129,
      "Ġcausation": 7130,
      "Ġoperating": 7131,
      "Ġsubs": 7132,
      "Ġcategor": 7133,
      "itches": 7134,
      "Get": 7135,
      "Ġarticles": 7136,
      "Ġdesigns": 7137,
      "Ġnervous": 7138,
      "ĠKing": 7139,
      "aze": 7140,
      "Ġreveals": 7141,
      "rior": 7142,
      "Ġtea": 7143,
      "Ġsphere": 7144,
      "Ġmanif": 7145,
      "Ġduration": 7146,
      "Ġconstantly": 7147,
      "064": 7148,
      "Ġsugar": 7149,
      "Ġwrote": 7150,
      "Ġ{}\\": 7151,
      "Ġuniform": 7152,
      "Ġprogression": 7153,
      "Ġretail": 7154,
      "Ġsupplies": 7155,
      "Ġassigned": 7156,
      "Ġextensive": 7157,
      "hips": 7158,
      "Ġaid": 7159,
      "uctive": 7160,
      "Ġos": 7161,
      "Sh": 7162,
      "osit": 7163,
      "Ġaffecting": 7164,
      "ographics": 7165,
      "aware": 7166,
      "Ġbroken": 7167,
      "ĠGreat": 7168,
      "Ġ99": 7169,
      "beta": 7170,
      "Ġreactions": 7171,
      "Ġtailor": 7172,
      "Ġassessment": 7173,
      "49": 7174,
      "ĠAng": 7175,
      "ciation": 7176,
      "Ġinqu": 7177,
      "Ġattendees": 7178,
      "Ġdisplays": 7179,
      "Ġgap": 7180,
      "Ġapproachable": 7181,
      "Ġmarkets": 7182,
      "Ġappreciation": 7183,
      "ĠBlack": 7184,
      "Ġeliminate": 7185,
      "Ġvertices": 7186,
      "Ġanalog": 7187,
      "Ġmerg": 7188,
      "Ġobserving": 7189,
      "ĠSw": 7190,
      "Ġdiver": 7191,
      "Ġprofile": 7192,
      "Ġcutting": 7193,
      "38": 7194,
      "Ġargs": 7195,
      "\\\\\\": 7196,
      "Ġsoph": 7197,
      "Ġaftern": 7198,
      "Ġblocks": 7199,
      "option": 7200,
      "Ġconditional": 7201,
      "Ġapparent": 7202,
      "%,": 7203,
      "Ġwisdom": 7204,
      "post": 7205,
      "Ġ&&": 7206,
      "Ġinterface": 7207,
      "Ġgrows": 7208,
      "Ġ29": 7209,
      "Ġnodes": 7210,
      "Ġiteration": 7211,
      "Ġdetermin": 7212,
      "47": 7213,
      "Ġabsorb": 7214,
      "nThat": 7215,
      "',\\": 7216,
      "Ġgravity": 7217,
      "Ġsail": 7218,
      "RI": 7219,
      "Ġthus": 7220,
      "Ġlibraries": 7221,
      "night": 7222,
      "`)": 7223,
      "Not": 7224,
      "Ġtransitions": 7225,
      "AA": 7226,
      "Ġsuspect": 7227,
      "ĠPerson": 7228,
      "apter": 7229,
      "endar": 7230,
      "ĠBre": 7231,
      "Ġhole": 7232,
      "ĠPearson": 7233,
      "ĠIN": 7234,
      "return": 7235,
      "ĠRob": 7236,
      "uesday": 7237,
      "Ġends": 7238,
      "Ġmagnetic": 7239,
      "Ġjustice": 7240,
      "Ġtow": 7241,
      "Ġreass": 7242,
      "Ġ400": 7243,
      "ĠHar": 7244,
      "ĠBoth": 7245,
      "Ġplastic": 7246,
      "Ġcollective": 7247,
      "Ġboxes": 7248,
      "!\\\"": 7249,
      "apes": 7250,
      "Ġpromotions": 7251,
      "ollow": 7252,
      "Ġreversed": 7253,
      "123": 7254,
      "nSub": 7255,
      "Ġtransitional": 7256,
      "umin": 7257,
      "ilon": 7258,
      "palindrome": 7259,
      "func": 7260,
      "ĠMart": 7261,
      "fast": 7262,
      "Ġwave": 7263,
      "ĠIns": 7264,
      "Ġmovements": 7265,
      "())\\": 7266,
      "Ġcomment": 7267,
      "ĠPM": 7268,
      "Ġ>=": 7269,
      "FF": 7270,
      "Ġprivile": 7271,
      "DA": 7272,
      "Ġreserv": 7273,
      "Ġsubjects": 7274,
      "Ġdrop": 7275,
      "Ġpartial": 7276,
      "Ġ...,": 7277,
      "Ġvocabulary": 7278,
      "high": 7279,
      "Ġbattle": 7280,
      "Ġepis": 7281,
      "Ġease": 7282,
      "Ġcaut": 7283,
      "Ġrecommended": 7284,
      "Ġoccurrences": 7285,
      ".)\\": 7286,
      "gers": 7287,
      "Ġcomplic": 7288,
      "ĠEven": 7289,
      "Ġestimated": 7290,
      "Ġclothing": 7291,
      "Ġbeneath": 7292,
      "Ġran": 7293,
      "Ġgenerates": 7294,
      "ĠFind": 7295,
      "uses": 7296,
      "Ġtraum": 7297,
      "normal": 7298,
      "ĠAnaly": 7299,
      "Ġsnipp": 7300,
      "ĠAmerica": 7301,
      "Ġcoding": 7302,
      "Ġratings": 7303,
      "Ġwondering": 7304,
      "><": 7305,
      "Ġdemands": 7306,
      "plate": 7307,
      "Ġpassword": 7308,
      "Text": 7309,
      "andon": 7310,
      "ulti": 7311,
      "Ġexplained": 7312,
      "uling": 7313,
      "abil": 7314,
      "etermine": 7315,
      "match": 7316,
      "imensions": 7317,
      "Ġextend": 7318,
      "nMoreover": 7319,
      "Ġsister": 7320,
      "Ġsatisfies": 7321,
      "Ġclimbing": 7322,
      "File": 7323,
      "mental": 7324,
      "Ġpartnerships": 7325,
      "Ġcurric": 7326,
      "attr": 7327,
      "Ġdiagon": 7328,
      "nImagine": 7329,
      "Ġreleased": 7330,
      "Ġpersist": 7331,
      ")}": 7332,
      "Ġsight": 7333,
      "press": 7334,
      "base": 7335,
      "cpp": 7336,
      "ocking": 7337,
      "Ġinfluencing": 7338,
      "Ġgave": 7339,
      "through": 7340,
      "Ġtransparent": 7341,
      "Ġlic": 7342,
      "Ġmultiplication": 7343,
      "**,": 7344,
      "ran": 7345,
      "Inter": 7346,
      "Ġiterative": 7347,
      "Ġsupervisor": 7348,
      "but": 7349,
      "ĠII": 7350,
      "Ġcomplain": 7351,
      "));\\": 7352,
      "Mod": 7353,
      "Ġpiv": 7354,
      "erie": 7355,
      "Ġcautious": 7356,
      "Ġfoss": 7357,
      "ĠAug": 7358,
      "View": 7359,
      "Ġsomewhat": 7360,
      "Ġincom": 7361,
      "Ġgirl": 7362,
      "Ġaddressed": 7363,
      "ĠMat": 7364,
      "zon": 7365,
      "ĠIts": 7366,
      "itors": 7367,
      "Ġ64": 7368,
      "ĠAny": 7369,
      "balance": 7370,
      "Ġconfusion": 7371,
      "itivity": 7372,
      "Ġfert": 7373,
      "Ġsmoothly": 7374,
      "Ġsophistic": 7375,
      "ĠSometimes": 7376,
      "Ġapproxim": 7377,
      "ĠDes": 7378,
      "Ġcounting": 7379,
      "Ġslowly": 7380,
      "Ġstuck": 7381,
      "Ġnuance": 7382,
      "Ġvisually": 7383,
      "Ġpython": 7384,
      "Ġaccommodate": 7385,
      "Ġcompl": 7386,
      "Ġdestinations": 7387,
      "Ġcamera": 7388,
      "ĠOtherwise": 7389,
      "bles": 7390,
      "Ġcourt": 7391,
      "Ġarbit": 7392,
      "Node": 7393,
      "band": 7394,
      "hered": 7395,
      "Ġexhaust": 7396,
      "prene": 7397,
      "viron": 7398,
      "Ġdice": 7399,
      "Ġinstances": 7400,
      "Ġfostering": 7401,
      ")]\\": 7402,
      "\\\"{": 7403,
      "fered": 7404,
      "Ġmortal": 7405,
      "Ġangular": 7406,
      "orean": 7407,
      "+\\\\": 7408,
      "inator": 7409,
      "Ġsy": 7410,
      "Ġcompass": 7411,
      "Ġarc": 7412,
      "Ġdepression": 7413,
      "Ġstrike": 7414,
      "ket": 7415,
      "Ġrealize": 7416,
      "Ġnutrit": 7417,
      "ria": 7418,
      "Ġmanufacturing": 7419,
      "Ġcouldn": 7420,
      "Ġsitting": 7421,
      "Ġformatting": 7422,
      "Ġredund": 7423,
      "Ġsto": 7424,
      "Ġweighing": 7425,
      "ĠDis": 7426,
      "Ġln": 7427,
      "reprene": 7428,
      "Ġshowcasing": 7429,
      "ugh": 7430,
      "istry": 7431,
      "Ġsurvival": 7432,
      "dden": 7433,
      "nPro": 7434,
      "Ġdelight": 7435,
      "ĠWh": 7436,
      "ĠEmphas": 7437,
      "ĠCount": 7438,
      "Ġprefix": 7439,
      "Ġcha": 7440,
      "Ġdetermination": 7441,
      "ĠDNA": 7442,
      "Ġexpressing": 7443,
      "apple": 7444,
      "net": 7445,
      "ĠFrance": 7446,
      "Ġcab": 7447,
      "Ġreturning": 7448,
      "Ġcalling": 7449,
      "Ġcove": 7450,
      "Ġmeals": 7451,
      "Ġinstruction": 7452,
      "erb": 7453,
      "Ġfellow": 7454,
      "draw": 7455,
      "Ġacid": 7456,
      "Ġconscious": 7457,
      "mes": 7458,
      "Ġprison": 7459,
      "Ġcorrected": 7460,
      "itage": 7461,
      "ĠFl": 7462,
      "Ġstrengthen": 7463,
      "Ġfinance": 7464,
      "ipe": 7465,
      "Ġpossibly": 7466,
      "Ġminimal": 7467,
      "Ġembracing": 7468,
      "Ġlose": 7469,
      "Ġresiduals": 7470,
      "ĠĠĠĠĠĠĠĠĠĠĠĠĠ": 7471,
      "bi": 7472,
      "ixt": 7473,
      "pack": 7474,
      "Ġnod": 7475,
      "Ġboolean": 7476,
      "Ġsites": 7477,
      "ords": 7478,
      "Ġfoods": 7479,
      "Ġ,": 7480,
      "product": 7481,
      "Ġmanaged": 7482,
      "ppose": 7483,
      "Ġbinomial": 7484,
      "Ġconvergence": 7485,
      "Ġsymmetric": 7486,
      "<<": 7487,
      "Ġdelve": 7488,
      "Ġclock": 7489,
      "Ġadvancement": 7490,
      "estic": 7491,
      "0430": 7492,
      "Ġinterviews": 7493,
      "non": 7494,
      "ĠSimpl": 7495,
      "Ġspeaker": 7496,
      "oking": 7497,
      "ĠRome": 7498,
      "has": 7499,
      "Ġcuisine": 7500,
      "Ġinconsistencies": 7501,
      "ĠName": 7502,
      "Ġfulfilling": 7503,
      "Ġinformative": 7504,
      "Ġpreparation": 7505,
      "Ġtor": 7506,
      "Ġworried": 7507,
      "Ġuniversity": 7508,
      "sigma": 7509,
      "Ġdoctor": 7510,
      "Ġdiscipl": 7511,
      "Ġfestival": 7512,
      "Ġcryst": 7513,
      "Ġdenote": 7514,
      "alian": 7515,
      "Ġdelay": 7516,
      "Ġoffered": 7517,
      "Ġascending": 7518,
      "92": 7519,
      "Ġstated": 7520,
      "Ġthank": 7521,
      "Ġvegetables": 7522,
      "Se": 7523,
      "ha": 7524,
      "Ġsetup": 7525,
      "Ġrefining": 7526,
      "Ġcongru": 7527,
      "SC": 7528,
      "kyo": 7529,
      "Ġmedium": 7530,
      "since": 7531,
      "Ġconsiderations": 7532,
      "Ġbridge": 7533,
      "ync": 7534,
      "Ġluck": 7535,
      "https": 7536,
      "Ġsudden": 7537,
      "Ġsubsequent": 7538,
      "ĠMon": 7539,
      "Ġkeyword": 7540,
      "Ġallocate": 7541,
      "nson": 7542,
      "Ġcurious": 7543,
      "Ġinherent": 7544,
      "ocity": 7545,
      "parametric": 7546,
      "ĠGroup": 7547,
      "target": 7548,
      "achel": 7549,
      "Ġmanufacture": 7550,
      "Ġhosting": 7551,
      "marks": 7552,
      "Ġdistances": 7553,
      "Ġdriver": 7554,
      "Ġtag": 7555,
      "Ġachievements": 7556,
      "Ġhumanity": 7557,
      "Ġversus": 7558,
      "ĠTH": 7559,
      "erge": 7560,
      "Ġmapping": 7561,
      "Ġinterior": 7562,
      "ashing": 7563,
      "artment": 7564,
      "Ġouter": 7565,
      "Ġwebsites": 7566,
      "Ġadvancements": 7567,
      "aceted": 7568,
      "Ġsociet": 7569,
      "Ġvacation": 7570,
      "Ġresistance": 7571,
      "Ġwearing": 7572,
      "Ġfunds": 7573,
      "ĠWhich": 7574,
      "Ġhub": 7575,
      "^{-": 7576,
      "Ġexperiments": 7577,
      "Ġexecution": 7578,
      "Ġlayers": 7579,
      "pread": 7580,
      "Ġtit": 7581,
      "ventional": 7582,
      "Ġconsumers": 7583,
      "Ġcompens": 7584,
      "Ġenvision": 7585,
      "ĠTry": 7586,
      "Ġadjusting": 7587,
      "Ġundersc": 7588,
      "Ġban": 7589,
      "riv": 7590,
      "Key": 7591,
      "udent": 7592,
      "Ġremarkable": 7593,
      "Ġliterature": 7594,
      "Ġprospect": 7595,
      "reating": 7596,
      "Ġcro": 7597,
      "Ġca": 7598,
      "Ġlogistics": 7599,
      "ĠSchool": 7600,
      "Ġhyper": 7601,
      "Ġgained": 7602,
      "Ġfle": 7603,
      "Ġdining": 7604,
      "agement": 7605,
      "Ġslic": 7606,
      "Ġemphasizes": 7607,
      "Ġstages": 7608,
      "Ġminute": 7609,
      "Ġintegrated": 7610,
      "Ġmindfulness": 7611,
      "Ġpool": 7612,
      "Ġscr": 7613,
      ")**:": 7614,
      "dir": 7615,
      "Ġdivisors": 7616,
      "bsolute": 7617,
      "Object": 7618,
      "Ġalive": 7619,
      "abit": 7620,
      "Ġjson": 7621,
      "Ġarbitr": 7622,
      "Ġinstrument": 7623,
      "Ġspo": 7624,
      "Ġfigures": 7625,
      "worth": 7626,
      "Ġsale": 7627,
      "Ġcausal": 7628,
      "%.": 7629,
      "\\\";\\": 7630,
      "Ġputting": 7631,
      "iture": 7632,
      "verages": 7633,
      "nThink": 7634,
      "ventions": 7635,
      "br": 7636,
      "Ġcaf": 7637,
      "Ġclause": 7638,
      "Ġdimensions": 7639,
      "Ġemphasizing": 7640,
      "cher": 7641,
      "image": 7642,
      "istory": 7643,
      "Ġrevise": 7644,
      "Ġparties": 7645,
      "Ġtrusted": 7646,
      "Ġdefinitely": 7647,
      "Ġinformal": 7648,
      "Ġworkshop": 7649,
      "Ġ2020": 7650,
      "Ġtall": 7651,
      "onds": 7652,
      "Ġlabels": 7653,
      "oded": 7654,
      "Ġwhispers": 7655,
      "Ġacceler": 7656,
      "Ġconducting": 7657,
      "rogen": 7658,
      "Ġcomputing": 7659,
      "nex": 7660,
      "Ġspecify": 7661,
      "Ġintriguing": 7662,
      "xx": 7663,
      "Ġhappening": 7664,
      "Ġ2022": 7665,
      "Ġagency": 7666,
      "Ġunderm": 7667,
      "plan": 7668,
      "Ġgone": 7669,
      "Ġprimes": 7670,
      "Ġpasseng": 7671,
      "Ġfantastic": 7672,
      "Ġprotein": 7673,
      "Ġhus": 7674,
      "stone": 7675,
      "OVA": 7676,
      "ĠGet": 7677,
      "ustomer": 7678,
      "eel": 7679,
      "\\\"))": 7680,
      "Ġasym": 7681,
      "Ġanomal": 7682,
      "Ġmoved": 7683,
      "Ġsatisfied": 7684,
      "ncy": 7685,
      "aby": 7686,
      "ĠSE": 7687,
      "istribut": 7688,
      "Ġconversational": 7689,
      "Ġresume": 7690,
      "Su": 7691,
      "seen": 7692,
      "Ġtense": 7693,
      "Ġtestament": 7694,
      "ĠFrid": 7695,
      "CO": 7696,
      "Ġdiscounts": 7697,
      "aid": 7698,
      "Ġtensor": 7699,
      "Ġunclear": 7700,
      "body": 7701,
      "Ġthreads": 7702,
      "Ġafternoon": 7703,
      "Ġfinish": 7704,
      "Ġdrinks": 7705,
      "Ġunsure": 7706,
      "gent": 7707,
      "Ġborn": 7708,
      "Ġhier": 7709,
      "city": 7710,
      "Ġinvestig": 7711,
      "Ġflip": 7712,
      "},\\": 7713,
      "Ġfruit": 7714,
      "Ġedges": 7715,
      "Ġlean": 7716,
      "ĠAlice": 7717,
      "apping": 7718,
      "Ġ52": 7719,
      "ĠWhe": 7720,
      "Ġfort": 7721,
      "Ġentreprene": 7722,
      "Ġaffordable": 7723,
      "ULL": 7724,
      "ĠMc": 7725,
      "style": 7726,
      "Ġcosm": 7727,
      "versely": 7728,
      "Ġdeck": 7729,
      "Ġfly": 7730,
      "ĠEvery": 7731,
      "ĠThus": 7732,
      "08": 7733,
      "scale": 7734,
      "Ġpredicted": 7735,
      "Ġvulnerable": 7736,
      "Ġcasual": 7737,
      "Ġclauses": 7738,
      "Ġsurrounded": 7739,
      "Ġfluid": 7740,
      "ĠTokyo": 7741,
      "($": 7742,
      "ĠCa": 7743,
      "ifier": 7744,
      "Ġstartup": 7745,
      "Ġunderstood": 7746,
      "Ġfeat": 7747,
      "ĠScience": 7748,
      "Ġjump": 7749,
      "pan": 7750,
      "Ġbirds": 7751,
      "lie": 7752,
      "Ġvarying": 7753,
      "Ġabandon": 7754,
      "Ġarrays": 7755,
      "Ġcurriculum": 7756,
      "Ġtrials": 7757,
      "Do": 7758,
      "lete": 7759,
      "idespread": 7760,
      "Ġhuge": 7761,
      "ptic": 7762,
      "ille": 7763,
      "lar": 7764,
      "Ġluxury": 7765,
      "nAt": 7766,
      "Ġinfect": 7767,
      "Ġorganize": 7768,
      "ounced": 7769,
      "title": 7770,
      "Or": 7771,
      "ĠAM": 7772,
      "ĠHave": 7773,
      "ĠGCD": 7774,
      "Ġextended": 7775,
      "Ġgradually": 7776,
      "kin": 7777,
      "Ġempower": 7778,
      "Ġvot": 7779,
      "acent": 7780,
      "Ġvend": 7781,
      "Ġindependence": 7782,
      "xi": 7783,
      "Ġpersuasive": 7784,
      "ker": 7785,
      "Ġliqu": 7786,
      "39": 7787,
      "prov": 7788,
      "62": 7789,
      "Ġmetaph": 7790,
      ")]": 7791,
      "Ġpanels": 7792,
      "last": 7793,
      "Ġsuc": 7794,
      "lists": 7795,
      "Ġencourages": 7796,
      "Ġwaters": 7797,
      "sl": 7798,
      "}_{": 7799,
      "Ġvir": 7800,
      "Ġevoke": 7801,
      "dev": 7802,
      "Ġassociation": 7803,
      "Ġparabol": 7804,
      "Ġdogs": 7805,
      "Ġresonate": 7806,
      "Ġfacilities": 7807,
      "Ġpercentile": 7808,
      "chant": 7809,
      "Ġtemporary": 7810,
      "ĠPo": 7811,
      "ĠTuesday": 7812,
      "nWould": 7813,
      "unting": 7814,
      "itational": 7815,
      "hors": 7816,
      "Ġcapable": 7817,
      "Ġpermutations": 7818,
      "ĠNumber": 7819,
      "Ġpaying": 7820,
      "rho": 7821,
      "ĠJohnson": 7822,
      "ĠComb": 7823,
      "Ġautomatically": 7824,
      "Ġrecursively": 7825,
      "Ġtut": 7826,
      "Ġamen": 7827,
      "Ġspl": 7828,
      "Ġwinter": 7829,
      "Ġincident": 7830,
      "ught": 7831,
      "Ġargue": 7832,
      "mean": 7833,
      "Ġunlikely": 7834,
      "ME": 7835,
      "Ġnormality": 7836,
      "Ġinstinct": 7837,
      "atever": 7838,
      "Ġdemographics": 7839,
      ",,": 7840,
      "nThroughout": 7841,
      "ĠPeople": 7842,
      "Ġaside": 7843,
      "paring": 7844,
      "Ġ78": 7845,
      "Ġshifts": 7846,
      "Ġobstacles": 7847,
      "orient": 7848,
      "Ġbot": 7849,
      "partial": 7850,
      "nn": 7851,
      "Ġdetection": 7852,
      "Using": 7853,
      "Ġsucceed": 7854,
      "Ġdaughter": 7855,
      "Ġthesis": 7856,
      "ĠWho": 7857,
      "Ġlad": 7858,
      "Ġmistake": 7859,
      "Ġgreenhouse": 7860,
      "Ġmaximize": 7861,
      "Ġentity": 7862,
      "Ġquantity": 7863,
      "ipal": 7864,
      "Ġhoping": 7865,
      "weight": 7866,
      "ĠDuring": 7867,
      "Ġ)\\": 7868,
      "ĠURL": 7869,
      "Ġteach": 7870,
      "Ġowners": 7871,
      "Ġlived": 7872,
      "Ġbag": 7873,
      "Ġartistic": 7874,
      "ĠInternational": 7875,
      "Ġdut": 7876,
      "unique": 7877,
      "Ġvs": 7878,
      "Ġchair": 7879,
      "ductive": 7880,
      "cules": 7881,
      "Ġinterpreting": 7882,
      "Ġsorting": 7883,
      "Ġpromotion": 7884,
      "Ġconsumer": 7885,
      "Ġpresents": 7886,
      "Ġrecovery": 7887,
      "orders": 7888,
      "ĠHealth": 7889,
      "54": 7890,
      "Ġattempts": 7891,
      "Ġglad": 7892,
      "Ġreplacement": 7893,
      "Ġfees": 7894,
      "Ġparse": 7895,
      "Ġ180": 7896,
      "Ġemployer": 7897,
      "Ġbiased": 7898,
      "essel": 7899,
      "Ġaccident": 7900,
      "><\\/": 7901,
      "compass": 7902,
      "Ġrotation": 7903,
      "Ġaccum": 7904,
      "pril": 7905,
      "Are": 7906,
      "elsius": 7907,
      "Ġthreats": 7908,
      "Ġtower": 7909,
      "CH": 7910,
      "urrent": 7911,
      "Ġdecreases": 7912,
      "Ġgau": 7913,
      "Ġmultipl": 7914,
      "Ġpartners": 7915,
      "Ġwedding": 7916,
      "Ġwouldn": 7917,
      "Ġartifacts": 7918,
      "And": 7919,
      "fess": 7920,
      "Reg": 7921,
      "Ġdebate": 7922,
      "ĠPlan": 7923,
      "Ġmanipulate": 7924,
      "81": 7925,
      "push": 7926,
      "Ġfunctionality": 7927,
      "Ġyog": 7928,
      "luded": 7929,
      "eal": 7930,
      "Ġcollections": 7931,
      "Ġarts": 7932,
      "Ġsignature": 7933,
      "info": 7934,
      "inder": 7935,
      "Ġresonance": 7936,
      "nFrom": 7937,
      "Ġglance": 7938,
      "Ġfulfillment": 7939,
      "Ġpages": 7940,
      "Ġsupposed": 7941,
      "orted": 7942,
      "Ġtiny": 7943,
      "Ġ72": 7944,
      "ubble": 7945,
      "Ġnavigating": 7946,
      "Ġbact": 7947,
      "pret": 7948,
      "cil": 7949,
      "Ġvan": 7950,
      "aborate": 7951,
      "itable": 7952,
      "Ġdecom": 7953,
      "Ġmuscle": 7954,
      "Ġtheories": 7955,
      "ĠAdded": 7956,
      "Ġton": 7957,
      "stituting": 7958,
      "ĠItalian": 7959,
      "Ġvenue": 7960,
      "ander": 7961,
      "Ġversions": 7962,
      "uls": 7963,
      "arency": 7964,
      "xic": 7965,
      "Ġdocumentation": 7966,
      "Ġampl": 7967,
      "ĠEnc": 7968,
      "ĠMont": 7969,
      "Ġpushing": 7970,
      "mid": 7971,
      "Ġsubstitute": 7972,
      "Ġseparately": 7973,
      "Ġabsence": 7974,
      "********": 7975,
      "Ġreceiving": 7976,
      "ocument": 7977,
      "Ġinitiative": 7978,
      "specific": 7979,
      "Ġaccessibility": 7980,
      "Ġconfounding": 7981,
      "Ġanalytical": 7982,
      "Ġgrasp": 7983,
      "Why": 7984,
      "Ġraw": 7985,
      "enses": 7986,
      "Ġintim": 7987,
      "Ġcovered": 7988,
      "ĠIT": 7989,
      "ĠLa": 7990,
      "ĠJune": 7991,
      "nu": 7992,
      "Man": 7993,
      "Ġconducted": 7994,
      "Ġsubtracting": 7995,
      "Ġfaithfully": 7996,
      "Ġtied": 7997,
      "Ġswitches": 7998,
      "Ġisolation": 7999,
      ">>\\": 8000,
      "Ġ},\\": 8001,
      "arks": 8002,
      "ĠSun": 8003,
      "Ġwarning": 8004,
      "stream": 8005,
      "ij": 8006,
      "Ġcollecting": 8007,
      "elcome": 8008,
      "Ġwidespread": 8009,
      "ĠGreek": 8010,
      "util": 8011,
      "Ġclin": 8012,
      "Ġemerging": 8013,
      "ĠMean": 8014,
      "http": 8015,
      "Ġspelling": 8016,
      "rices": 8017,
      "Ġexplo": 8018,
      "53": 8019,
      "Ġconcaten": 8020,
      "building": 8021,
      "Ġdepartments": 8022,
      "ncon": 8023,
      "eration": 8024,
      "Ġtrained": 8025,
      "Ġexcessive": 8026,
      "Ġinstruct": 8027,
      "Ġstuff": 8028,
      "Ġdefines": 8029,
      "2022": 8030,
      "Ġstrive": 8031,
      "Ġsensors": 8032,
      "lined": 8033,
      "aj": 8034,
      "Ġelectrical": 8035,
      "unity": 8036,
      "ĠLinkedIn": 8037,
      "Ġslipping": 8038,
      "Ġlosing": 8039,
      "Ġprobably": 8040,
      "Ġaddresses": 8041,
      "lick": 8042,
      "ĠRepl": 8043,
      "ĠRead": 8044,
      "Ġculinary": 8045,
      "OS": 8046,
      "Ġpassionate": 8047,
      "76": 8048,
      "Ġtheore": 8049,
      "Ġinstitutions": 8050,
      "Ġanomalies": 8051,
      "].\\": 8052,
      "lig": 8053,
      "exp": 8054,
      "ago": 8055,
      "Ġtangent": 8056,
      "Ġserved": 8057,
      "Ġguided": 8058,
      "Ġaren": 8059,
      "Ġpsychological": 8060,
      "Ġaudio": 8061,
      "Ġrelevance": 8062,
      "Ġdifferential": 8063,
      "Ġdirections": 8064,
      "Ġmedication": 8065,
      "ĠAut": 8066,
      "Ġoutlier": 8067,
      "eps": 8068,
      "rooms": 8069,
      "amine": 8070,
      "Ġtackle": 8071,
      "ribed": 8072,
      "ĠDec": 8073,
      "Ġflood": 8074,
      "Ġforeign": 8075,
      "Ġamenities": 8076,
      "Ġdifferentiate": 8077,
      "Ġgardening": 8078,
      "oom": 8079,
      "ĠAugust": 8080,
      "ĠAtt": 8081,
      "Ġsurveys": 8082,
      "Ġmarine": 8083,
      "total": 8084,
      "Ġsword": 8085,
      "Ġpriority": 8086,
      "rus": 8087,
      "78": 8088,
      "ĠJanuary": 8089,
      "TP": 8090,
      "Ġworkplace": 8091,
      "ATE": 8092,
      "ĠInit": 8093,
      "Ġturns": 8094,
      "Ġcolon": 8095,
      "Index": 8096,
      "times": 8097,
      "Ġharder": 8098,
      "ecause": 8099,
      "Ġvisibility": 8100,
      "Ġintegrity": 8101,
      "Ġscales": 8102,
      "Ġisolate": 8103,
      "Ġwinning": 8104,
      "month": 8105,
      "Ġsingular": 8106,
      "ceptions": 8107,
      "grade": 8108,
      "Ġ`'": 8109,
      "IG": 8110,
      "Ġgrown": 8111,
      "even": 8112,
      "elf": 8113,
      "Ġstands": 8114,
      "ocolate": 8115,
      "Ġenumerate": 8116,
      "ools": 8117,
      "Ġcalendar": 8118,
      "quart": 8119,
      "Ġ\\\"))\\": 8120,
      "Ġdecades": 8121,
      "Ġdispersion": 8122,
      "Ġholid": 8123,
      "security": 8124,
      "Ġhiking": 8125,
      "uction": 8126,
      "Ġpurchases": 8127,
      "filename": 8128,
      "plements": 8129,
      "Ġcriticism": 8130,
      "lections": 8131,
      "========": 8132,
      "Ġdecreased": 8133,
      "istical": 8134,
      "Extract": 8135,
      "ultane": 8136,
      "Ġestate": 8137,
      "ĠShow": 8138,
      "oses": 8139,
      "CTION": 8140,
      "Ġmilk": 8141,
      "Ġdemonstrating": 8142,
      "www": 8143,
      "ĠDay": 8144,
      "Ġtreasure": 8145,
      "connected": 8146,
      "Ġretire": 8147,
      "Ġrising": 8148,
      "Ġindu": 8149,
      "ĠTw": 8150,
      "chnology": 8151,
      "Ġcenters": 8152,
      "Ġgift": 8153,
      "Ġproducing": 8154,
      "ĠNA": 8155,
      "Ġcontributed": 8156,
      "Ġinvaluable": 8157,
      "Ġarrangement": 8158,
      "days": 8159,
      "replace": 8160,
      "ĠAir": 8161,
      "ĠSan": 8162,
      "Ġspin": 8163,
      "Ġbow": 8164,
      "folio": 8165,
      "rospect": 8166,
      "^{\\\\": 8167,
      "ching": 8168,
      "ĠEuler": 8169,
      "Ġthrill": 8170,
      "usiness": 8171,
      "Ġnative": 8172,
      "Ġ{\\\"": 8173,
      "Ġmansion": 8174,
      "Number": 8175,
      "ulative": 8176,
      "rific": 8177,
      "Ġcats": 8178,
      "Ġauthors": 8179,
      "sharp": 8180,
      "46": 8181,
      "Ġpull": 8182,
      "Ass": 8183,
      "Ġfruits": 8184,
      "version": 8185,
      "LT": 8186,
      "js": 8187,
      "Ġrooms": 8188,
      "Ġrevealed": 8189,
      "Ġaccepted": 8190,
      "Ġaimed": 8191,
      "ateful": 8192,
      "ING": 8193,
      "Ġhur": 8194,
      "Ġmechanism": 8195,
      "Ġradio": 8196,
      "Ġuniversal": 8197,
      "Ġapplies": 8198,
      "Ġholes": 8199,
      "omb": 8200,
      "Ġimplements": 8201,
      "ĠPol": 8202,
      "Ġsignals": 8203,
      "Ġnumpy": 8204,
      "ndefined": 8205,
      "Ġtast": 8206,
      "Ġintel": 8207,
      "Ġknight": 8208,
      "42": 8209,
      "Ġaligned": 8210,
      "Ġfossil": 8211,
      "Ġrevision": 8212,
      "Ġsoul": 8213,
      "Ġring": 8214,
      "Ġvague": 8215,
      "ĠJuly": 8216,
      "MS": 8217,
      "ĠDev": 8218,
      "Ġmarked": 8219,
      "rance": 8220,
      "ĠGl": 8221,
      "accur": 8222,
      "ena": 8223,
      "umes": 8224,
      "ĠArt": 8225,
      "Ġvia": 8226,
      "Ġrecycling": 8227,
      "Ġsnippet": 8228,
      "Ġdraws": 8229,
      "Ġkept": 8230,
      "ora": 8231,
      "Ġvertical": 8232,
      "Ġspring": 8233,
      "Ġencountered": 8234,
      "Ġnumerator": 8235,
      "Ġpatience": 8236,
      "example": 8237,
      "Ġbold": 8238,
      "Ġtermin": 8239,
      "Ġpy": 8240,
      "Ġmere": 8241,
      "Ġsmoother": 8242,
      "ham": 8243,
      "filter": 8244,
      "apers": 8245,
      "Ġalph": 8246,
      "59": 8247,
      "arsh": 8248,
      "Ġblur": 8249,
      "\\\"]\\": 8250,
      "eros": 8251,
      "omor": 8252,
      "ipse": 8253,
      "Ġgauge": 8254,
      "Ġmeters": 8255,
      "Ġmolecules": 8256,
      "Ġgrade": 8257,
      "Ġmountains": 8258,
      "Ġrainfall": 8259,
      "ogether": 8260,
      "Ġiconic": 8261,
      "ravel": 8262,
      "Ġmurder": 8263,
      "Te": 8264,
      "ii": 8265,
      "Ġinfluencers": 8266,
      "Ġnuances": 8267,
      "Ġsnow": 8268,
      "aying": 8269,
      "Ġunfor": 8270,
      "model": 8271,
      "erver": 8272,
      "Ġleveraging": 8273,
      "Ġfits": 8274,
      "Ġconjunction": 8275,
      "But": 8276,
      "Ġcombines": 8277,
      "Ġseat": 8278,
      "ga": 8279,
      "ĠHR": 8280,
      "nOf": 8281,
      "Ġnation": 8282,
      "ĠExamples": 8283,
      "Ġcitizens": 8284,
      "Ġstating": 8285,
      "Ġtraditions": 8286,
      "Ġsteel": 8287,
      "Ġclassical": 8288,
      "New": 8289,
      "Ġobj": 8290,
      "Ġreplic": 8291,
      "ensitive": 8292,
      "idential": 8293,
      "Ġpolitical": 8294,
      "');\\": 8295,
      "Ġclassroom": 8296,
      "Ġdreams": 8297,
      "ĠAc": 8298,
      "Ġambiguity": 8299,
      "Ġbreathtaking": 8300,
      "Ġtexture": 8301,
      "road": 8302,
      "nNot": 8303,
      "Ġexplaining": 8304,
      "Ġmanipulation": 8305,
      "Ġstatistic": 8306,
      "Ġfrequent": 8307,
      "Ġplenty": 8308,
      "Ġdisappoint": 8309,
      "Ġcontradictions": 8310,
      "Ġgest": 8311,
      "Ġsex": 8312,
      "rim": 8313,
      "het": 8314,
      "Ġshowed": 8315,
      "Ġrevisions": 8316,
      "ĠHTML": 8317,
      "ecd": 8318,
      "chron": 8319,
      "Ġmentor": 8320,
      "power": 8321,
      "Ġcube": 8322,
      "earning": 8323,
      "Ġpolar": 8324,
      "Ġprivilege": 8325,
      "Ġcere": 8326,
      "itter": 8327,
      "ĠIQR": 8328,
      "mo": 8329,
      "Ġpublished": 8330,
      "Ġequil": 8331,
      "CE": 8332,
      "PE": 8333,
      "ometric": 8334,
      "Ġimmune": 8335,
      "Ġdefect": 8336,
      "Ġell": 8337,
      "vector": 8338,
      "Ġbiggest": 8339,
      "sim": 8340,
      "Ġdf": 8341,
      "Ġpointer": 8342,
      "nBefore": 8343,
      "ĠGive": 8344,
      "82": 8345,
      "Ġsimultane": 8346,
      "itud": 8347,
      "Ġconvin": 8348,
      "Ġlooked": 8349,
      "Ġbutter": 8350,
      "Ġvariations": 8351,
      "sembly": 8352,
      "atin": 8353,
      "Ġnone": 8354,
      "Ġvisited": 8355,
      "athered": 8356,
      "Ġteachers": 8357,
      "Ġdisconnect": 8358,
      "falls": 8359,
      "Ġanalysts": 8360,
      "rc": 8361,
      "Ġbuying": 8362,
      "aria": 8363,
      "Ġdru": 8364,
      "Ġgravitational": 8365,
      "tion": 8366,
      "Ġtun": 8367,
      "2265": 8368,
      "Ġbooking": 8369,
      "Ġvelocity": 8370,
      "Ġ)": 8371,
      "Ġmerge": 8372,
      "Ġbits": 8373,
      "ĠFriday": 8374,
      "Ġauthenticity": 8375,
      "Ġexponent": 8376,
      "Ġregul": 8377,
      "Ġtransparency": 8378,
      "medi": 8379,
      "Ġjava": 8380,
      "Ġpackaging": 8381,
      "Ġdistant": 8382,
      "ĠEngland": 8383,
      "Ġadvis": 8384,
      "Ġfurn": 8385,
      "ayer": 8386,
      "Ġgrab": 8387,
      "Ġthin": 8388,
      "ĠSpe": 8389,
      "ĠSte": 8390,
      "nThanks": 8391,
      "Ġcash": 8392,
      "Ġmodes": 8393,
      "Def": 8394,
      "Ġquotient": 8395,
      "Ġtransformed": 8396,
      "Ġenem": 8397,
      "Ġwonderful": 8398,
      "Ġbattery": 8399,
      "Ġsnack": 8400,
      "Ġpremium": 8401,
      "$-": 8402,
      "Ġsharp": 8403,
      "amil": 8404,
      "nOur": 8405,
      "Ġminimizing": 8406,
      "Ġfeaturing": 8407,
      "average": 8408,
      "Ġemployers": 8409,
      "Ġperforms": 8410,
      "Ġconnecting": 8411,
      "Ġvessel": 8412,
      "big": 8413,
      "Ġrealized": 8414,
      "Ġconverges": 8415,
      "Ġloops": 8416,
      "Ġfrequencies": 8417,
      "direct": 8418,
      "Ġperception": 8419,
      "ĠInstagram": 8420,
      "Ġinhabit": 8421,
      "Ġenhancing": 8422,
      "Ġpredictor": 8423,
      "Ġfails": 8424,
      "':\\": 8425,
      "Ġplate": 8426,
      "Ġdismiss": 8427,
      "ĠMarch": 8428,
      "ederal": 8429,
      "Ġengineer": 8430,
      "acher": 8431,
      "ĠYear": 8432,
      "ĠEmma": 8433,
      "Ġgrat": 8434,
      "Ġderive": 8435,
      "ada": 8436,
      "PU": 8437,
      "Ġcompleting": 8438,
      "Ġvisible": 8439,
      "ployment": 8440,
      "Ġformulas": 8441,
      "Ġcowork": 8442,
      "true": 8443,
      "Ġobvious": 8444,
      "++)": 8445,
      "ĠNon": 8446,
      "AG": 8447,
      "Ġnotation": 8448,
      "ĠDetermine": 8449,
      "ĠST": 8450,
      "Ġelectron": 8451,
      "Ġverbs": 8452,
      "Ġanecd": 8453,
      "Ġmechanics": 8454,
      "chain": 8455,
      "Ġbool": 8456,
      "Ġcombinator": 8457,
      "Ġseemingly": 8458,
      "Ġvit": 8459,
      "Ġsegments": 8460,
      "Ġshares": 8461,
      "Ġdevelopers": 8462,
      "Ġ\\\")\\": 8463,
      "Ġmatching": 8464,
      "Ġmixed": 8465,
      "Ġdesigning": 8466,
      "angers": 8467,
      "ĠQue": 8468,
      "Ġgenre": 8469,
      "ĠJen": 8470,
      "Ġconsequence": 8471,
      "Ġordered": 8472,
      "Ġcompassion": 8473,
      "outs": 8474,
      "Ġvacc": 8475,
      "Ġbodies": 8476,
      "Ġlesson": 8477,
      "ĠGerman": 8478,
      "Ġgalaxy": 8479,
      "aver": 8480,
      "Ġallocation": 8481,
      "ica": 8482,
      "ployee": 8483,
      "Ġcircles": 8484,
      "ĠAlthough": 8485,
      "abs": 8486,
      "Ġbucket": 8487,
      "umps": 8488,
      "Ġbranch": 8489,
      "Ġbelievable": 8490,
      "Ġiron": 8491,
      "week": 8492,
      "ĠImagine": 8493,
      "Ġinn": 8494,
      "Ġpropose": 8495,
      "Ġrural": 8496,
      "Ġfactorization": 8497,
      "Ġunpredict": 8498,
      "Ġinviting": 8499,
      "undred": 8500,
      "Ġconvenience": 8501,
      "Read": 8502,
      "ĠUnderstanding": 8503,
      "Ġidiomatic": 8504,
      "default": 8505,
      "Ġconcentration": 8506,
      "Ġnavigation": 8507,
      "Ġelectricity": 8508,
      "cription": 8509,
      "ameter": 8510,
      "}$,": 8511,
      "43": 8512,
      "}.": 8513,
      "nthe": 8514,
      "Ġintuition": 8515,
      "Ġinfluences": 8516,
      "ercial": 8517,
      "Ġcatal": 8518,
      "Ġjudgment": 8519,
      "Ġregional": 8520,
      "anish": 8521,
      "Ġinject": 8522,
      "Ġpanel": 8523,
      "};\\": 8524,
      "Ġproven": 8525,
      "Ġparabola": 8526,
      "Ġcharacterized": 8527,
      "Ġdemographic": 8528,
      "Ġgrateful": 8529,
      "aturally": 8530,
      "Ġtheoretical": 8531,
      "Ġcompound": 8532,
      "Ġtemp": 8533,
      "ĠPresident": 8534,
      "create": 8535,
      "Ġrepair": 8536,
      "Ġoccurrence": 8537,
      "Ġattached": 8538,
      "ednes": 8539,
      "Ġlib": 8540,
      "Ġfootprint": 8541,
      "?\\\"\",": 8542,
      "SV": 8543,
      "Ġmedicine": 8544,
      "Ġtraveler": 8545,
      "Ġlunch": 8546,
      "tract": 8547,
      "Ġpin": 8548,
      "Ġhints": 8549,
      "\":\"<<": 8550,
      "nCon": 8551,
      "Ġbreathing": 8552,
      "Ġboundary": 8553,
      "vol": 8554,
      "Ġbuff": 8555,
      "ĠVari": 8556,
      "aul": 8557,
      "Ġ88": 8558,
      "reed": 8559,
      "Ġcareers": 8560,
      "Ġsacrific": 8561,
      "\\\"]": 8562,
      "Ġapproaching": 8563,
      "Ġdetermines": 8564,
      "SD": 8565,
      "grad": 8566,
      "Ġofferings": 8567,
      "Ġretention": 8568,
      "ilde": 8569,
      "Ġequally": 8570,
      "mm": 8571,
      "Ġadvoc": 8572,
      "Ġshipping": 8573,
      "ĠCO": 8574,
      "Ġguides": 8575,
      "Ġresearching": 8576,
      "Ġrespondents": 8577,
      "Ġnth": 8578,
      "Ġbelieved": 8579,
      "ĠAccording": 8580,
      "Ġdiscrete": 8581,
      "height": 8582,
      "Ġreadable": 8583,
      "ĠCompany": 8584,
      "kins": 8585,
      "Ġinductive": 8586,
      "Ġbelief": 8587,
      "Ġdistinguish": 8588,
      "Ġisolated": 8589,
      "Ġcircular": 8590,
      "Ġap": 8591,
      "Ġdive": 8592,
      "ptember": 8593,
      "Ġoptimized": 8594,
      "Ġtwe": 8595,
      "ologist": 8596,
      "Ġintensity": 8597,
      "Ġast": 8598,
      "Ġschol": 8599,
      "Ġnuclear": 8600,
      "soft": 8601,
      "otten": 8602,
      "Ġ$(": 8603,
      "Ġguarantee": 8604,
      "car": 8605,
      "Ġindicators": 8606,
      "oday": 8607,
      "Ġpm": 8608,
      "Ġdress": 8609,
      "abc": 8610,
      "gamma": 8611,
      "rum": 8612,
      "alled": 8613,
      "Ġhierarch": 8614,
      "Count": 8615,
      "Des": 8616,
      "Ġpure": 8617,
      "Ġirre": 8618,
      "Element": 8619,
      "Ġ\\\\\\\\": 8620,
      "Ġcurves": 8621,
      "Ġmanagers": 8622,
      "ferential": 8623,
      "Ġswim": 8624,
      "Ġmisu": 8625,
      "nThen": 8626,
      "ĠChoose": 8627,
      "diction": 8628,
      "Ġweights": 8629,
      "Ġflights": 8630,
      "ushed": 8631,
      "ĠĠĠĠĠĠĠĠĠĠĠĠ": 8632,
      "Ġorganizing": 8633,
      "Ġfavorable": 8634,
      "idity": 8635,
      "Ġpackages": 8636,
      "ythag": 8637,
      "Ġheritage": 8638,
      "ĠĠĠĠĠĠĠĠĠĠĠĠĠĠĠĠĠĠĠĠĠĠĠĠĠĠĠ": 8639,
      "incipal": 8640,
      "Ġbike": 8641,
      "Ġcountless": 8642,
      "plicity": 8643,
      "Ġsums": 8644,
      "ega": 8645,
      "Ġfinished": 8646,
      "acter": 8647,
      "charge": 8648,
      "Ġdownload": 8649,
      "phis": 8650,
      "men": 8651,
      "Ġcoordinate": 8652,
      "ategory": 8653,
      "69": 8654,
      "bin": 8655,
      "Ġreads": 8656,
      "Ġtechnological": 8657,
      "Ġsubstring": 8658,
      "Ġsystematic": 8659,
      "Ġbars": 8660,
      "cember": 8661,
      "Ġpil": 8662,
      "onday": 8663,
      "mazon": 8664,
      "Ġbutton": 8665,
      "Ġclever": 8666,
      "Ġhouses": 8667,
      "}{\\\\": 8668,
      "escribe": 8669,
      "csharp": 8670,
      "sequence": 8671,
      "sample": 8672,
      "Ġmatrices": 8673,
      "Ġoperate": 8674,
      "Ġlambda": 8675,
      "Ġfram": 8676,
      "Ġourselves": 8677,
      "Ġnaturally": 8678,
      "area": 8679,
      "Ġfourth": 8680,
      "Ġcritically": 8681,
      "Ġhusband": 8682,
      "Ġreporting": 8683,
      "ĠAustral": 8684,
      "gn": 8685,
      "Ġinvite": 8686,
      "Ġunable": 8687,
      "Ġmilestones": 8688,
      "Ġju": 8689,
      "tim": 8690,
      "utput": 8691,
      "Ġconverting": 8692,
      "she": 8693,
      "Ġexecute": 8694,
      "Ġdiagonal": 8695,
      "(*": 8696,
      "minute": 8697,
      "Ġarrived": 8698,
      "ĠWhether": 8699,
      "ĠLine": 8700,
      "effective": 8701,
      "Ġ92": 8702,
      "Ġending": 8703,
      "Ġdot": 8704,
      "Ġartwork": 8705,
      "ĠUsed": 8706,
      "oices": 8707,
      "kers": 8708,
      "Ġiterating": 8709,
      "Ġunch": 8710,
      "unt": 8711,
      "well": 8712,
      "Ġproduces": 8713,
      "ĠHy": 8714,
      "63": 8715,
      "Ġintention": 8716,
      "ateral": 8717,
      "Ġ250": 8718,
      "ĠApril": 8719,
      "Acc": 8720,
      "Ġtrail": 8721,
      "Ġweekend": 8722,
      "tif": 8723,
      "ĠChina": 8724,
      "Ġincomplete": 8725,
      "Ġce": 8726,
      "ĠVal": 8727,
      "Ġru": 8728,
      "parse": 8729,
      "Ġsector": 8730,
      "Ġmig": 8731,
      "scores": 8732,
      "Absolute": 8733,
      "Ġdevast": 8734,
      "Ġscenes": 8735,
      "Ġredundant": 8736,
      "ĠTotal": 8737,
      "Ġsalt": 8738,
      "Ġpursuing": 8739,
      "ĠPat": 8740,
      "Ġemployment": 8741,
      "Ġadjacent": 8742,
      "bies": 8743,
      "Ġcontrolling": 8744,
      "1000": 8745,
      "Ġfold": 8746,
      "Ġsending": 8747,
      "Ġperceived": 8748,
      "Ġhandles": 8749,
      "Ġgaze": 8750,
      "Ġ([": 8751,
      "Ġemployed": 8752,
      "Ġbiod": 8753,
      "Ġtreatments": 8754,
      "tee": 8755,
      "Ġassertions": 8756,
      "Ġbakery": 8757,
      "ĠEast": 8758,
      "Ġpreced": 8759,
      "Ġhonor": 8760,
      "Ġpromise": 8761,
      "rency": 8762,
      "brid": 8763,
      "Ġmine": 8764,
      "Ġcyber": 8765,
      "Ġworn": 8766,
      "Ġaccidents": 8767,
      "banana": 8768,
      "Ġ49": 8769,
      "ooked": 8770,
      "Ġcomposed": 8771,
      "ĠRuss": 8772,
      "[-": 8773,
      "Ad": 8774,
      "Ġtrick": 8775,
      "Ġdense": 8776,
      "iforn": 8777,
      "Ġpride": 8778,
      "oxide": 8779,
      "ifaceted": 8780,
      "Ġsophisticated": 8781,
      "51": 8782,
      "Ġfro": 8783,
      ".)\",": 8784,
      "nHope": 8785,
      "anches": 8786,
      "Ġidentical": 8787,
      "useum": 8788,
      "Ġbuzz": 8789,
      "ednesday": 8790,
      "Ġniche": 8791,
      "fitting": 8792,
      "Ġ42": 8793,
      "bound": 8794,
      "`\\": 8795,
      "Ġaccounting": 8796,
      "Ġmissed": 8797,
      "Ġagent": 8798,
      "AS": 8799,
      "sect": 8800,
      "natural": 8801,
      "Ġdistrict": 8802,
      "Ġwindows": 8803,
      "Ġtur": 8804,
      "spe": 8805,
      "[:": 8806,
      "Ġresponding": 8807,
      "Ġwish": 8808,
      "Ġsimplicity": 8809,
      "Ġrespective": 8810,
      "delta": 8811,
      "72": 8812,
      "Ġaest": 8813,
      "ythagorean": 8814,
      "Ġcharity": 8815,
      "Ġalter": 8816,
      "Ġaudiences": 8817,
      "Ġclick": 8818,
      "datetime": 8819,
      "Ġprotocols": 8820,
      "Ġspons": 8821,
      "Ġrum": 8822,
      "Ġformats": 8823,
      "Ġinstant": 8824,
      "Ġdanger": 8825,
      "Ġentering": 8826,
      "Ġfailed": 8827,
      "Ġsettle": 8828,
      "roups": 8829,
      "cout": 8830,
      "Ġsenior": 8831,
      "Ġsentiment": 8832,
      "lecting": 8833,
      "nHe": 8834,
      "Ġintrospect": 8835,
      "cat": 8836,
      "Ġneither": 8837,
      "Ġcubic": 8838,
      "arding": 8839,
      "Ġhypotheses": 8840,
      "event": 8841,
      "deg": 8842,
      "Ġmolec": 8843,
      "olf": 8844,
      "Ġautonomy": 8845,
      "sided": 8846,
      "Ġsle": 8847,
      "inu": 8848,
      "Ġbytes": 8849,
      "Ġgun": 8850,
      "ĠWil": 8851,
      "that": 8852,
      "Par": 8853,
      "Ġtom": 8854,
      "Ġ2013": 8855,
      "Emily": 8856,
      "Ġvulnerability": 8857,
      "Ġspiritual": 8858,
      "Ġintellect": 8859,
      "fty": 8860,
      "Ġcommercial": 8861,
      "ĠProgram": 8862,
      "Ġlegal": 8863,
      "0304": 8864,
      "Ġfuels": 8865,
      "adow": 8866,
      "ĠHel": 8867,
      "ifornia": 8868,
      ".*": 8869,
      "Ġtransactions": 8870,
      "Ġcrisis": 8871,
      "At": 8872,
      "ĠStandard": 8873,
      "Ġexpanding": 8874,
      "Ġdimension": 8875,
      "Ġusual": 8876,
      "Ġsuccesses": 8877,
      "Ġgri": 8878,
      "Ġbreakdown": 8879,
      "urable": 8880,
      "agrams": 8881,
      "Ġportfolio": 8882,
      "400": 8883,
      "Ġ33": 8884,
      "elements": 8885,
      "Ġexhibits": 8886,
      "nresult": 8887,
      "Ġcodes": 8888,
      "olds": 8889,
      "Ġath": 8890,
      "Ġescal": 8891,
      "Ġburden": 8892,
      "Ġalert": 8893,
      "Me": 8894,
      "ette": 8895,
      "hour": 8896,
      "nY": 8897,
      "Ġsimultaneously": 8898,
      "Cal": 8899,
      "Ġcher": 8900,
      "csv": 8901,
      "ultip": 8902,
      "arest": 8903,
      "Ġopened": 8904,
      "ĠSpanish": 8905,
      "Ġproportional": 8906,
      "Ġrequiring": 8907,
      "Ġwooden": 8908,
      "Ġmovies": 8909,
      "omy": 8910,
      "awareness": 8911,
      "cre": 8912,
      "unit": 8913,
      "Ġpounds": 8914,
      "Ġflag": 8915,
      "^\\\\": 8916,
      "Ġdramatic": 8917,
      "Ġsorts": 8918,
      "Ġdeals": 8919,
      "emory": 8920,
      "Ġmarbles": 8921,
      "duplicates": 8922,
      "Ġsor": 8923,
      "agger": 8924,
      "Ġparks": 8925,
      "Ġthousands": 8926,
      "estamp": 8927,
      "ractice": 8928,
      "Ġcondens": 8929,
      "Ġtickets": 8930,
      "ĠFeb": 8931,
      "Ġcontempor": 8932,
      "onal": 8933,
      "Ġworst": 8934,
      "counts": 8935,
      "Ġenjoyed": 8936,
      "ĠLog": 8937,
      "Ġpolitics": 8938,
      "Ġtiss": 8939,
      "Ġdelays": 8940,
      "uman": 8941,
      "ĠNet": 8942,
      "mind": 8943,
      "onomic": 8944,
      "Ġyoga": 8945,
      "ĠOct": 8946,
      "nConsidering": 8947,
      "Ġsilence": 8948,
      "Ġ{\\\\": 8949,
      "Ġcontents": 8950,
      "Ġfarmers": 8951,
      "achine": 8952,
      "Analy": 8953,
      "Ġtexts": 8954,
      "Ġcontradiction": 8955,
      "icular": 8956,
      "ĠYes": 8957,
      "Ġpartnering": 8958,
      "ĠDefine": 8959,
      "aker": 8960,
      "Ġmultifaceted": 8961,
      "Ġwhisper": 8962,
      "Ġfloating": 8963,
      "Ġfrag": 8964,
      "Ġhorizont": 8965,
      "Ġnutrients": 8966,
      "ĠClass": 8967,
      "Ġdifficulties": 8968,
      "Ġfrustration": 8969,
      "Develop": 8970,
      "igious": 8971,
      "ĠSal": 8972,
      "ĠEstablish": 8973,
      "Ġtreated": 8974,
      "AP": 8975,
      "depth": 8976,
      "Ġ76": 8977,
      "Ġticket": 8978,
      "ĠNULL": 8979,
      "Ġfaint": 8980,
      "atell": 8981,
      "ĠPythagorean": 8982,
      "ĠShare": 8983,
      "Now": 8984,
      "nconsole": 8985,
      "Ġmysteries": 8986,
      "Ġpeers": 8987,
      "db": 8988,
      "Ġevolving": 8989,
      "Ġformatted": 8990,
      "Ġphilosophy": 8991,
      "Ġlun": 8992,
      "agree": 8993,
      "Ġemerge": 8994,
      "Ġanticipation": 8995,
      "represent": 8996,
      "Would": 8997,
      "IF": 8998,
      "Ġhundred": 8999,
      "ensor": 9000,
      "Ġsetbacks": 9001,
      "Ġhall": 9002,
      "Ġeight": 9003,
      "Ġdrivers": 9004,
      "%)": 9005,
      "Ġaccountability": 9006,
      "Ġmask": 9007,
      "ĠUK": 9008,
      "anguage": 9009,
      "Ġadministr": 9010,
      "Ġinaccur": 9011,
      "Ġqualities": 9012,
      "query": 9013,
      "ĠConference": 9014,
      "Ġcovers": 9015,
      "Ġ2010": 9016,
      "Ġsymbols": 9017,
      "Ġinterpreted": 9018,
      "Ġbind": 9019,
      "Ġendless": 9020,
      "Ġreinforce": 9021,
      "icago": 9022,
      "nAss": 9023,
      "Method": 9024,
      "0438": 9025,
      "onna": 9026,
      "Ġdecorator": 9027,
      "Ġeggs": 9028,
      "child": 9029,
      "Ġwest": 9030,
      "US": 9031,
      "Ġvalued": 9032,
      "Ġinferences": 9033,
      "ĠAnalysis": 9034,
      "Ġtroub": 9035,
      "Ġkil": 9036,
      "Absolutely": 9037,
      "Ġec": 9038,
      "defined": 9039,
      "ĠHighlight": 9040,
      "Ġcompromise": 9041,
      "bur": 9042,
      "coordin": 9043,
      "Ġyellow": 9044,
      "IV": 9045,
      "Ġenjoying": 9046,
      "support": 9047,
      "page": 9048,
      "ĠSentence": 9049,
      "Ġrush": 9050,
      "ixture": 9051,
      "||": 9052,
      "Ġ37": 9053,
      "(),": 9054,
      "ĠCons": 9055,
      "nDespite": 9056,
      "Ġelectronic": 9057,
      "ĠConversely": 9058,
      "Ġ38": 9059,
      "Ġdissatisf": 9060,
      "ĠSocrates": 9061,
      "ado": 9062,
      "Ġsolved": 9063,
      "Ġdelib": 9064,
      "Ġloan": 9065,
      "Ġrid": 9066,
      "roduction": 9067,
      "Ġoperators": 9068,
      "Ġ89": 9069,
      "Ġbirthday": 9070,
      "Ġhistoric": 9071,
      "ĠItaly": 9072,
      "Ġauthorities": 9073,
      "Ġcheese": 9074,
      "iating": 9075,
      "Ġwarmth": 9076,
      "frequ": 9077,
      "nBoth": 9078,
      "filled": 9079,
      "ĠMus": 9080,
      "ĠWrite": 9081,
      "ĠHouse": 9082,
      "Ġextent": 9083,
      "Ġhaz": 9084,
      "ford": 9085,
      "ĠAPI": 9086,
      "Ġpleasure": 9087,
      "forming": 9088,
      "ĠRiver": 9089,
      "Ġexit": 9090,
      "Ġproposition": 9091,
      "Ġwidget": 9092,
      "ĠPre": 9093,
[...]
